{
  "version": "1.0",
  "truncation": null,
  "padding": null,
  "added_tokens": [
    {
      "id": 0,
      "content": "[UNK]",
      "single_word": false,
      "lstrip": false,
      "rstrip": false,
      "normalized": false,
      "special": true
    },
    {
      "id": 1,
      "content": "[PAD]",
      "single_word": false,
      "lstrip": false,
      "rstrip": false,
      "normalized": false,
      "special": true
    },
    {
      "id": 2,
      "content": "[CLS]",
      "single_word": false,
      "lstrip": false,
      "rstrip": false,
      "normalized": false,
      "special": true
    },
    {
      "id": 3,
      "content": "[SEP]",
      "single_word": false,
      "lstrip": false,
      "rstrip": false,
      "normalized": false,
      "special": true
    },
    {
      "id": 4,
      "content": "[MASK]",
      "single_word": false,
      "lstrip": false,
      "rstrip": false,
      "normalized": false,
      "special": true
    }
  ],
  "normalizer": null,
  "pre_tokenizer": {
    "type": "ByteLevel",
    "add_prefix_space": false,
    "trim_offsets": true,
    "use_regex": true
  },
  "post_processor": {
    "type": "ByteLevel",
    "add_prefix_space": true,
    "trim_offsets": false,
    "use_regex": true
  },
  "decoder": {
    "type": "ByteLevel",
    "add_prefix_space": true,
    "trim_offsets": true,
    "use_regex": true
  },
  "model": {
    "type": "BPE",
    "dropout": null,
    "unk_token": "[UNK]",
    "continuing_subword_prefix": null,
    "end_of_word_suffix": null,
    "fuse_unk": false,
    "byte_fallback": false,
    "ignore_merges": false,
    "vocab": {
      "[UNK]": 0,
      "[PAD]": 1,
      "[CLS]": 2,
      "[SEP]": 3,
      "[MASK]": 4,
      "!": 5,
      "\"": 6,
      "#": 7,
      "$": 8,
      "%": 9,
      "&": 10,
      "'": 11,
      "(": 12,
      ")": 13,
      "*": 14,
      "+": 15,
      ",": 16,
      "-": 17,
      ".": 18,
      "/": 19,
      "0": 20,
      "1": 21,
      "2": 22,
      "3": 23,
      "4": 24,
      "5": 25,
      "6": 26,
      "7": 27,
      "8": 28,
      "9": 29,
      ":": 30,
      ";": 31,
      "<": 32,
      "=": 33,
      ">": 34,
      "?": 35,
      "@": 36,
      "A": 37,
      "B": 38,
      "C": 39,
      "D": 40,
      "E": 41,
      "F": 42,
      "G": 43,
      "H": 44,
      "I": 45,
      "J": 46,
      "K": 47,
      "L": 48,
      "M": 49,
      "N": 50,
      "O": 51,
      "P": 52,
      "Q": 53,
      "R": 54,
      "S": 55,
      "T": 56,
      "U": 57,
      "V": 58,
      "W": 59,
      "X": 60,
      "Y": 61,
      "Z": 62,
      "[": 63,
      "\\": 64,
      "]": 65,
      "^": 66,
      "_": 67,
      "`": 68,
      "a": 69,
      "b": 70,
      "c": 71,
      "d": 72,
      "e": 73,
      "f": 74,
      "g": 75,
      "h": 76,
      "i": 77,
      "j": 78,
      "k": 79,
      "l": 80,
      "m": 81,
      "n": 82,
      "o": 83,
      "p": 84,
      "q": 85,
      "r": 86,
      "s": 87,
      "t": 88,
      "u": 89,
      "v": 90,
      "w": 91,
      "x": 92,
      "y": 93,
      "z": 94,
      "{": 95,
      "|": 96,
      "}": 97,
      "~": 98,
      "¡": 99,
      "¢": 100,
      "£": 101,
      "¤": 102,
      "¥": 103,
      "¦": 104,
      "§": 105,
      "¨": 106,
      "©": 107,
      "ª": 108,
      "«": 109,
      "¬": 110,
      "®": 111,
      "¯": 112,
      "°": 113,
      "±": 114,
      "²": 115,
      "³": 116,
      "´": 117,
      "µ": 118,
      "¶": 119,
      "·": 120,
      "¸": 121,
      "¹": 122,
      "º": 123,
      "»": 124,
      "¼": 125,
      "½": 126,
      "¾": 127,
      "¿": 128,
      "À": 129,
      "Á": 130,
      "Â": 131,
      "Ã": 132,
      "Ä": 133,
      "Å": 134,
      "Æ": 135,
      "Ç": 136,
      "È": 137,
      "É": 138,
      "Ê": 139,
      "Ë": 140,
      "Ì": 141,
      "Í": 142,
      "Î": 143,
      "Ï": 144,
      "Ð": 145,
      "Ñ": 146,
      "Ò": 147,
      "Ó": 148,
      "Ô": 149,
      "Õ": 150,
      "Ö": 151,
      "×": 152,
      "Ø": 153,
      "Ù": 154,
      "Ú": 155,
      "Û": 156,
      "Ü": 157,
      "Ý": 158,
      "Þ": 159,
      "ß": 160,
      "à": 161,
      "á": 162,
      "â": 163,
      "ã": 164,
      "ä": 165,
      "å": 166,
      "æ": 167,
      "ç": 168,
      "è": 169,
      "é": 170,
      "ê": 171,
      "ë": 172,
      "ì": 173,
      "í": 174,
      "î": 175,
      "ï": 176,
      "ð": 177,
      "ñ": 178,
      "ò": 179,
      "ó": 180,
      "ô": 181,
      "õ": 182,
      "ö": 183,
      "÷": 184,
      "ø": 185,
      "ù": 186,
      "ú": 187,
      "û": 188,
      "ü": 189,
      "ý": 190,
      "þ": 191,
      "ÿ": 192,
      "Ā": 193,
      "ā": 194,
      "Ă": 195,
      "ă": 196,
      "Ą": 197,
      "ą": 198,
      "Ć": 199,
      "ć": 200,
      "Ĉ": 201,
      "ĉ": 202,
      "Ċ": 203,
      "ċ": 204,
      "Č": 205,
      "č": 206,
      "Ď": 207,
      "ď": 208,
      "Đ": 209,
      "đ": 210,
      "Ē": 211,
      "ē": 212,
      "Ĕ": 213,
      "ĕ": 214,
      "Ė": 215,
      "ė": 216,
      "Ę": 217,
      "ę": 218,
      "Ě": 219,
      "ě": 220,
      "Ĝ": 221,
      "ĝ": 222,
      "Ğ": 223,
      "ğ": 224,
      "Ġ": 225,
      "ġ": 226,
      "Ģ": 227,
      "ģ": 228,
      "Ĥ": 229,
      "ĥ": 230,
      "Ħ": 231,
      "ħ": 232,
      "Ĩ": 233,
      "ĩ": 234,
      "Ī": 235,
      "ī": 236,
      "Ĭ": 237,
      "ĭ": 238,
      "Į": 239,
      "į": 240,
      "İ": 241,
      "ı": 242,
      "Ĳ": 243,
      "ĳ": 244,
      "Ĵ": 245,
      "ĵ": 246,
      "Ķ": 247,
      "ķ": 248,
      "ĸ": 249,
      "Ĺ": 250,
      "ĺ": 251,
      "Ļ": 252,
      "ļ": 253,
      "Ľ": 254,
      "ľ": 255,
      "Ŀ": 256,
      "ŀ": 257,
      "Ł": 258,
      "ł": 259,
      "Ń": 260,
      "ĠĠ": 261,
      "ĠĠĠĠ": 262,
      "Ġ\"": 263,
      "ĠĠĠĠĠĠĠĠ": 264,
      "\":": 265,
      "ĠĠĠ": 266,
      "ĠĠĠĠĠĠĠ": 267,
      "in": 268,
      "ĠĠĠĠĠ": 269,
      "te": 270,
      "\",": 271,
      "ca": 272,
      "ĠĠĠĠĠĠĠĠĠ": 273,
      "on": 274,
      "Ġ[": 275,
      "or": 276,
      "Ġ{": 277,
      "Ġ}": 278,
      "ot": 279,
      "ĠĠĠĠĠĠĠĠĠĠĠĠĠ": 280,
      "ion": 281,
      "er": 282,
      "ut": 283,
      "ori": 284,
      "],": 285,
      "cal": 286,
      "cate": 287,
      "gori": 288,
      "categori": 289,
      "ĠĠĠĠĠĠĠĠĠĠĠ": 290,
      "Ġ},": 291,
      "categorical": 292,
      "em": 293,
      "al": 294,
      "==": 295,
      "Ġt": 296,
      "otion": 297,
      "an": 298,
      "emotion": 299,
      "di": 300,
      "om": 301,
      "ain": 302,
      "ar": 303,
      "ue": 304,
      "og": 305,
      "id": 306,
      "alog": 307,
      "dialog": 308,
      "ct": 309,
      "ea": 310,
      "sp": 311,
      "ce": 312,
      "nt": 313,
      "ter": 314,
      "dom": 315,
      "dialogue": 316,
      "domain": 317,
      "Ġ],": 318,
      "Ġth": 319,
      "ary": 320,
      "inary": 321,
      "act": 322,
      "ance": 323,
      "ou": 324,
      "lot": 325,
      "eak": 326,
      "speak": 327,
      "tent": 328,
      "non": 329,
      "utt": 330,
      "utter": 331,
      "acts": 332,
      "speaker": 333,
      "intent": 334,
      "slot": 335,
      "binary": 336,
      "Ġ\"\",": 337,
      "Ġ\"\"": 338,
      "Ġ[]": 339,
      "utterance": 340,
      "Ġ[],": 341,
      "idx": 342,
      "no": 343,
      "====": 344,
      "at": 345,
      "Ġemotion": 346,
      "Ġs": 347,
      "Ġw": 348,
      "us": 349,
      "Ġa": 350,
      "for": 351,
      "ve": 352,
      "Ġm": 353,
      "Ġthe": 354,
      ".\",": 355,
      "it": 356,
      "Ġh": 357,
      "Ġy": 358,
      "is": 359,
      "re": 360,
      "st": 361,
      "Ġyou": 362,
      "Ġb": 363,
      "ĠI": 364,
      "ys": 365,
      "user": 366,
      "Ġto": 367,
      "tem": 368,
      "ystem": 369,
      "ing": 370,
      "system": 371,
      "es": 372,
      "form": 373,
      "il": 374,
      "inform": 375,
      "========": 376,
      "Ġp": 377,
      "Ġc": 378,
      "Ġan": 379,
      "Ġo": 380,
      "Ġd": 381,
      "et": 382,
      "Ġl": 383,
      "tr": 384,
      "ive": 385,
      "Ġf": 386,
      "?\",": 387,
      "Ġg": 388,
      "train": 389,
      "que": 390,
      "en": 391,
      "da": 392,
      "stion": 393,
      "question": 394,
      "Ġand": 395,
      "Ġin": 396,
      "as": 397,
      "Ġof": 398,
      "ily": 399,
      "el": 400,
      "dat": 401,
      "Ġ1": 402,
      "daily": 403,
      "dailydialog": 404,
      "ur": 405,
      "Ġn": 406,
      "Th": 407,
      "ed": 408,
      "Ġis": 409,
      "'s": 410,
      "Ġit": 411,
      "##": 412,
      "================": 413,
      "Ġha": 414,
      "se": 415,
      "pp": 416,
      "Ġbe": 417,
      "ow": 418,
      "Ġfor": 419,
      "ch": 420,
      "ess": 421,
      "rect": 422,
      "ke": 423,
      "direct": 424,
      "Ġca": 425,
      "le": 426,
      "directive": 427,
      "ere": 428,
      "ly": 429,
      "oo": 430,
      "Ġon": 431,
      "ay": 432,
      "gh": 433,
      "ld": 434,
      "Ġthat": 435,
      "Ġre": 436,
      "ha": 437,
      "urn": 438,
      "Ġ2": 439,
      "Ġe": 440,
      "Ġhave": 441,
      "Ġr": 442,
      "Ġar": 443,
      "ver": 444,
      "im": 445,
      "Ġme": 446,
      "iness": 447,
      "gin": 448,
      "turn": 449,
      "Wh": 450,
      "lit": 451,
      "Ġ0": 452,
      "origin": 453,
      "original": 454,
      "Ġ3": 455,
      "split": 456,
      "turns": 457,
      "aset": 458,
      "Ġwh": 459,
      "data": 460,
      "Ġ]": 461,
      "domains": 462,
      "dataset": 463,
      "Ġdo": 464,
      "ppiness": 465,
      "happiness": 466,
      "ation": 467,
      "ll": 468,
      "'t": 469,
      "ir": 470,
      "if": 471,
      "ith": 472,
      "ould": 473,
      "com": 474,
      "Ġyour": 475,
      "ght": 476,
      "ent": 477,
      "ill": 478,
      "Ġcan": 479,
      "Ġare": 480,
      "iss": 481,
      "our": 482,
      "Ġal": 483,
      "Ġ4": 484,
      "nd": 485,
      "Ġwith": 486,
      "ic": 487,
      "Ġwe": 488,
      "Ġsh": 489,
      "comm": 490,
      "Ġpr": 491,
      "Ġst": 492,
      "###": 493,
      "Ġne": 494,
      "Ġmy": 495,
      "Ġli": 496,
      "ĠTh": 497,
      "issive": 498,
      "commissive": 499,
      "Ġ5": 500,
      "th": 501,
      "ight": 502,
      "ome": 503,
      "Ġk": 504,
      "now": 505,
      "ĠA": 506,
      "ell": 507,
      "Ġdi": 508,
      "Ġthis": 509,
      "Ġu": 510,
      "Ġso": 511,
      "What": 512,
      "Ġgo": 513,
      "ood": 514,
      "ust": 515,
      "ĠL": 516,
      "Ġ6": 517,
      "am": 518,
      "Ġlike": 519,
      "Ġsu": 520,
      "ĠR": 521,
      "Ġse": 522,
      "Ġas": 523,
      "ant": 524,
      "ck": 525,
      "ri": 526,
      "ĠS": 527,
      "Ġab": 528,
      "Ġpl": 529,
      "ate": 530,
      "out": 531,
      "You": 532,
      "ge": 533,
      "ake": 534,
      "Ġch": 535,
      "ĠC": 536,
      "op": 537,
      "Ġnot": 538,
      "ĠM": 539,
      "Ġat": 540,
      "Ġj": 541,
      "Ġhe": 542,
      "'m": 543,
      "Ġ7": 544,
      "ĠH": 545,
      "uct": 546,
      "Ġwor": 547,
      "Ġwill": 548,
      "ink": 549,
      "ul": 550,
      "rea": 551,
      "ip": 552,
      "ally": 553,
      "ad": 554,
      "sh": 555,
      "Ġcom": 556,
      "ĠIn": 557,
      "ice": 558,
      "very": 559,
      "her": 560,
      "Ġwas": 561,
      "Ġabout": 562,
      "Yes": 563,
      "Ġex": 564,
      "ĠB": 565,
      "str": 566,
      "ife": 567,
      "ry": 568,
      "ss": 569,
      "Ġpro": 570,
      "Ġus": 571,
      "Ġor": 572,
      "'ll": 573,
      "Ġ8": 574,
      "Ġte": 575,
      "ook": 576,
      "ĠW": 577,
      "spon": 578,
      "uction": 579,
      "Ġthink": 580,
      "Ġall": 581,
      "ĠRe": 582,
      "Ġbut": 583,
      "Ġknow": 584,
      "Ġde": 585,
      "and": 586,
      "struction": 587,
      "ank": 588,
      "Ġdon": 589,
      "ure": 590,
      "ind": 591,
      "sponse": 592,
      "Ġget": 593,
      "ĠInstruction": 594,
      "ĠResponse": 595,
      "========================": 596,
      "========================================": 597,
      "Ġcon": 598,
      "ĠIt": 599,
      "Ġfr": 600,
      "end": 601,
      "Ġthere": 602,
      "ship": 603,
      "ol": 604,
      "ime": 605,
      "Ġmor": 606,
      "ab": 607,
      "rd": 608,
      "Ġ9": 609,
      "um": 610,
      "ationship": 611,
      "Ġsome": 612,
      "!\",": 613,
      "ine": 614,
      "Ġone": 615,
      "Ġwhat": 616,
      "Rel": 617,
      "ra": 618,
      "ĠThe": 619,
      "Relationship": 620,
      "ers": 621,
      "art": 622,
      "Ġgood": 623,
      "ĠD": 624,
      "The": 625,
      "Ġwould": 626,
      "ĠLife": 627,
      "ear": 628,
      "ted": 629,
      "one": 630,
      "Ġany": 631,
      "ĠE": 632,
      "Ġup": 633,
      "un": 634,
      "Ġfrom": 635,
      "Ġsee": 636,
      "ard": 637,
      "Ġtime": 638,
      "ong": 639,
      "ff": 640,
      "That": 641,
      "all": 642,
      "Ġ10": 643,
      "Ġout": 644,
      "ig": 645,
      "Ġcomp": 646,
      "other": 647,
      "Ġv": 648,
      "Ġour": 649,
      "Ġam": 650,
      "'d": 651,
      "Ord": 652,
      "Ordinary": 653,
      "Ġen": 654,
      "qu": 655,
      "Ġright": 656,
      "Ġjust": 657,
      "ease": 658,
      "It": 659,
      "Ġvery": 660,
      "Ġwant": 661,
      "Ġmo": 662,
      "Ġneed": 663,
      "ound": 664,
      "Ġlo": 665,
      "ort": 666,
      "Ġthey": 667,
      "Ġsp": 668,
      "ity": 669,
      "Ġwork": 670,
      "Ġhere": 671,
      "No": 672,
      "uch": 673,
      "ĠP": 674,
      "Ġmore": 675,
      "Ġby": 676,
      "Ġtoo": 677,
      "ĠYou": 678,
      "val": 679,
      "Ġif": 680,
      "ect": 681,
      "ie": 682,
      "ack": 683,
      "10": 684,
      "Ġmuch": 685,
      "ise": 686,
      "Ġshould": 687,
      "Ġman": 688,
      "Ġno": 689,
      "test": 690,
      "Ġbr": 691,
      "Ġlook": 692,
      "Ġhel": 693,
      "Ġtake": 694,
      "ous": 695,
      "day": 696,
      "ang": 697,
      "Ġtr": 698,
      "ning": 699,
      "Well": 700,
      "ment": 701,
      "Ġdid": 702,
      "tion": 703,
      "ud": 704,
      "ast": 705,
      "Ġpo": 706,
      "Ġhelp": 707,
      "ĠT": 708,
      "ci": 709,
      "idation": 710,
      "validation": 711,
      "Oh": 712,
      "ag": 713,
      "Ġthem": 714,
      "Ġhis": 715,
      "Ġpre": 716,
      "Ġreally": 717,
      "..": 718,
      "pr": 719,
      "ead": 720,
      "Ġnow": 721,
      "reat": 722,
      "ame": 723,
      "ork": 724,
      "Ġfe": 725,
      "'re": 726,
      "Ġnew": 727,
      "ick": 728,
      "Ġgoing": 729,
      "How": 730,
      "ays": 731,
      "ĠWhat": 732,
      "Ġhim": 733,
      "ies": 734,
      "Ġoff": 735,
      "Ġmake": 736,
      "ĠF": 737,
      "Ġ11": 738,
      "ist": 739,
      "Ġco": 740,
      "Ġma": 741,
      "eas": 742,
      "ish": 743,
      "ich": 744,
      "Ġher": 745,
      "ree": 746,
      "ten": 747,
      "ep": 748,
      "Ġplease": 749,
      "ob": 750,
      "ĠO": 751,
      "And": 752,
      "Ġcl": 753,
      "ence": 754,
      "ĠG": 755,
      "age": 756,
      "ĠWe": 757,
      "Ġtw": 758,
      "Ġexp": 759,
      "Ġim": 760,
      "Ġaf": 761,
      "Ġhow": 762,
      "Ġhas": 763,
      "able": 764,
      "Ġag": 765,
      "ount": 766,
      "Ġbeen": 767,
      "Ġgive": 768,
      "Ġthou": 769,
      "Ġqu": 770,
      "ĠJ": 771,
      "ite": 772,
      "ide": 773,
      "Thank": 774,
      "hing": 775,
      "ass": 776,
      "Ġpe": 777,
      "Ġro": 778,
      "bl": 779,
      "iz": 780,
      "use": 781,
      "row": 782,
      "der": 783,
      "ace": 784,
      "Ġbet": 785,
      "Ġinter": 786,
      "ro": 787,
      "Ġwhen": 788,
      "Ġcould": 789,
      "ople": 790,
      "ven": 791,
      "Ġad": 792,
      "ving": 793,
      "Ġac": 794,
      "ble": 795,
      "Ġapp": 796,
      "Ġover": 797,
      "Ġhad": 798,
      "eat": 799,
      "sur": 800,
      "Ġshe": 801,
      "Ġthen": 802,
      "irst": 803,
      "ber": 804,
      "Ġcal": 805,
      "ĠBut": 806,
      "'ve": 807,
      "king": 808,
      "thing": 809,
      "Ġother": 810,
      "Ġsa": 811,
      "Do": 812,
      "so": 813,
      "Ġpeople": 814,
      "00": 815,
      "Ġgot": 816,
      "Ġcome": 817,
      "Ġbus": 818,
      "Ġtheir": 819,
      "ĠHow": 820,
      "omet": 821,
      "Ġwell": 822,
      "Ġtwo": 823,
      "Ġun": 824,
      "ĠĊ": 825,
      "prise": 826,
      "Ġsir": 827,
      "ough": 828,
      "Ġfo": 829,
      "ĠN": 830,
      "ings": 831,
      "Ġday": 832,
      "ful": 833,
      "Work": 834,
      "oy": 835,
      "xt": 836,
      "Ġlet": 837,
      "ĠWh": 838,
      "Ġway": 839,
      "ness": 840,
      "Ġcall": 841,
      "ool": 842,
      "Ġevery": 843,
      "ose": 844,
      "surprise": 845,
      "eri": 846,
      "Ġbu": 847,
      "Ġtell": 848,
      "ign": 849,
      "be": 850,
      "os": 851,
      "ek": 852,
      "ark": 853,
      "Ġyear": 854,
      "Ġbl": 855,
      "Ġlove": 856,
      "own": 857,
      "Ġalso": 858,
      "any": 859,
      "Ġlong": 860,
      "est": 861,
      "Ġwa": 862,
      "cl": 863,
      "ord": 864,
      "ĠCh": 865,
      "Ġback": 866,
      "Ġsomet": 867,
      "Ġgreat": 868,
      "ty": 869,
      "ng": 870,
      "Ġfl": 871,
      "Ġsure": 872,
      "od": 873,
      "elf": 874,
      "We": 875,
      "Ġ12": 876,
      "ress": 877,
      "erv": 878,
      "to": 879,
      "Ġweek": 880,
      "Ġsay": 881,
      "Ġthan": 882,
      "He": 883,
      "pl": 884,
      "ans": 885,
      "Ġlot": 886,
      "orry": 887,
      "fore": 888,
      "Ġcour": 889,
      "blem": 890,
      "Ġproblem": 891,
      "Ġel": 892,
      "Ġafter": 893,
      "Ġstr": 894,
      "riend": 895,
      "he": 896,
      "Ġper": 897,
      "Ġpart": 898,
      "ents": 899,
      "Ġwere": 900,
      "ave": 901,
      "Ġdoes": 902,
      "Ġmay": 903,
      "per": 904,
      "ange": 905,
      "ile": 906,
      "are": 907,
      "Ġfind": 908,
      "Ġfirst": 909,
      "pt": 910,
      "igh": 911,
      "ail": 912,
      "ĠDo": 913,
      "ne": 914,
      "ute": 915,
      "Ġcar": 916,
      "cess": 917,
      "Ġmany": 918,
      "Ġke": 919,
      "ire": 920,
      "cation": 921,
      "Ġwon": 922,
      "ef": 923,
      "Ġmust": 924,
      "ert": 925,
      "tle": 926,
      "Ġimp": 927,
      "But": 928,
      "vel": 929,
      "Ġche": 930,
      "ĠHe": 931,
      "Ġbetter": 932,
      "Ġdr": 933,
      "Ġuse": 934,
      "Ġwho": 935,
      "Ġjob": 936,
      "OK": 937,
      "Ġsuch": 938,
      "Ġlea": 939,
      "ult": 940,
      "Ġroom": 941,
      "ade": 942,
      "ually": 943,
      "Ġres": 944,
      "Ġonly": 945,
      "ĠAnd": 946,
      "Ġsen": 947,
      "EN": 948,
      "Ġdiff": 949,
      "Good": 950,
      "Ġkind": 951,
      "Ġsomething": 952,
      "eah": 953,
      "IN": 954,
      "nder": 955,
      "Ġfeel": 956,
      "Ġtoday": 957,
      "Ġla": 958,
      "Ġcompany": 959,
      "Ġmost": 960,
      "Ġwhich": 961,
      "oth": 962,
      "Ġid": 963,
      "way": 964,
      "Ġsm": 965,
      "Ġfa": 966,
      "Ġfriend": 967,
      "llow": 968,
      "Is": 969,
      "con": 970,
      "Ġinto": 971,
      "oney": 972,
      "Ġpay": 973,
      "ĠThat": 974,
      "chool": 975,
      "Ġtry": 976,
      "Ġagain": 977,
      "Ġta": 978,
      "ism": 979,
      "ical": 980,
      "Ġdis": 981,
      "Ġbefore": 982,
      "Ġmeet": 983,
      "Ġlast": 984,
      "Ġcourse": 985,
      "ee": 986,
      "Ġgr": 987,
      "ude": 988,
      "Ġmin": 989,
      "anger": 990,
      "IO": 991,
      "each": 992,
      "Ġdown": 993,
      "Ġread": 994,
      "ild": 995,
      "Ġacc": 996,
      "Ġfollow": 997,
      "Ġdes": 998,
      "Ġhapp": 999,
      "ting": 1000,
      "ars": 1001,
      "we": 1002,
      "orrow": 1003,
      "ope": 1004,
      "ore": 1005,
      "Ġmorning": 1006,
      "Ġnext": 1007,
      "Ġthese": 1008,
      "ittle": 1009,
      "ions": 1010,
      "Ġname": 1011,
      "Ġsorry": 1012,
      "ĠThey": 1013,
      "adness": 1014,
      "Ġtra": 1015,
      "Yeah": 1016,
      "Ġmon": 1017,
      "Ġph": 1018,
      "Why": 1019,
      "Ġlittle": 1020,
      "Ġbuy": 1021,
      "My": 1022,
      "Ġwhere": 1023,
      "sadness": 1024,
      "ĠThis": 1025,
      "AR": 1026,
      "US": 1027,
      "ese": 1028,
      "Ġ13": 1029,
      "...": 1030,
      "Ġnight": 1031,
      "come": 1032,
      "Ġanything": 1033,
      "ĠMr": 1034,
      "ways": 1035,
      "Sure": 1036,
      "ounds": 1037,
      "alk": 1038,
      "Ġlear": 1039,
      "Ġmean": 1040,
      "Ġcheck": 1041,
      "int": 1042,
      "ory": 1043,
      "Ġnum": 1044,
      "Ġunder": 1045,
      "So": 1046,
      "atch": 1047,
      "Ġhome": 1048,
      "ath": 1049,
      "ach": 1050,
      "Ġbo": 1051,
      "ĠCan": 1052,
      "ial": 1053,
      "To": 1054,
      "cial": 1055,
      "Ġdidn": 1056,
      "li": 1057,
      "alth": 1058,
      "Ġprod": 1059,
      "ouse": 1060,
      "ourism": 1061,
      "Ġmoney": 1062,
      "Ġalways": 1063,
      "Ġplay": 1064,
      "ĠY": 1065,
      "Ġnever": 1066,
      "Ġem": 1067,
      "Tourism": 1068,
      "ds": 1069,
      "wn": 1070,
      "cause": 1071,
      "Ġho": 1072,
      "Ġact": 1073,
      "ather": 1074,
      "Ġhigh": 1075,
      "Ġused": 1076,
      "Ġthree": 1077,
      "kes": 1078,
      "Ġcol": 1079,
      "tence": 1080,
      "erson": 1081,
      "Ġask": 1082,
      "Ġdep": 1083,
      "Ok": 1084,
      "cent": 1085,
      "ello": 1086,
      "Ġthings": 1087,
      "Ex": 1088,
      "ĠThank": 1089,
      "Ġhand": 1090,
      "Ġstill": 1091,
      "Ġbest": 1092,
      "Ġshow": 1093,
      "Ġcomm": 1094,
      "vie": 1095,
      "ĠChin": 1096,
      "Can": 1097,
      "âĢ": 1098,
      "Ġmonth": 1099,
      "Ġfood": 1100,
      "ener": 1101,
      "Ġmade": 1102,
      "Ġrem": 1103,
      "Ġsentence": 1104,
      "Ġnice": 1105,
      "Ġplace": 1106,
      "les": 1107,
      "ens": 1108,
      "cy": 1109,
      "ize": 1110,
      "Ġfin": 1111,
      "Ġspe": 1112,
      "Ġkeep": 1113,
      "Ġminute": 1114,
      "Ġtom": 1115,
      "Ġbusiness": 1116,
      "Ġorder": 1117,
      "Ġshall": 1118,
      "Ġdec": 1119,
      "ors": 1120,
      "Ġsal": 1121,
      "Ġwr": 1122,
      "ple": 1123,
      "Ġbook": 1124,
      "Ġthank": 1125,
      "Ve": 1126,
      "Ġthy": 1127,
      "Ġspeak": 1128,
      "ĠIf": 1129,
      "Ġhour": 1130,
      "ner": 1131,
      "Ġhard": 1132,
      "Are": 1133,
      "ters": 1134,
      "Let": 1135,
      "Ġgl": 1136,
      "Ġplan": 1137,
      "Ġrel": 1138,
      "iv": 1139,
      "Ġfew": 1140,
      "ps": 1141,
      "dition": 1142,
      "ĠK": 1143,
      "read": 1144,
      "Ġclass": 1145,
      "ervice": 1146,
      "Ġop": 1147,
      "Ġdays": 1148,
      "Ġlife": 1149,
      "Ġbel": 1150,
      "Ġlive": 1151,
      "Hello": 1152,
      "vers": 1153,
      "ock": 1154,
      "fer": 1155,
      "Ġcount": 1156,
      "Ġimport": 1157,
      "At": 1158,
      "Ġchar": 1159,
      "Ġfam": 1160,
      "ĠLet": 1161,
      "Ġset": 1162,
      "Ġput": 1163,
      "This": 1164,
      "Ġwhy": 1165,
      "Ġcare": 1166,
      "ustom": 1167,
      "--": 1168,
      "ves": 1169,
      "Ġfollowing": 1170,
      "Ġyears": 1171,
      "Ġthr": 1172,
      "ĠIs": 1173,
      "ement": 1174,
      "ward": 1175,
      "50": 1176,
      "Re": 1177,
      "eath": 1178,
      "Not": 1179,
      "Ġ'": 1180,
      "Ġhope": 1181,
      "Ġstay": 1182,
      "Ġtomorrow": 1183,
      "Ġmind": 1184,
      "Ġstud": 1185,
      "Ġaround": 1186,
      "cri": 1187,
      "ations": 1188,
      "30": 1189,
      "ost": 1190,
      "Ġprice": 1191,
      "Ġperson": 1192,
      "ĠV": 1193,
      "Ġart": 1194,
      "Ġelse": 1195,
      "Ġidea": 1196,
      "Ġnumber": 1197,
      "ny": 1198,
      "ĠEm": 1199,
      "Ġpa": 1200,
      "Ġworld": 1201,
      "its": 1202,
      "Of": 1203,
      "imes": 1204,
      "uce": 1205,
      "In": 1206,
      "Ġservice": 1207,
      "Ġrest": 1208,
      "20": 1209,
      "19": 1210,
      "ngl": 1211,
      "Ġsupp": 1212,
      "Ġtri": 1213,
      "ĠThere": 1214,
      "Ġhouse": 1215,
      "ower": 1216,
      "Ġ14": 1217,
      "ph": 1218,
      "ĠU": 1219,
      "Ġsk": 1220,
      "Ġdat": 1221,
      "Ġyet": 1222,
      "Ġred": 1223,
      "ible": 1224,
      "Ġwhile": 1225,
      "Ġstart": 1226,
      "Ġcons": 1227,
      "get": 1228,
      "Ġhear": 1229,
      "Ġbecause": 1230,
      "ated": 1231,
      "lease": 1232,
      "Ġlate": 1233,
      "itude": 1234,
      "Ġseem": 1235,
      "iting": 1236,
      "ether": 1237,
      "ĠEngl": 1238,
      "18": 1239,
      "Ġ&": 1240,
      "Ġold": 1241,
      "ular": 1242,
      "ics": 1243,
      "Ġear": 1244,
      "If": 1245,
      "May": 1246,
      "Ġcustom": 1247,
      "yp": 1248,
      "Ġeach": 1249,
      "Ġbig": 1250,
      "17": 1251,
      "ities": 1252,
      "Ġthought": 1253,
      "ac": 1254,
      "als": 1255,
      "ved": 1256,
      "Ġsw": 1257,
      "ĠMy": 1258,
      "Here": 1259,
      "Ġform": 1260,
      "ren": 1261,
      "Ġrep": 1262,
      "self": 1263,
      "Ġ15": 1264,
      "16": 1265,
      "Ġeas": 1266,
      "ĠSo": 1267,
      "Thanks": 1268,
      "Ġbad": 1269,
      "me": 1270,
      "up": 1271,
      "Ġdoing": 1272,
      "vid": 1273,
      "ĠMay": 1274,
      "56": 1275,
      "oh": 1276,
      "Ġcard": 1277,
      "Ġoffice": 1278,
      "ject": 1279,
      "Ġ$": 1280,
      "ĠShe": 1281,
      "titude": 1282,
      "Ġproduct": 1283,
      "12": 1284,
      "34": 1285,
      "ertain": 1286,
      "erent": 1287,
      "Ġchange": 1288,
      "stand": 1289,
      "wh": 1290,
      "rite": 1291,
      "99": 1292,
      "36": 1293,
      "mm": 1294,
      "Ġthing": 1295,
      "Ġschool": 1296,
      "ition": 1297,
      "14": 1298,
      "Ġthrough": 1299,
      "Ġincl": 1300,
      "ince": 1301,
      "Ġlooking": 1302,
      "For": 1303,
      "Ġthee": 1304,
      "ious": 1305,
      "Ġyes": 1306,
      "Ġimportant": 1307,
      "Ġbea": 1308,
      "Hi": 1309,
      "ye": 1310,
      "57": 1311,
      "uck": 1312,
      "Ġeven": 1313,
      "58": 1314,
      "38": 1315,
      "Ġmar": 1316,
      "Ġown": 1317,
      "Ġinform": 1318,
      "ieve": 1319,
      "Ġdifferent": 1320,
      "54": 1321,
      "There": 1322,
      "artment": 1323,
      "UC": 1324,
      "Ġfine": 1325,
      "Where": 1326,
      "Ġgiven": 1327,
      "37": 1328,
      "Ġmight": 1329,
      "All": 1330,
      "Ġeat": 1331,
      "ember": 1332,
      "ms": 1333,
      "joy": 1334,
      "Ġdone": 1335,
      "Ġgu": 1336,
      "Ġeve": 1337,
      "32": 1338,
      "reate": 1339,
      "Ġmark": 1340,
      "sent": 1341,
      "Ġsoon": 1342,
      "Ġcompu": 1343,
      "ĠHere": 1344,
      "raid": 1345,
      "Ġsame": 1346,
      "atter": 1347,
      "Ġtyp": 1348,
      "Ġsaid": 1349,
      "39": 1350,
      "Ġquite": 1351,
      "ix": 1352,
      "Ġafraid": 1353,
      "Ġleave": 1354,
      "ING": 1355,
      "Ġsl": 1356,
      "ĠEmotion": 1357,
      "Have": 1358,
      "ĠEnglish": 1359,
      "Ġgue": 1360,
      "Ġanother": 1361,
      "Attitude": 1362,
      "Ġpass": 1363,
      "Ġste": 1364,
      "ates": 1365,
      "ER": 1366,
      "bs": 1367,
      "cuse": 1368,
      "Ġwatch": 1369,
      "Ġpar": 1370,
      "Ġend": 1371,
      "59": 1372,
      "Ġdel": 1373,
      "Ġvis": 1374,
      "52": 1375,
      "ĠSt": 1376,
      "Ġi": 1377,
      "Ġworking": 1378,
      "Ġunderstand": 1379,
      "Ġreg": 1380,
      "Ì¦": 1381,
      "Ġ(": 1382,
      "Ġits": 1383,
      "Ġboth": 1384,
      "Ġcle": 1385,
      "Ġdoll": 1386,
      "Ġhealth": 1387,
      "Ġexperi": 1388,
      "Don": 1389,
      "Ì¦Ì¦": 1390,
      "Ġdisc": 1391,
      "elcome": 1392,
      "Ġdrink": 1393,
      "Ġfriends": 1394,
      "Ġdata": 1395,
      "Ġwonder": 1396,
      "Ġinc": 1397,
      "OR": 1398,
      "Ġeff": 1399,
      "Ġ-": 1400,
      "Ġfun": 1401,
      "Ġaccount": 1402,
      "Ġair": 1403,
      "Ġbeing": 1404,
      "Ġcost": 1405,
      "Ġminutes": 1406,
      "Ġbeaut": 1407,
      "Ġexperience": 1408,
      "Ġaway": 1409,
      "Ġheard": 1410,
      "Ġenjoy": 1411,
      "redi": 1412,
      "Ġlist": 1413,
      "ces": 1414,
      "Ġthose": 1415,
      "ought": 1416,
      "ures": 1417,
      "Ġinterest": 1418,
      "Ġwar": 1419,
      "When": 1420,
      "Ġcor": 1421,
      "AN": 1422,
      "ET": 1423,
      "Would": 1424,
      "ets": 1425,
      "Ġbring": 1426,
      "Ġadv": 1427,
      "oun": 1428,
      "Ġter": 1429,
      "ient": 1430,
      "ES": 1431,
      "Ġfive": 1432,
      "Ġwater": 1433,
      "ram": 1434,
      "Ġsounds": 1435,
      "Ġever": 1436,
      "88": 1437,
      "ia": 1438,
      "ib": 1439,
      "Ġbas": 1440,
      "Ġturn": 1441,
      "Ġ..": 1442,
      "erg": 1443,
      "Ġunt": 1444,
      "24": 1445,
      "noon": 1446,
      "Ġcur": 1447,
      "Ġcontr": 1448,
      "Ġle": 1449,
      "26": 1450,
      "Ġtrue": 1451,
      "Did": 1452,
      "Ġafternoon": 1453,
      "77": 1454,
      "ull": 1455,
      "Ġfar": 1456,
      "Ġexam": 1457,
      "ĠFr": 1458,
      "Ġfree": 1459,
      "Ġlearn": 1460,
      "Ġoften": 1461,
      "Ġchild": 1462,
      "Ġenough": 1463,
      "Ġsystem": 1464,
      "Ġinv": 1465,
      "Ġtalk": 1466,
      "cond": 1467,
      "ility": 1468,
      "Ġmom": 1469,
      "ian": 1470,
      "Ġisn": 1471,
      "ĠChinese": 1472,
      "ogether": 1473,
      "Ġmedi": 1474,
      "Ġtrain": 1475,
      "Ġsign": 1476,
      "ify": 1477,
      "Ġdoesn": 1478,
      "Ġopen": 1479,
      "Ġmys": 1480,
      "Ġstand": 1481,
      "ried": 1482,
      "Excuse": 1483,
      "ap": 1484,
      "ts": 1485,
      "ual": 1486,
      "Ġlord": 1487,
      "ĠAm": 1488,
      "Ġquestion": 1489,
      "irl": 1490,
      "Ġsho": 1491,
      "Ġsmall": 1492,
      "und": 1493,
      "Ġbelieve": 1494,
      "ug": 1495,
      "Ġposs": 1496,
      "ative": 1497,
      "86": 1498,
      "ons": 1499,
      "Ġdin": 1500,
      "Ġrun": 1501,
      "Really": 1502,
      "ween": 1503,
      "Ġinformation": 1504,
      "Ġ...\",": 1505,
      "Ġwrong": 1506,
      "Ġtech": 1507,
      "ready": 1508,
      "Ġcomputer": 1509,
      "Ġpos": 1510,
      "Ġoffer": 1511,
      "Ġalready": 1512,
      "Ġtas": 1513,
      "29": 1514,
      "84": 1515,
      "76": 1516,
      "ction": 1517,
      "Ġlar": 1518,
      "Ġhaven": 1519,
      "ither": 1520,
      "red": 1521,
      "Ġusually": 1522,
      "Ġbreak": 1523,
      "Ġhea": 1524,
      "Ġdollars": 1525,
      "tty": 1526,
      "Ġmet": 1527,
      "Ġmanag": 1528,
      "enerate": 1529,
      "As": 1530,
      "line": 1531,
      "Ġrece": 1532,
      "Ġbetween": 1533,
      "ohn": 1534,
      "ove": 1535,
      "Ġready": 1536,
      "Ġrec": 1537,
      "ec": 1538,
      "view": 1539,
      "80": 1540,
      "Ġcity": 1541,
      "74": 1542,
      "Ġprom": 1543,
      "Ġve": 1544,
      "Ġlooks": 1545,
      "They": 1546,
      "Ġeverything": 1547,
      "Ġguess": 1548,
      "ger": 1549,
      "Ġsur": 1550,
      "Ġcont": 1551,
      "Then": 1552,
      "Ġsol": 1553,
      "89": 1554,
      "gest": 1555,
      "Ġten": 1556,
      "Ġmus": 1557,
      "Ġfamily": 1558,
      "Ġton": 1559,
      "atur": 1560,
      "Ġlef": 1561,
      "ody": 1562,
      "Ġgetting": 1563,
      "Ġbit": 1564,
      "Ġable": 1565,
      "ploy": 1566,
      "velop": 1567,
      "yes": 1568,
      "Ġtogether": 1569,
      "Ġmarket": 1570,
      "ew": 1571,
      "ft": 1572,
      "Ġins": 1573,
      "Which": 1574,
      "Ġhappen": 1575,
      "70": 1576,
      "Ġtick": 1577,
      "Ġsit": 1578,
      "Ġprog": 1579,
      "Ġap": 1580,
      "ertainly": 1581,
      "Ġsend": 1582,
      "Ġwait": 1583,
      "erica": 1584,
      "KING": 1585,
      "Ġusing": 1586,
      "Ġhappy": 1587,
      "ating": 1588,
      "ĠâĢ": 1589,
      "Ġleft": 1590,
      "vide": 1591,
      "ĠAre": 1592,
      "ired": 1593,
      "Ġgirl": 1594,
      "IC": 1595,
      "iful": 1596,
      "11": 1597,
      "79": 1598,
      "Ġass": 1599,
      "ages": 1600,
      "Ġwords": 1601,
      "cel": 1602,
      "Ġreal": 1603,
      "ifi": 1604,
      "Ġspecial": 1605,
      "She": 1606,
      "oice": 1607,
      "Ġmyself": 1608,
      "ery": 1609,
      "Ġ20": 1610,
      "ni": 1611,
      "leep": 1612,
      "Fin": 1613,
      "ues": 1614,
      "cept": 1615,
      "Ġfather": 1616,
      "Ġallow": 1617,
      "Ġincrea": 1618,
      "Ġmain": 1619,
      "ken": 1620,
      "Ġpur": 1621,
      "ĠBe": 1622,
      "Ġpretty": 1623,
      "de": 1624,
      "ĠAmerica": 1625,
      "Ġdinner": 1626,
      "ution": 1627,
      "ĠWould": 1628,
      "Ġarr": 1629,
      "Ġcr": 1630,
      "Ġcountry": 1631,
      "Ġav": 1632,
      "Ġlight": 1633,
      "ĠHave": 1634,
      "Ġcoming": 1635,
      "ely": 1636,
      "Ġprocess": 1637,
      "ĠWhy": 1638,
      "mp": 1639,
      "pping": 1640,
      "Ġtonight": 1641,
      "School": 1642,
      "not": 1643,
      "Ġhead": 1644,
      "lent": 1645,
      "Ġsub": 1646,
      "Ġhours": 1647,
      "Ġgra": 1648,
      "work": 1649,
      "Ġsha": 1650,
      "Ġheart": 1651,
      "Ġstre": 1652,
      "ĠWhen": 1653,
      "Ġbeautiful": 1654,
      "Ġnothing": 1655,
      "Ġeasy": 1656,
      "Ġremember": 1657,
      "64": 1658,
      "LO": 1659,
      "Ġadd": 1660,
      "ike": 1661,
      "Finance": 1662,
      "ming": 1663,
      "60": 1664,
      "cribe": 1665,
      "Your": 1666,
      "Ġyourself": 1667,
      "Ġworry": 1668,
      "Ġbir": 1669,
      "Ġphone": 1670,
      "Ġlater": 1671,
      "ature": 1672,
      "ines": 1673,
      "ond": 1674,
      "ogy": 1675,
      "Be": 1676,
      "fect": 1677,
      "tel": 1678,
      "Ġhaving": 1679,
      "Ġsug": 1680,
      "Ġparty": 1681,
      "edu": 1682,
      "eason": 1683,
      "Ġuntil": 1684,
      "tern": 1685,
      "ergy": 1686,
      "Come": 1687,
      "au": 1688,
      "Ġhum": 1689,
      "Ġsec": 1690,
      "IUS": 1691,
      "br": 1692,
      "Ġfill": 1693,
      "Ġmoment": 1694,
      "Ġfound": 1695,
      "angu": 1696,
      "aur": 1697,
      "nol": 1698,
      "Ġpleas": 1699,
      "ARD": 1700,
      "55": 1701,
      "iel": 1702,
      "Ġstop": 1703,
      "Ġking": 1704,
      "arch": 1705,
      "ĠPlease": 1706,
      "Ġlearning": 1707,
      "az": 1708,
      "led": 1709,
      "Ġword": 1710,
      "Generate": 1711,
      "Ġsing": 1712,
      "Ġcustomer": 1713,
      "iet": 1714,
      "unch": 1715,
      "uan": 1716,
      "ĠNo": 1717,
      "Ġcomple": 1718,
      "Ġenergy": 1719,
      "erc": 1720,
      "Ġ16": 1721,
      "Ġaut": 1722,
      "Okay": 1723,
      "22": 1724,
      "Ġnews": 1725,
      "Ġmach": 1726,
      "Ġevening": 1727,
      "Ġqual": 1728,
      "Ġmeeting": 1729,
      "gan": 1730,
      "Ġmiss": 1731,
      "ks": 1732,
      "Ġwent": 1733,
      "ash": 1734,
      "44": 1735,
      "Ġnear": 1736,
      "Ġappli": 1737,
      "Ġwelcome": 1738,
      "reen": 1739,
      "Ġwife": 1740,
      "Ġstar": 1741,
      "Ġseen": 1742,
      "Ġprefer": 1743,
      "Ġcolle": 1744,
      "fort": 1745,
      "iron": 1746,
      "Ġprogram": 1747,
      "ĠOK": 1748,
      "69": 1749,
      "Ġwind": 1750,
      "Ġsun": 1751,
      "Ġfav": 1752,
      "Ġstudy": 1753,
      "ict": 1754,
      "Ġimpr": 1755,
      "Ġthanks": 1756,
      "Ġsc": 1757,
      "Ġtold": 1758,
      "aster": 1759,
      "Ġpossible": 1760,
      "Ġseems": 1761,
      "Ġce": 1762,
      "ific": 1763,
      "Ġpol": 1764,
      "Ġteach": 1765,
      "Ġexpens": 1766,
      "man": 1767,
      "Ġpop": 1768,
      "Ġtop": 1769,
      "Ġlangu": 1770,
      "Ġmovie": 1771,
      "Ġquick": 1772,
      "ides": 1773,
      "Ġbed": 1774,
      "ably": 1775,
      "Ġmaking": 1776,
      "aurant": 1777,
      "Ġtable": 1778,
      "ĠAd": 1779,
      "Ġenv": 1780,
      "Ġuni": 1781,
      "ested": 1782,
      "ther": 1783,
      "Ġdevelop": 1784,
      "Ġpoint": 1785,
      "iday": 1786,
      "Ġval": 1787,
      "ider": 1788,
      "ries": 1789,
      "ush": 1790,
      "Ġsumm": 1791,
      "ĠCould": 1792,
      "ses": 1793,
      "Ġmine": 1794,
      "Ġmatter": 1795,
      "Ġfour": 1796,
      "Ġconf": 1797,
      "Ġtrans": 1798,
      "alf": 1799,
      "ouble": 1800,
      "Ġfinish": 1801,
      "15": 1802,
      "ctor": 1803,
      "Just": 1804,
      "Ġsomeone": 1805,
      "Could": 1806,
      "Ġcook": 1807,
      "Ġsim": 1808,
      "Ġlead": 1809,
      "ĠNow": 1810,
      "13": 1811,
      "Sh": 1812,
      "Ġcomes": 1813,
      "Ġsuc": 1814,
      "40": 1815,
      "ever": 1816,
      "Ġcat": 1817,
      "Ġmusic": 1818,
      "Ġpain": 1819,
      "Ġreturn": 1820,
      "Ġupon": 1821,
      "Ġwin": 1822,
      "tis": 1823,
      "Ġsleep": 1824,
      "Ġexpl": 1825,
      "Ġlarge": 1826,
      "Ġyoung": 1827,
      "Ġbrother": 1828,
      "Ġweekend": 1829,
      "Ġglad": 1830,
      "ital": 1831,
      "ffee": 1832,
      "osed": 1833,
      "most": 1834,
      "Ġfil": 1835,
      "Ġpower": 1836,
      "eather": 1837,
      "ption": 1838,
      "Ġpresent": 1839,
      "Ġemploy": 1840,
      "Ġhot": 1841,
      "Ġfact": 1842,
      "Ġthough": 1843,
      "Ġless": 1844,
      "Ġshort": 1845,
      "Ġrestaurant": 1846,
      "Ġmen": 1847,
      "Ġsuit": 1848,
      "Ġeffect": 1849,
      "io": 1850,
      "Ġface": 1851,
      "uring": 1852,
      "less": 1853,
      "dis": 1854,
      "ding": 1855,
      "old": 1856,
      "alking": 1857,
      "put": 1858,
      "ĠJohn": 1859,
      "tend": 1860,
      "Ġseat": 1861,
      "Ġclot": 1862,
      "ational": 1863,
      "Ġteam": 1864,
      "Ġbank": 1865,
      "ase": 1866,
      "ĠThanks": 1867,
      "ier": 1868,
      "oke": 1869,
      "ision": 1870,
      "Ġref": 1871,
      "Ġkid": 1872,
      "Ġintern": 1873,
      "Ġtem": 1874,
      "ustr": 1875,
      "Ġextr": 1876,
      "ĠThen": 1877,
      "Ġinterested": 1878,
      "Now": 1879,
      "Ġwalk": 1880,
      "Ġprob": 1881,
      "Ġprovide": 1882,
      "000": 1883,
      "ĠChina": 1884,
      "Ġser": 1885,
      "Ġsta": 1886,
      "Ġthinking": 1887,
      "Ġfull": 1888,
      "Ġonce": 1889,
      "Ġinteresting": 1890,
      "Ġtechnol": 1891,
      "ironment": 1892,
      "78": 1893,
      "LI": 1894,
      "Ġspend": 1895,
      "Ġinterview": 1896,
      "room": 1897,
      "Ġben": 1898,
      "Ġpick": 1899,
      "Ġdef": 1900,
      "Ġcold": 1901,
      "33": 1902,
      "Hey": 1903,
      "Ġdeli": 1904,
      "omp": 1905,
      "versity": 1906,
      "Ġfre": 1907,
      "Who": 1908,
      "Ġsecond": 1909,
      "Ġprof": 1910,
      "Ġcoffee": 1911,
      "Ġtravel": 1912,
      "66": 1913,
      "Ġtimes": 1914,
      "Ġbegin": 1915,
      "Ġwithout": 1916,
      "49": 1917,
      "Ġson": 1918,
      "Ġhalf": 1919,
      "Ġsou": 1920,
      "Ġsince": 1921,
      "Ġweather": 1922,
      "dam": 1923,
      "ills": 1924,
      "Ġsever": 1925,
      "ister": 1926,
      "Ġdeath": 1927,
      "Ġstore": 1928,
      "Ġchang": 1929,
      "72": 1930,
      "Ġpu": 1931,
      "Ġmakes": 1932,
      "Ġflight": 1933,
      "Ġcreat": 1934,
      "ĠJust": 1935,
      "Ġinclud": 1936,
      "orn": 1937,
      "Ġwish": 1938,
      "Ġmaj": 1939,
      "Des": 1940,
      "Ġpie": 1941,
      "Ġgrow": 1942,
      "ĠDon": 1943,
      "sw": 1944,
      "Ġbag": 1945,
      "redit": 1946,
      "Ġ=": 1947,
      "Ġwan": 1948,
      "Ġhath": 1949,
      "Great": 1950,
      "hes": 1951,
      "vent": 1952,
      "Ġline": 1953,
      "Ġblood": 1954,
      "Give": 1955,
      "Ġreduce": 1956,
      "Ġenvironment": 1957,
      "ately": 1958,
      "Ġexpensive": 1959,
      "gust": 1960,
      "oint": 1961,
      "ont": 1962,
      "spect": 1963,
      "Ġvar": 1964,
      "Ġchildren": 1965,
      "tes": 1966,
      "Ġprop": 1967,
      "ĠAI": 1968,
      "Ġcharge": 1969,
      "Ġseveral": 1970,
      "Ġwom": 1971,
      "Ġluck": 1972,
      "ĠWhere": 1973,
      "First": 1974,
      "OM": 1975,
      "Ġdesign": 1976,
      "Ġavail": 1977,
      "terday": 1978,
      "Ġra": 1979,
      "ware": 1980,
      "Ġthir": 1981,
      "Ġfair": 1982,
      "icle": 1983,
      "Ġsuccess": 1984,
      "Please": 1985,
      "oin": 1986,
      "Ġmother": 1987,
      "ĠSh": 1988,
      "Ġbusy": 1989,
      "ai": 1990,
      "oose": 1991,
      "Ġcannot": 1992,
      "Ġmod": 1993,
      "Ġtaking": 1994,
      "Ġapartment": 1995,
      "ub": 1996,
      "Ġopp": 1997,
      "ĠAl": 1998,
      "itch": 1999,
      "Ġsaw": 2000,
      "90": 2001,
      "With": 2002,
      "Ġwear": 2003,
      "Ġconsider": 2004,
      "new": 2005,
      "weet": 2006,
      "disgust": 2007,
      "ements": 2008,
      "ames": 2009,
      "Ġtest": 2010,
      "Ġdiffic": 2011,
      "right": 2012,
      "Ġrequ": 2013,
      "Ġexerc": 2014,
      "Ġperfect": 2015,
      "82": 2016,
      "time": 2017,
      "Sorry": 2018,
      "cc": 2019,
      "cle": 2020,
      "ĠSm": 2021,
      "ream": 2022,
      "Ġlanguage": 2023,
      "ĠOh": 2024,
      "ident": 2025,
      "ically": 2026,
      "Ġinclude": 2027,
      "Ġdirect": 2028,
      "Ġrather": 2029,
      "Ġlost": 2030,
      "Ġproducts": 2031,
      "Ġbenef": 2032,
      "els": 2033,
      "Ġpaper": 2034,
      "Ġtype": 2035,
      "Create": 2036,
      "Ġrecomm": 2037,
      "Ġagree": 2038,
      "Ġcame": 2039,
      "Ġago": 2040,
      "Ġcalled": 2041,
      "Maybe": 2042,
      "TIO": 2043,
      "fter": 2044,
      "Ġhur": 2045,
      "Ġtea": 2046,
      "orts": 2047,
      "Ġticket": 2048,
      "Ġexample": 2049,
      "ax": 2050,
      "Ġpack": 2051,
      "Ġeyes": 2052,
      "Ġproblems": 2053,
      "Ġtrip": 2054,
      "Ġcredit": 2055,
      "Ġdri": 2056,
      "Ġ19": 2057,
      "Ġalmost": 2058,
      "Ġdeal": 2059,
      "Ġmove": 2060,
      "Ġcolor": 2061,
      "Ġvisit": 2062,
      "Ġmachine": 2063,
      "ĠNew": 2064,
      "Ġclean": 2065,
      "oor": 2066,
      "Ġgame": 2067,
      "Ġonline": 2068,
      "Ġstory": 2069,
      "35": 2070,
      "cing": 2071,
      "Ġdress": 2072,
      "Ġgener": 2073,
      "Ġcase": 2074,
      "ĠCl": 2075,
      "Ì¦Ì¦Ì¦Ì¦": 2076,
      "Ġposition": 2077,
      "Ġpres": 2078,
      "sport": 2079,
      "Ġavailable": 2080,
      "EL": 2081,
      "Ġ17": 2082,
      "ift": 2083,
      "Ġyesterday": 2084,
      "IS": 2085,
      "ghter": 2086,
      "Ġprobably": 2087,
      "gr": 2088,
      "ains": 2089,
      "Ġbuild": 2090,
      "uss": 2091,
      "Ġnor": 2092,
      "ĠDid": 2093,
      "Ġneeds": 2094,
      "Ġhold": 2095,
      "Ġhotel": 2096,
      "Ġcommun": 2097,
      "EO": 2098,
      "Ġind": 2099,
      "Ġstu": 2100,
      "Ġperform": 2101,
      "Ġgent": 2102,
      "Ġmeans": 2103,
      "ĠAs": 2104,
      "ĠWell": 2105,
      "Ġresult": 2106,
      "by": 2107,
      "ret": 2108,
      "Ġbirth": 2109,
      "ins": 2110,
      "Ġequ": 2111,
      "irt": 2112,
      "entify": 2113,
      "Ġliving": 2114,
      "Ġreason": 2115,
      "ources": 2116,
      "Ġtext": 2117,
      "Ġactually": 2118,
      "Ġhappened": 2119,
      "Ġob": 2120,
      "Ġprovid": 2121,
      "ervation": 2122,
      "actly": 2123,
      "100": 2124,
      "erious": 2125,
      "Ġbar": 2126,
      "Ġbought": 2127,
      "conom": 2128,
      "Ġtechnology": 2129,
      "Al": 2130,
      "air": 2131,
      "mer": 2132,
      "oud": 2133,
      "Ġpersonal": 2134,
      "ows": 2135,
      "Ġdoctor": 2136,
      "icy": 2137,
      "ross": 2138,
      "Ġdifficult": 2139,
      "Ġok": 2140,
      "Certainly": 2141,
      "Ġsoft": 2142,
      "ments": 2143,
      "Ġsummer": 2144,
      "got": 2145,
      "Ġmess": 2146,
      "Ġbrea": 2147,
      "Ġcou": 2148,
      "Ġdra": 2149,
      "ants": 2150,
      "ables": 2151,
      "ctually": 2152,
      "eng": 2153,
      "Ġitem": 2154,
      "itive": 2155,
      "Ġprep": 2156,
      "ĠFor": 2157,
      "band": 2158,
      "cum": 2159,
      "Ġdrive": 2160,
      "ĠMaybe": 2161,
      "where": 2162,
      "Ġpast": 2163,
      "Ġchance": 2164,
      "Ġmanager": 2165,
      "Ġapplication": 2166,
      "Ġcash": 2167,
      "Ġearly": 2168,
      "An": 2169,
      "ling": 2170,
      "ze": 2171,
      "Ġent": 2172,
      "Ġalong": 2173,
      "ffic": 2174,
      "ected": 2175,
      "ĠSmith": 2176,
      "KE": 2177,
      "Ġsell": 2178,
      "Ġshopping": 2179,
      "Wow": 2180,
      "Will": 2181,
      "pe": 2182,
      "ised": 2183,
      "Ġrespon": 2184,
      "ĠAn": 2185,
      "Ġfit": 2186,
      "Ġorgan": 2187,
      "ield": 2188,
      "nce": 2189,
      "46": 2190,
      "aw": 2191,
      "Ġside": 2192,
      "Ġclothes": 2193,
      "bers": 2194,
      "ided": 2195,
      "Ġsweet": 2196,
      "Ġpract": 2197,
      "Ġtook": 2198,
      "Ġexpect": 2199,
      "ĠAmerican": 2200,
      "ak": 2201,
      "Ġeither": 2202,
      "Ġleast": 2203,
      "ĠUni": 2204,
      "Ġwanted": 2205,
      "ator": 2206,
      "Ġyuan": 2207,
      "ĠGod": 2208,
      "Ġdepartment": 2209,
      "rown": 2210,
      "Ġboss": 2211,
      "ĠYork": 2212,
      "Ġmarried": 2213,
      "Ġstarted": 2214,
      "87": 2215,
      "Ġserious": 2216,
      "usband": 2217,
      "rent": 2218,
      "the": 2219,
      "Ġcalling": 2220,
      "Ġfeeling": 2221,
      "bsite": 2222,
      "Ġparents": 2223,
      "LA": 2224,
      "ĠWill": 2225,
      "Ġeveryone": 2226,
      "Ġweeks": 2227,
      "Ġmonths": 2228,
      "Describe": 2229,
      "head": 2230,
      "over": 2231,
      "Ġ...": 2232,
      "Ġhusband": 2233,
      "Ġfore": 2234,
      "ized": 2235,
      "Ġpubl": 2236,
      "Ġhon": 2237,
      "Ġlis": 2238,
      "gine": 2239,
      "Ġtot": 2240,
      "Ġdate": 2241,
      "Ġva": 2242,
      "Ġreceive": 2243,
      "25": 2244,
      "Fine": 2245,
      "well": 2246,
      "ICH": 2247,
      "OL": 2248,
      "Ġsch": 2249,
      "Ġwrite": 2250,
      "Ġbill": 2251,
      "Ġfall": 2252,
      "mo": 2253,
      "pped": 2254,
      "Ġbecome": 2255,
      "Ġwebsite": 2256,
      "Ġelect": 2257,
      "Ġdiffer": 2258,
      "âĢĻ": 2259,
      "By": 2260,
      "gg": 2261,
      "Ġsound": 2262,
      "Ġrecent": 2263,
      "imate": 2264,
      "Ġmaybe": 2265,
      "Ġkey": 2266,
      "Ġbooks": 2267,
      "Ġquestions": 2268,
      "DU": 2269,
      "ited": 2270,
      "Ġuser": 2271,
      "Ġrain": 2272,
      "Ġdish": 2273,
      "ortun": 2274,
      "Ġappre": 2275,
      "Ġpopular": 2276,
      "DUKE": 2277,
      "sel": 2278,
      "Ġ,": 2279,
      "Ġgone": 2280,
      "Ġtax": 2281,
      "cer": 2282,
      "Ġcreate": 2283,
      "Ġlaw": 2284,
      "Ġagainst": 2285,
      "swer": 2286,
      "Ġrecommend": 2287,
      "body": 2288,
      "jing": 2289,
      "eth": 2290,
      "Ġstor": 2291,
      "Ġamount": 2292,
      "Ġcharac": 2293,
      "term": 2294,
      "ĠYour": 2295,
      "CA": 2296,
      "na": 2297,
      "uture": 2298,
      "ced": 2299,
      "Ġmem": 2300,
      "ric": 2301,
      "tain": 2302,
      "Ġcent": 2303,
      "that": 2304,
      "ĠMon": 2305,
      "bye": 2306,
      "Ġsea": 2307,
      "Ġcut": 2308,
      "Ġland": 2309,
      "Ġ18": 2310,
      "Health": 2311,
      "Ġsales": 2312,
      "Ġclear": 2313,
      "Ġquickly": 2314,
      "Ġmajor": 2315,
      "ale": 2316,
      "Ġsix": 2317,
      "Ġtrying": 2318,
      "Look": 2319,
      "fe": 2320,
      "Ġtalking": 2321,
      "Ġsays": 2322,
      "Ġlunch": 2323,
      "ĠAll": 2324,
      "Ġquality": 2325,
      "Ġnon": 2326,
      "Ġdist": 2327,
      "27": 2328,
      "Ġmil": 2329,
      "Ġcra": 2330,
      "Ġhair": 2331,
      "clock": 2332,
      "Ġpartic": 2333,
      "ICHARD": 2334,
      "Ġappreci": 2335,
      "ball": 2336,
      "ym": 2337,
      "uth": 2338,
      "Ġsize": 2339,
      "Ġboy": 2340,
      "Ġfear": 2341,
      "ENTIO": 2342,
      "cellent": 2343,
      "sing": 2344,
      "28": 2345,
      "Ġedu": 2346,
      "ĠAny": 2347,
      "Ġchoice": 2348,
      "Ġchoose": 2349,
      "onest": 2350,
      "ousand": 2351,
      "Ġappoint": 2352,
      "Ġcommon": 2353,
      "Ġexercise": 2354,
      "Ġdifference": 2355,
      "Ġcoun": 2356,
      "ĠMary": 2357,
      "Ġpleasure": 2358,
      "One": 2359,
      "Write": 2360,
      "vest": 2361,
      "Ġdog": 2362,
      "Ġtour": 2363,
      "Ġdau": 2364,
      "Ġiss": 2365,
      "Ġforward": 2366,
      "Ġrate": 2367,
      "cul": 2368,
      "ex": 2369,
      "ring": 2370,
      "Ġinf": 2371,
      "Ġhate": 2372,
      "Ġveget": 2373,
      "96": 2374,
      "ication": 2375,
      "ilt": 2376,
      "Ġfoot": 2377,
      "Ġfavori": 2378,
      "Ġproject": 2379,
      "Ġstrong": 2380,
      "INC": 2381,
      "Ġgrad": 2382,
      "94": 2383,
      "ied": 2384,
      "Ġduring": 2385,
      "ency": 2386,
      "Ġsave": 2387,
      "31": 2388,
      "Ġthousand": 2389,
      "Ġarea": 2390,
      "ĠGood": 2391,
      "Ġletter": 2392,
      "AB": 2393,
      "gage": 2394,
      "ijing": 2395,
      "rible": 2396,
      "ĠEd": 2397,
      "Ġpost": 2398,
      "Ġreservation": 2399,
      "Ġanim": 2400,
      "Ġforget": 2401,
      "Ġrent": 2402,
      "outh": 2403,
      "Ġcondition": 2404,
      "ume": 2405,
      "surance": 2406,
      "Ġcustomers": 2407,
      "Ġdead": 2408,
      "Ġfuture": 2409,
      "Ġinte": 2410,
      "vern": 2411,
      "osit": 2412,
      "Ġevent": 2413,
      "Ġwonderful": 2414,
      "atural": 2415,
      "ford": 2416,
      "Ġchea": 2417,
      "ĠBy": 2418,
      "ĠPe": 2419,
      "Ġpotent": 2420,
      "Ġaccess": 2421,
      "ditionally": 2422,
      "Ġtemper": 2423,
      "aly": 2424,
      "Ġsci": 2425,
      "enty": 2426,
      "ĠTV": 2427,
      "ĠBeijing": 2428,
      "side": 2429,
      "ĠII": 2430,
      "Ġhist": 2431,
      "Ġsmo": 2432,
      "ane": 2433,
      "ouch": 2434,
      "Ġmist": 2435,
      "Ġris": 2436,
      "Ġsty": 2437,
      "Ġenter": 2438,
      "Ġdecided": 2439,
      "Ġbirthday": 2440,
      "Ġfavorite": 2441,
      "eace": 2442,
      "Ġanswer": 2443,
      "Ġworth": 2444,
      "Ġmov": 2445,
      "Ġcorrect": 2446,
      "AU": 2447,
      "zy": 2448,
      "ump": 2449,
      "Ġactiv": 2450,
      "Ġaren": 2451,
      "ĠAdditionally": 2452,
      "gorith": 2453,
      "Ġdet": 2454,
      "Ġarticle": 2455,
      "ior": 2456,
      "cially": 2457,
      "Ġwhole": 2458,
      "Ġreport": 2459,
      "ĠFriday": 2460,
      "Ġfast": 2461,
      "Ġcause": 2462,
      "Ġdear": 2463,
      "Ġcountries": 2464,
      "Our": 2465,
      "Pro": 2466,
      "Ġhund": 2467,
      "haps": 2468,
      "Ġeconom": 2469,
      "Ġdecision": 2470,
      "75": 2471,
      "sure": 2472,
      "Ġmag": 2473,
      "Ġwouldn": 2474,
      "Ġeffic": 2475,
      "Ġinvol": 2476,
      "rist": 2477,
      "ots": 2478,
      "ĠTo": 2479,
      "uit": 2480,
      "Ġsil": 2481,
      "Ġgovern": 2482,
      "Ġcurrent": 2483,
      "urther": 2484,
      "ĠEvery": 2485,
      "Ġcouldn": 2486,
      "Ġhands": 2487,
      "Ġgreen": 2488,
      "Ġattend": 2489,
      "Ġtrouble": 2490,
      "ails": 2491,
      "UE": 2492,
      "Ġsent": 2493,
      "Ġlow": 2494,
      "Ġindi": 2495,
      "Ġlevel": 2496,
      "Ġsingle": 2497,
      "Cl": 2498,
      "``": 2499,
      "av": 2500,
      "Ġdocum": 2501,
      "Ġdeep": 2502,
      "astic": 2503,
      "ĠTom": 2504,
      "Ġclose": 2505,
      "Right": 2506,
      "Ġtired": 2507,
      "Ġsat": 2508,
      "plain": 2509,
      "Ġsca": 2510,
      "Ġcha": 2511,
      "raph": 2512,
      "Ġincrease": 2513,
      "Ġcomplete": 2514,
      "Ġappointment": 2515,
      "Ġdance": 2516,
      "llig": 2517,
      "Ġopportun": 2518,
      "85": 2519,
      "ote": 2520,
      "Ġpark": 2521,
      "Ġcover": 2522,
      "Ġfresh": 2523,
      "Ġitems": 2524,
      "Ġeducation": 2525,
      "Ġdaughter": 2526,
      "ĠUS": 2527,
      "irm": 2528,
      "Ġaccept": 2529,
      "Ġhuman": 2530,
      "Ġpublic": 2531,
      "Ġpotential": 2532,
      "TER": 2533,
      "Ġque": 2534,
      "Ġnet": 2535,
      "ĠRome": 2536,
      "Ġdev": 2537,
      "Ġblack": 2538,
      "Go": 2539,
      "rees": 2540,
      "Ġcup": 2541,
      "ĠRICHARD": 2542,
      "Ġexactly": 2543,
      "Ġlocal": 2544,
      "Ġheav": 2545,
      "Ġrespons": 2546,
      "cted": 2547,
      "ared": 2548,
      "Ġpict": 2549,
      "ĠSp": 2550,
      "Ġchick": 2551,
      "Ġjoin": 2552,
      "Ġwasn": 2553,
      "Ġpress": 2554,
      "Ġimprove": 2555,
      "Ġcatch": 2556,
      "oc": 2557,
      "Ġ#": 2558,
      "spe": 2559,
      "Ġbot": 2560,
      "Ġinvest": 2561,
      "Ġalgorith": 2562,
      "ĠEx": 2563,
      "cription": 2564,
      "Ġappreciate": 2565,
      "erve": 2566,
      "Ġcomfort": 2567,
      "Ġsometimes": 2568,
      "UCH": 2569,
      "Ġcouple": 2570,
      "land": 2571,
      "Ġ.": 2572,
      "Ġintr": 2573,
      "Ġinsurance": 2574,
      "ĠAfter": 2575,
      "lem": 2576,
      "esides": 2577,
      "Ġbro": 2578,
      "Ġtakes": 2579,
      "Ġtaken": 2580,
      "Ġweight": 2581,
      "Ġshop": 2582,
      "Ġseven": 2583,
      "ĠMa": 2584,
      "Ġlose": 2585,
      "Ġwaiting": 2586,
      "Ġaddress": 2587,
      "GLO": 2588,
      "app": 2589,
      "Ġpat": 2590,
      "Ġcontent": 2591,
      "olute": 2592,
      "Ġtwenty": 2593,
      "Ġbox": 2594,
      "Explain": 2595,
      "UCES": 2596,
      "Ġsuggest": 2597,
      "GLOUCES": 2598,
      "GLOUCESTER": 2599,
      "110": 2600,
      "friend": 2601,
      "ica": 2602,
      "cated": 2603,
      "Ġhol": 2604,
      "Ġhonest": 2605,
      "ady": 2606,
      "Ġworked": 2607,
      "Ġperformance": 2608,
      "Any": 2609,
      "__": 2610,
      "rop": 2611,
      "inite": 2612,
      "Ġcop": 2613,
      "Ġbeh": 2614,
      "Ġsense": 2615,
      "nect": 2616,
      "Ġwithin": 2617,
      "une": 2618,
      "Ġapply": 2619,
      "fully": 2620,
      "Ġasked": 2621,
      "Ġdepend": 2622,
      "Ġdiscuss": 2623,
      "21": 2624,
      "rom": 2625,
      "Ġeye": 2626,
      "Ġwhite": 2627,
      "Ġadver": 2628,
      "Con": 2629,
      "uation": 2630,
      "Ġsick": 2631,
      "ung": 2632,
      "Ġspeaking": 2633,
      "Ġsupposed": 2634,
      "Very": 2635,
      "ories": 2636,
      "arm": 2637,
      "Ġbody": 2638,
      "Ġfig": 2639,
      "Ġexcellent": 2640,
      "specially": 2641,
      "\".": 2642,
      "Or": 2643,
      "isf": 2644,
      "Ġones": 2645,
      "Ġment": 2646,
      "Ġnecess": 2647,
      "ĠLook": 2648,
      "ording": 2649,
      "ditional": 2650,
      "Ġvacation": 2651,
      "45": 2652,
      "idd": 2653,
      "Ġlim": 2654,
      "RY": 2655,
      "used": 2656,
      "Ġfif": 2657,
      "Ġforgot": 2658,
      "Ġdisp": 2659,
      "ĠMar": 2660,
      "Ġoutside": 2661,
      "Ġrelax": 2662,
      "Ġleg": 2663,
      "Ġcollege": 2664,
      "Ch": 2665,
      "iving": 2666,
      "Ġsocial": 2667,
      "Ġgoes": 2668,
      "ĠChrist": 2669,
      "Ġtraffic": 2670,
      "Ġhealthy": 2671,
      "Name": 2672,
      "QUE": 2673,
      "Ġpriv": 2674,
      "Ġmadam": 2675,
      "ney": 2676,
      "Ġservices": 2677,
      "Ġtried": 2678,
      "Ġuniversity": 2679,
      "Ġwoman": 2680,
      "Ġforeign": 2681,
      "Ġahead": 2682,
      "Ġfloor": 2683,
      "Ġstra": 2684,
      "rench": 2685,
      "Ġassist": 2686,
      "Ġbenefits": 2687,
      "Ġpeace": 2688,
      "Ġpoor": 2689,
      "Ġphot": 2690,
      "INCENTIO": 2691,
      "Ġhundred": 2692,
      "QUEEN": 2693,
      "dies": 2694,
      "Ġfeat": 2695,
      "Ġvie": 2696,
      "what": 2697,
      "Ġenc": 2698,
      "ĠOF": 2699,
      "Ġappro": 2700,
      "Ġplaying": 2701,
      "Ġdeposit": 2702,
      "Ġsale": 2703,
      "Ġstudents": 2704,
      "Ġcontin": 2705,
      "Ġwinter": 2706,
      "Ġinternet": 2707,
      "Ġview": 2708,
      "LAN": 2709,
      "ones": 2710,
      "Ġtown": 2711,
      "Ġcap": 2712,
      "Ġcamp": 2713,
      "Ġreach": 2714,
      "Ġdoor": 2715,
      "ĠSee": 2716,
      "Ġconven": 2717,
      "Ġcontract": 2718,
      "Ġstreet": 2719,
      "Ġfinished": 2720,
      "selves": 2721,
      "Ġbear": 2722,
      "Ġcompan": 2723,
      "Ġblue": 2724,
      "Ġadvice": 2725,
      "Ġheaven": 2726,
      "Ġextra": 2727,
      "Ġhonour": 2728,
      "Ġtotal": 2729,
      "UM": 2730,
      "ees": 2731,
      "econd": 2732,
      "ats": 2733,
      "Ġsister": 2734,
      "Ġcertain": 2735,
      "Ġfish": 2736,
      "Ġnatural": 2737,
      "Ġarrive": 2738,
      "BR": 2739,
      "Sounds": 2740,
      "Tw": 2741,
      "oes": 2742,
      "Ġaff": 2743,
      "Ġinst": 2744,
      "Ġrob": 2745,
      "Ġstock": 2746,
      "ĠBr": 2747,
      "Ġprote": 2748,
      "Ġpoll": 2749,
      "Ġregular": 2750,
      "Ġprofess": 2751,
      "bit": 2752,
      "alt": 2753,
      "ĠCome": 2754,
      "Ġnotice": 2755,
      "Ġtran": 2756,
      "Ġothers": 2757,
      "Ġlives": 2758,
      "aturday": 2759,
      "Ġteacher": 2760,
      "48": 2761,
      "53": 2762,
      "67": 2763,
      "uke": 2764,
      "Ġspace": 2765,
      "Ġguy": 2766,
      "42": 2767,
      "62": 2768,
      "BA": 2769,
      "ison": 2770,
      "Ġcertainly": 2771,
      "ellow": 2772,
      "Does": 2773,
      "Ġfamous": 2774,
      "Ġskills": 2775,
      "Ġmodel": 2776,
      "68": 2777,
      "Ġhor": 2778,
      "urs": 2779,
      "Ġtele": 2780,
      "Ġsatisf": 2781,
      "Ġcool": 2782,
      "Ġdue": 2783,
      "ability": 2784,
      "Ġstudent": 2785,
      "Ġswim": 2786,
      "Ġterrible": 2787,
      "Actually": 2788,
      "Ġwall": 2789,
      "Ġoper": 2790,
      "ĠMiss": 2791,
      "ĠDe": 2792,
      "Ġobject": 2793,
      "Ġgovernment": 2794,
      "Ġball": 2795,
      "Ġdam": 2796,
      "Ġfix": 2797,
      "ateg": 2798,
      "Ġtraining": 2799,
      "Ġrecord": 2800,
      "Ġindustr": 2801,
      "ination": 2802,
      "ilities": 2803,
      "Ġfire": 2804,
      "icious": 2805,
      "Ġlik": 2806,
      "Ġ50": 2807,
      "ĠComp": 2808,
      "Ġsalary": 2809,
      "Ġdeliver": 2810,
      "Ġchicken": 2811,
      "On": 2812,
      "Ġtouch": 2813,
      "Ġways": 2814,
      "Ġmovies": 2815,
      "ah": 2816,
      "Ġprin": 2817,
      "Ġconnect": 2818,
      "Ġgoods": 2819,
      "ENRY": 2820,
      "eech": 2821,
      "Ġearth": 2822,
      "Ġtasks": 2823,
      "ON": 2824,
      "tead": 2825,
      "anish": 2826,
      "Ġwine": 2827,
      "Ġmis": 2828,
      "Ġdem": 2829,
      "ured": 2830,
      "Ġreading": 2831,
      "Ġrecently": 2832,
      "olutely": 2833,
      "ned": 2834,
      "terial": 2835,
      "action": 2836,
      "itiz": 2837,
      "Ġcompl": 2838,
      "Ġspeed": 2839,
      "ondon": 2840,
      "ificial": 2841,
      "47": 2842,
      "dd": 2843,
      "Ġfly": 2844,
      "Ġespecially": 2845,
      "Ġabs": 2846,
      "ulations": 2847,
      "ĠIntern": 2848,
      "Ġbased": 2849,
      "Ġthirty": 2850,
      "Ġpractice": 2851,
      "Ġhistory": 2852,
      "initely": 2853,
      "Ġstraight": 2854,
      "Mr": 2855,
      "St": 2856,
      "Ġbab": 2857,
      "ety": 2858,
      "urse": 2859,
      "Thou": 2860,
      "Ġsports": 2861,
      "Ġimpress": 2862,
      "Ġautom": 2863,
      "98": 2864,
      "do": 2865,
      "Ġ100": 2866,
      "Ġmeth": 2867,
      "Me": 2868,
      "ROM": 2869,
      "more": 2870,
      "Ġaw": 2871,
      "Ġ30": 2872,
      "ĠLondon": 2873,
      "Ġsearch": 2874,
      "Ġmaterial": 2875,
      "Ġadvertis": 2876,
      "Ġwhether": 2877,
      "obal": 2878,
      "ĠVINCENTIO": 2879,
      "Ġsoftware": 2880,
      "Ġheavy": 2881,
      "Ġfield": 2882,
      "Ġflow": 2883,
      "Ġpaid": 2884,
      "Ġincluding": 2885,
      "Ġparticular": 2886,
      "lligence": 2887,
      "92": 2888,
      "ns": 2889,
      "ĠSaturday": 2890,
      "Ġfront": 2891,
      "Ġmeaning": 2892,
      "Ġemployees": 2893,
      "51": 2894,
      "Ġsel": 2895,
      "Ġdark": 2896,
      "ĠWar": 2897,
      "Ġhimself": 2898,
      "Ġsimple": 2899,
      "ait": 2900,
      "Ġgar": 2901,
      "Ġkill": 2902,
      "Ġengine": 2903,
      "Ġexpress": 2904,
      "Ġkids": 2905,
      "you": 2906,
      "Ġtreat": 2907,
      "Ġau": 2908,
      "tement": 2909,
      "Ġgas": 2910,
      "Ġdeg": 2911,
      "Ġhigher": 2912,
      "Ġwriting": 2913,
      "Ġsuppose": 2914,
      "ORK": 2915,
      "Ġimpro": 2916,
      "Ġbuilding": 2917,
      "Ġstuff": 2918,
      "rant": 2919,
      "search": 2920,
      "Ġpray": 2921,
      "ĠRich": 2922,
      "cious": 2923,
      "Ġroad": 2924,
      "Ġtransfer": 2925,
      "Ġsoul": 2926,
      "Take": 2927,
      "ged": 2928,
      "teen": 2929,
      "Ġach": 2930,
      "res": 2931,
      "Ġarm": 2932,
      "Ġdiet": 2933,
      "ips": 2934,
      "Ġvoice": 2935,
      "Ġcoll": 2936,
      "Ġwarm": 2937,
      "Ġrequire": 2938,
      "Ġcharacter": 2939,
      "Ġnecessary": 2940,
      "Find": 2941,
      "vol": 2942,
      "Ġsort": 2943,
      "Ġpas": 2944,
      "Ġresearch": 2945,
      "Ġlonger": 2946,
      "Ġreceip": 2947,
      "ledge": 2948,
      "ashion": 2949,
      "Ġissue": 2950,
      "Ġnetwork": 2951,
      "Ġintrod": 2952,
      "73": 2953,
      "ina": 2954,
      "Ġwed": 2955,
      "Ġexc": 2956,
      "ĠOur": 2957,
      "INIUS": 2958,
      "Ġpurch": 2959,
      "Ġsubject": 2960,
      "ĠUnited": 2961,
      "oring": 2962,
      "Ġmeas": 2963,
      "Ġfurther": 2964,
      "ĠAt": 2965,
      "Ġchall": 2966,
      "Ġideas": 2967,
      "Ġphys": 2968,
      "Ġplanning": 2969,
      "Ġmarketing": 2970,
      "Ġpiece": 2971,
      "itchen": 2972,
      "Ġlisten": 2973,
      "Ġqueen": 2974,
      "mar": 2975,
      "Ġstate": 2976,
      "ipe": 2977,
      "Ġamaz": 2978,
      "Ġkinds": 2979,
      "Ġtaste": 2980,
      "edule": 2981,
      "Ġstyle": 2982,
      "Ġcompanies": 2983,
      "Ah": 2984,
      "Ġill": 2985,
      "change": 2986,
      "Ġdie": 2987,
      "ĠTr": 2988,
      "Ġfoc": 2989,
      "Ġaccur": 2990,
      "Ġinstead": 2991,
      "bo": 2992,
      "ined": 2993,
      "ĠSun": 2994,
      "Ġexci": 2995,
      "Ġanyone": 2996,
      "Ġclimate": 2997,
      "izing": 2998,
      "Ġadm": 2999,
      "Ġboard": 3000,
      "Ġtickets": 3001,
      "23": 3002,
      "ĠZ": 3003,
      "ering": 3004,
      "Ġthus": 3005,
      "Ġgrea": 3006,
      "ĠPro": 3007,
      "bout": 3008,
      "dentify": 3009,
      "Ġmount": 3010,
      "Ġeight": 3011,
      "Ġegg": 3012,
      "Ġkitchen": 3013,
      "rief": 3014,
      "Ġanyway": 3015,
      "ĠGo": 3016,
      "wards": 3017,
      "Ġsupport": 3018,
      "Ġrunning": 3019,
      "DW": 3020,
      "fear": 3021,
      "here": 3022,
      "Ġsight": 3023,
      "Ġbal": 3024,
      "Ġbra": 3025,
      "Ġest": 3026,
      "Ġwants": 3027,
      "Ġnoble": 3028,
      "Ġnumbers": 3029,
      "Ġdiscount": 3030,
      "Ġexplain": 3031,
      "Ġmessage": 3032,
      "DWARD": 3033,
      "Ġdoth": 3034,
      "Ġfight": 3035,
      "ists": 3036,
      "ĠOn": 3037,
      ",--": 3038,
      "83": 3039,
      "Tell": 3040,
      "fast": 3041,
      "por": 3042,
      "Ġmatch": 3043,
      "istr": 3044,
      "ased": 3045,
      "Ġknew": 3046,
      "Ġprices": 3047,
      "Ġwatching": 3048,
      "Ġproper": 3049,
      "Ġtemperature": 3050,
      "97": 3051,
      "Sir": 3052,
      "ada": 3053,
      "son": 3054,
      "Ġlab": 3055,
      "Ġgames": 3056,
      "Ġstress": 3057,
      "Ġdig": 3058,
      "ĠFrench": 3059,
      "Ġmail": 3060,
      "Ġgrou": 3061,
      "Ġsecret": 3062,
      "Ġvegetables": 3063,
      "65": 3064,
      "PET": 3065,
      "TH": 3066,
      "tention": 3067,
      "Ġjour": 3068,
      "Ġtruth": 3069,
      "Ġcosts": 3070,
      "Shall": 3071,
      "LUC": 3072,
      "mas": 3073,
      "sts": 3074,
      "Ġstation": 3075,
      "Ġlie": 3076,
      "ĠLi": 3077,
      "Ġknowledge": 3078,
      "Ġgets": 3079,
      "ĠWhich": 3080,
      "port": 3081,
      "Ġice": 3082,
      "cen": 3083,
      "Ġhu": 3084,
      "Ġbur": 3085,
      "Ġdouble": 3086,
      "ĠAr": 3087,
      "struct": 3088,
      "ometimes": 3089,
      "ighb": 3090,
      "Ġhandle": 3091,
      "Ġrelationship": 3092,
      "ĠStates": 3093,
      "Ġshoes": 3094,
      "Ġpromise": 3095,
      "Ġpurp": 3096,
      "Ġauth": 3097,
      "Ġwindow": 3098,
      "Ġefficient": 3099,
      "Ġconvenient": 3100,
      "Ay": 3101,
      "yal": 3102,
      "Ġnature": 3103,
      "ĠPl": 3104,
      "ĠWho": 3105,
      "Ġplaces": 3106,
      "Ġadvant": 3107,
      "iety": 3108,
      "bt": 3109,
      "sed": 3110,
      "Ġtill": 3111,
      "Ġsand": 3112,
      "Ġdream": 3113,
      "Ġyours": 3114,
      "Ġjoy": 3115,
      "ĠTake": 3116,
      "ĠJack": 3117,
      "Ġsky": 3118,
      "Ġgrace": 3119,
      "Because": 3120,
      "Ġvalue": 3121,
      "NT": 3122,
      "write": 3123,
      "ĠLord": 3124,
      "Ġpredi": 3125,
      "Ġleaving": 3126,
      "apan": 3127,
      "ĠMonday": 3128,
      "Ġreceipt": 3129,
      "arry": 3130,
      "Ġsn": 3131,
      "Ġsong": 3132,
      "Ġmot": 3133,
      "rew": 3134,
      "elt": 3135,
      "Ġri": 3136,
      "Ġunderstanding": 3137,
      "Ġokay": 3138,
      "MEN": 3139,
      "Some": 3140,
      "acy": 3141,
      "how": 3142,
      "ony": 3143,
      "Ġpen": 3144,
      "Ġoil": 3145,
      "Ġneighb": 3146,
      "Ġbrought": 3147,
      "ization": 3148,
      "Ġblock": 3149,
      "ulture": 3150,
      "Ġstep": 3151,
      "Ġactivities": 3152,
      "81": 3153,
      "See": 3154,
      "ience": 3155,
      "olit": 3156,
      "Ġlay": 3157,
      "Ġinput": 3158,
      "Ġworks": 3159,
      "ĠPr": 3160,
      "cies": 3161,
      "Ġcode": 3162,
      "ification": 3163,
      "Given": 3164,
      "Identify": 3165,
      "cine": 3166,
      "ext": 3167,
      "oe": 3168,
      "Ġability": 3169,
      "ished": 3170,
      "ngth": 3171,
      "Ġcarry": 3172,
      "Ġpair": 3173,
      "Ġslow": 3174,
      "Ġschedule": 3175,
      "Ġpassport": 3176,
      "IB": 3177,
      "ancial": 3178,
      "Ġ200": 3179,
      "Ġattention": 3180,
      "109": 3181,
      "Ġsystems": 3182,
      "Ġcontact": 3183,
      "ĠâĢľ": 3184,
      "Ì¦Ì¦Ì¦Ì¦Ì¦Ì¦Ì¦Ì¦": 3185,
      "Ġindivid": 3186,
      "ROMEO": 3187,
      "ĠYes": 3188,
      "erhaps": 3189,
      "Ġheat": 3190,
      "Ġbath": 3191,
      "ĠSir": 3192,
      "ardon": 3193,
      "Ġtrust": 3194,
      "Ġlovely": 3195,
      "Ġstrateg": 3196,
      "ENIUS": 3197,
      "Ġbeauty": 3198,
      "lenty": 3199,
      "Ġsuccessful": 3200,
      "MENENIUS": 3201,
      "63": 3202,
      "AM": 3203,
      "Ġperi": 3204,
      "Ġconc": 3205,
      "Ġglobal": 3206,
      "Ġbreakfast": 3207,
      "His": 3208,
      "uses": 3209,
      "Ġage": 3210,
      "Ġmaster": 3211,
      "Ġdou": 3212,
      "Ġgift": 3213,
      "urity": 3214,
      "iment": 3215,
      "Ġknown": 3216,
      "Ġhelps": 3217,
      "Ġquiet": 3218,
      "Ġstrength": 3219,
      "Ġexciting": 3220,
      "43": 3221,
      "71": 3222,
      "Ġresources": 3223,
      "ified": 3224,
      "Ġeffective": 3225,
      "Ġlucky": 3226,
      "Ġcounter": 3227,
      "RUCH": 3228,
      "Tr": 3229,
      "ught": 3230,
      "Ġgave": 3231,
      "coming": 3232,
      "Ġlibr": 3233,
      "ĠRIB": 3234,
      "ĠBob": 3235,
      "Ġeng": 3236,
      "ĠJapan": 3237,
      "Ġcontrol": 3238,
      "Ġdriving": 3239,
      "Ġresults": 3240,
      "Ġgradu": 3241,
      "PETRUCH": 3242,
      "PETRUCHIO": 3243,
      "aking": 3244,
      "Ġmeat": 3245,
      "ives": 3246,
      "Ġhast": 3247,
      "che": 3248,
      "Ġexchange": 3249,
      "place": 3250,
      "Ġproduce": 3251,
      "Ġopin": 3252,
      "Ġstatement": 3253,
      "Ġgentle": 3254,
      "About": 3255,
      "night": 3256,
      "ctions": 3257,
      "Ġhit": 3258,
      "Ġbeach": 3259,
      "Ġlog": 3260,
      "Ġlady": 3261,
      "Ġfurn": 3262,
      "ury": 3263,
      "pper": 3264,
      "Ġcomb": 3265,
      "Ġdeterm": 3266,
      "ĠFirst": 3267,
      "Ġpayment": 3268,
      "Ġgrand": 3269,
      "Ġeating": 3270,
      "Ġpolicy": 3271,
      "Ġdevelopment": 3272,
      "Ġanimals": 3273,
      "Welcome": 3274,
      "ges": 3275,
      "Ġes": 3276,
      "ances": 3277,
      "Ġmer": 3278,
      "reet": 3279,
      "Ġplenty": 3280,
      "Ġrange": 3281,
      "Ġbrand": 3282,
      "Ġground": 3283,
      "Ġterms": 3284,
      "Ġfilm": 3285,
      "Ġstaff": 3286,
      "Second": 3287,
      "oss": 3288,
      "Ġz": 3289,
      "ional": 3290,
      "ograph": 3291,
      "Ġcompet": 3292,
      "106": 3293,
      "Ġfault": 3294,
      "Ġstudying": 3295,
      "Ġholiday": 3296,
      "Ġwedding": 3297,
      "Ġexcited": 3298,
      "ying": 3299,
      "Ġtong": 3300,
      "Ġhop": 3301,
      "Ġhang": 3302,
      "cks": 3303,
      "Ġatt": 3304,
      "aging": 3305,
      "ĠFin": 3306,
      "Ġaccording": 3307,
      "ibility": 3308,
      "Ġbehind": 3309,
      "Ġtransport": 3310,
      "GR": 3311,
      "Ġtit": 3312,
      "dio": 3313,
      "ogn": 3314,
      "Ġfashion": 3315,
      "Ġwash": 3316,
      "Ġglass": 3317,
      "Ġdraw": 3318,
      "ĠEdward": 3319,
      "Ġmethod": 3320,
      "John": 3321,
      "oom": 3322,
      "Ġbid": 3323,
      "Ġdanger": 3324,
      "hate": 3325,
      "Ġalone": 3326,
      "ipment": 3327,
      "Ġcommunication": 3328,
      "Ġmention": 3329,
      "61": 3330,
      "Comp": 3331,
      "dit": 3332,
      "gestion": 3333,
      "Ġlots": 3334,
      "IOLAN": 3335,
      "Ġlatest": 3336,
      "ORIOLAN": 3337,
      "Ġcomplex": 3338,
      "Ġcell": 3339,
      "Alright": 3340,
      "Ġbaby": 3341,
      "ORIOLANUS": 3342,
      "CORIOLANUS": 3343,
      "go": 3344,
      "anch": 3345,
      "Ġsources": 3346,
      "urder": 3347,
      "ĠSte": 3348,
      "ĠSome": 3349,
      "Ġagre": 3350,
      "Ġkidding": 3351,
      "aim": 3352,
      "bed": 3353,
      "Ġer": 3354,
      "Ġmult": 3355,
      "Ġrenew": 3356,
      "ission": 3357,
      "Ġshare": 3358,
      "104": 3359,
      "ĠOne": 3360,
      "Ġcreating": 3361,
      "Ġreceived": 3362,
      "From": 3363,
      "ev": 3364,
      "let": 3365,
      "light": 3366,
      "oid": 3367,
      "Ġself": 3368,
      "Ġplans": 3369,
      "Ġfruit": 3370,
      "tens": 3371,
      "Ġtraditional": 3372,
      "Ġhosp": 3373,
      "ĠKing": 3374,
      "Ġcareful": 3375,
      "Rewrite": 3376,
      "Ġwondering": 3377,
      "Ġdefinitely": 3378,
      "95": 3379,
      "ging": 3380,
      "Ġ/": 3381,
      "Ġidentify": 3382,
      "Ġdecide": 3383,
      "Ġpositive": 3384,
      "Ġfeatures": 3385,
      "Ġamazing": 3386,
      "41": 3387,
      "ron": 3388,
      "olog": 3389,
      "Ġspent": 3390,
      "ĠDoes": 3391,
      "Ġfinancial": 3392,
      "Ġpoints": 3393,
      "Ġchanges": 3394,
      "Ġbreath": 3395,
      "ĠChristmas": 3396,
      "Ġlibrary": 3397,
      "co": 3398,
      "Ġpot": 3399,
      "Ġpity": 3400,
      "Ġcrown": 3401,
      "Ġang": 3402,
      "Ġcamer": 3403,
      "ĠAng": 3404,
      "Ġsuper": 3405,
      "ices": 3406,
      "ĠGr": 3407,
      "ference": 3408,
      "Ġmedicine": 3409,
      "Ġsoup": 3410,
      "Ġpurpose": 3411,
      "dra": 3412,
      "uty": 3413,
      "aint": 3414,
      "Ġpan": 3415,
      "Ġfort": 3416,
      "ley": 3417,
      "Ġprint": 3418,
      "ĠEDWARD": 3419,
      "Ġnewsp": 3420,
      "Ġquar": 3421,
      "Ġcars": 3422,
      "INA": 3423,
      "Ġfinal": 3424,
      "Ġeasily": 3425,
      "Ġdelicious": 3426,
      "Ġchanged": 3427,
      "Ġindustry": 3428,
      "Ġdigital": 3429,
      "ton": 3430,
      "Ġur": 3431,
      "Ġsy": 3432,
      "Ġbud": 3433,
      "ili": 3434,
      "Ġcir": 3435,
      "Ġcream": 3436,
      "verage": 3437,
      "Ġprince": 3438,
      "ĠWith": 3439,
      "ĠEar": 3440,
      "ĠEur": 3441,
      "Ġspec": 3442,
      "Ġdepends": 3443,
      "ĠRichard": 3444,
      "Un": 3445,
      "Ġanaly": 3446,
      "ĠCon": 3447,
      "Ġattr": 3448,
      "Ġseeing": 3449,
      "Ġrooms": 3450,
      "Ġclasses": 3451,
      "Ġeasier": 3452,
      "Ġcomputers": 3453,
      "Ġlearned": 3454,
      "Ġmanagement": 3455,
      "Ġcomfortable": 3456,
      "Ġflowers": 3457,
      "hatever": 3458,
      "gain": 3459,
      "mail": 3460,
      "ror": 3461,
      "ancing": 3462,
      "uel": 3463,
      "Ġlower": 3464,
      "Ġdiv": 3465,
      "Ġbright": 3466,
      "Ġdesk": 3467,
      "Ġaction": 3468,
      "ĠFrance": 3469,
      "Ġgeneral": 3470,
      "ocol": 3471,
      "Ġfigure": 3472,
      "Ġprivate": 3473,
      "93": 3474,
      "lue": 3475,
      "oon": 3476,
      "ored": 3477,
      "Ġsnow": 3478,
      "Ġinde": 3479,
      "ird": 3480,
      "ĠThese": 3481,
      "rib": 3482,
      "ples": 3483,
      "Ġdescribe": 3484,
      "Ġgentlem": 3485,
      "ĠIII": 3486,
      "Ġalgorithm": 3487,
      "ĠInternet": 3488,
      "Ġperiod": 3489,
      "Ġfelt": 3490,
      "enry": 3491,
      "Than": 3492,
      "lex": 3493,
      "ĠNor": 3494,
      "Ġsaying": 3495,
      "Ġmedia": 3496,
      "Ġcrazy": 3497,
      "Ġtongue": 3498,
      "Ġhospital": 3499,
      "aper": 3500,
      "wick": 3501,
      "aring": 3502,
      "Ġshouldn": 3503,
      "Ġappear": 3504,
      "Ġpercent": 3505,
      "Ġcopy": 3506,
      "Ġpollution": 3507,
      "of": 3508,
      "Ġfat": 3509,
      "Ġrich": 3510,
      "----": 3511,
      "Ġfootball": 3512,
      "Ġopportunity": 3513,
      "rat": 3514,
      "ĠQ": 3515,
      "sphere": 3516,
      "Ġdry": 3517,
      "ĠBesides": 3518,
      "Ġdrop": 3519,
      "Ġoption": 3520,
      "Ġenjoyed": 3521,
      "Ġdetails": 3522,
      "Ġdocuments": 3523,
      "Polit": 3524,
      "back": 3525,
      "Ġsqu": 3526,
      "Ġbeat": 3527,
      "Ġcry": 3528,
      "Ġlug": 3529,
      "oof": 3530,
      "abl": 3531,
      "ĠEn": 3532,
      "ĠPar": 3533,
      "dern": 3534,
      "Ġstrange": 3535,
      "Ġbuying": 3536,
      "Ġfinally": 3537,
      "Ġsecurity": 3538,
      "Ġdelivery": 3539,
      "ĠAngel": 3540,
      "Ġ+": 3541,
      "anced": 3542,
      "Ġweak": 3543,
      "Ġfaster": 3544,
      "Ġcake": 3545,
      "Ġround": 3546,
      "imum": 3547,
      "Ġmeal": 3548,
      "ĠLin": 3549,
      "Ġju": 3550,
      "Ġneeded": 3551,
      "road": 3552,
      "Ġplane": 3553,
      "medi": 3554,
      "Ġsituation": 3555,
      "Ġpicture": 3556,
      "iddle": 3557,
      "Ġtitle": 3558,
      "alse": 3559,
      "Ġtrees": 3560,
      "Ġseason": 3561,
      "ural": 3562,
      "Ġret": 3563,
      "Ġran": 3564,
      "Ġatmo": 3565,
      "unk": 3566,
      "ffer": 3567,
      "ĠNot": 3568,
      "Ġinside": 3569,
      "Ġcele": 3570,
      "Ġpolice": 3571,
      "Ġintelligence": 3572,
      "Ġsmoking": 3573,
      "Ġmagaz": 3574,
      "Ġencour": 3575,
      "Ġselect": 3576,
      "orge": 3577,
      "Ġsem": 3578,
      "Ġmill": 3579,
      "Ġ25": 3580,
      "Ġride": 3581,
      "ĠHo": 3582,
      "Ġwaste": 3583,
      "Ġoffic": 3584,
      "phone": 3585,
      "Ġjourney": 3586,
      "91": 3587,
      "PR": 3588,
      "Tis": 3589,
      "eal": 3590,
      "Ġborn": 3591,
      "Ġda": 3592,
      "Ġfare": 3593,
      "Ġnine": 3594,
      "Ġasking": 3595,
      "ĠMark": 3596,
      "ules": 3597,
      "Ġvirt": 3598,
      "Ġloss": 3599,
      "aged": 3600,
      "Ġjobs": 3601,
      "ĠYORK": 3602,
      "Ġwrit": 3603,
      "Ġmedical": 3604,
      "Ġrecogn": 3605,
      "Ġvarious": 3606,
      "Ġvariety": 3607,
      "Ġthird": 3608,
      "Ġprepare": 3609,
      "Politics": 3610,
      "eep": 3611,
      "Ġea": 3612,
      "cas": 3613,
      "itor": 3614,
      "Ġtool": 3615,
      "ĠMs": 3616,
      "Ġwilling": 3617,
      "Ġknows": 3618,
      "Ġmoved": 3619,
      "Ġcollect": 3620,
      "ELLA": 3621,
      "ISAB": 3622,
      "Ġtaxi": 3623,
      "Ġlevels": 3624,
      "Ġbott": 3625,
      "ISABELLA": 3626,
      "Sum": 3627,
      "word": 3628,
      "orld": 3629,
      "ann": 3630,
      "ising": 3631,
      "Ġant": 3632,
      "Ġfool": 3633,
      "ented": 3634,
      "Ġworried": 3635,
      "ĠDa": 3636,
      "ousin": 3637,
      "Ġpoem": 3638,
      "Ġstruct": 3639,
      "Ġimpact": 3640,
      "Ġsuggestion": 3641,
      "Ġscient": 3642,
      "Ġdoubt": 3643,
      "Ġopinion": 3644,
      "Ġluggage": 3645,
      "CE": 3646,
      "RAN": 3647,
      "face": 3648,
      "hood": 3649,
      "ral": 3650,
      "Ġ|": 3651,
      "Ġing": 3652,
      "Ġver": 3653,
      "eater": 3654,
      "ceed": 3655,
      "Ġthrow": 3656,
      "ises": 3657,
      "Ġgiving": 3658,
      "Ġarg": 3659,
      "Ġweb": 3660,
      "Ġworse": 3661,
      "Ġvill": 3662,
      "Ġvol": 3663,
      "ief": 3664,
      "Ġnote": 3665,
      "Ġtrade": 3666,
      "Ġclos": 3667,
      "Ġafford": 3668,
      "Ġkept": 3669,
      "Ġtrack": 3670,
      "Ġdecis": 3671,
      "Ġskin": 3672,
      "Ġguys": 3673,
      "redients": 3674,
      "Ġcooking": 3675,
      "Two": 3676,
      "):": 3677,
      "house": 3678,
      "Ġ<": 3679,
      "onna": 3680,
      "resent": 3681,
      "Ġbow": 3682,
      "Ġopt": 3683,
      "Ġgain": 3684,
      "Ġdecl": 3685,
      "Ġcorner": 3686,
      "Ġconditions": 3687,
      "Ġcheap": 3688,
      "Ġswimming": 3689,
      "Ġatmosphere": 3690,
      "Ġcelebr": 3691,
      "JU": 3692,
      "LEO": 3693,
      "oad": 3694,
      "cant": 3695,
      "Ġmath": 3696,
      "Ġpage": 3697,
      "Ġbeha": 3698,
      "Ġru": 3699,
      "Ġord": 3700,
      "Ġspir": 3701,
      "Ġemail": 3702,
      "Ġbedroom": 3703,
      "Ġinternational": 3704,
      "LIET": 3705,
      "Ġhurry": 3706,
      "Ġdriver": 3707,
      "Ġresponsible": 3708,
      "ĠWarwick": 3709,
      "NTES": 3710,
      "JULIET": 3711,
      "LEONTES": 3712,
      "Ġtree": 3713,
      "Ġhoney": 3714,
      "Ġfail": 3715,
      "Ġgen": 3716,
      "ques": 3717,
      "Ġchat": 3718,
      "ĠHenry": 3719,
      "Ġvide": 3720,
      "102": 3721,
      "Ġsafe": 3722,
      "Ġresume": 3723,
      "Ġphr": 3724,
      "Ġsteps": 3725,
      "Ġeffects": 3726,
      "Ġextrem": 3727,
      "Ġfocus": 3728,
      "ius": 3729,
      "ival": 3730,
      "ixt": 3731,
      "ĠX": 3732,
      "Ġbon": 3733,
      "Ġcu": 3734,
      "Ġbeer": 3735,
      "ĠMe": 3736,
      "Ġconcept": 3737,
      "Ġfeed": 3738,
      "ENCE": 3739,
      "ĠMrs": 3740,
      "Ġrelated": 3741,
      "Ġtypes": 3742,
      "Ġgirlfriend": 3743,
      "Ġevents": 3744,
      "Ġscience": 3745,
      "ĠCompany": 3746,
      "Ġgroup": 3747,
      "DY": 3748,
      "ater": 3749,
      "Ġpatter": 3750,
      "Ġconvers": 3751,
      "ĠDep": 3752,
      "Ġensure": 3753,
      "ĠOk": 3754,
      "Ġquit": 3755,
      "ĠJim": 3756,
      "ĠJul": 3757,
      "lier": 3758,
      "Ġremind": 3759,
      "Ġartificial": 3760,
      "Ġairport": 3761,
      "ĠâĢĵ": 3762,
      "Ġallows": 3763,
      "Ġcen": 3764,
      "Ġbroken": 3765,
      "Ġapproach": 3766,
      "VOL": 3767,
      "oll": 3768,
      "tw": 3769,
      "aret": 3770,
      "rel": 3771,
      "Ġburn": 3772,
      "ĠID": 3773,
      "Ġnut": 3774,
      "Ġgold": 3775,
      "arden": 3776,
      "Ġemb": 3777,
      "Ġcolors": 3778,
      "LADY": 3779,
      "Ġnone": 3780,
      "Ġintroduce": 3781,
      "Ġpurchase": 3782,
      "Ġchalleng": 3783,
      "ĠSunday": 3784,
      "SIC": 3785,
      "TA": 3786,
      "book": 3787,
      "gent": 3788,
      "my": 3789,
      "vious": 3790,
      "zen": 3791,
      "Ġcross": 3792,
      "Ġann": 3793,
      "Ġ21": 3794,
      "ulation": 3795,
      "Ġtherefore": 3796,
      "Ġspeech": 3797,
      "Ġbroke": 3798,
      "Ġsaving": 3799,
      "Ġplayer": 3800,
      "Ġmarri": 3801,
      "Ġtask": 3802,
      "Ġshame": 3803,
      "Ġwomen": 3804,
      "Ġdishes": 3805,
      "culate": 3806,
      "Ġinvolves": 3807,
      "Ġpressure": 3808,
      "volution": 3809,
      "Ġindeed": 3810,
      "List": 3811,
      "bing": 3812,
      "utions": 3813,
      "Ġtall": 3814,
      "anc": 3815,
      "Ġsour": 3816,
      "Ġaverage": 3817,
      "Ġhence": 3818,
      "Ġinno": 3819,
      "ĠAcc": 3820,
      "ĠMake": 3821,
      "izes": 3822,
      "Ġtelling": 3823,
      "Ġfunction": 3824,
      "uesday": 3825,
      "Ġserve": 3826,
      "Ġprovides": 3827,
      "Class": 3828,
      "Ġphysical": 3829,
      "ĠEurope": 3830,
      "PT": 3831,
      "iture": 3832,
      "Ġyeah": 3833,
      "Ġpet": 3834,
      "Ġpounds": 3835,
      "Ġamong": 3836,
      "Ġimmedi": 3837,
      "Ġgirls": 3838,
      "ĠPeople": 3839,
      "Ġcontinue": 3840,
      "Hmm": 3841,
      "Make": 3842,
      "ST": 3843,
      "mit": 3844,
      "Ġharm": 3845,
      "Ġbi": 3846,
      "ester": 3847,
      "Ġgoals": 3848,
      "Ġloan": 3849,
      "Ġnovel": 3850,
      "Ġacross": 3851,
      "Ġsmart": 3852,
      "Ġsentences": 3853,
      "Ġcards": 3854,
      "Ġdrinks": 3855,
      "Ġproviding": 3856,
      "Ġelectric": 3857,
      "Ġdemand": 3858,
      "SICINIUS": 3859,
      "aul": 3860,
      "just": 3861,
      "wise": 3862,
      "Ġbread": 3863,
      "ilar": 3864,
      "Ġbeef": 3865,
      "Ġlikes": 3866,
      "Ġchocol": 3867,
      "cient": 3868,
      "Ġimpl": 3869,
      "Ġaccident": 3870,
      "Ġhappens": 3871,
      "Ġstandard": 3872,
      "Ġpromotion": 3873,
      "Ġpackage": 3874,
      "ength": 3875,
      "Ġrisk": 3876,
      "Ġcompletely": 3877,
      "ĠRomeo": 3878,
      "Ġaffect": 3879,
      "ĠEarth": 3880,
      "Ġdecisions": 3881,
      "uly": 3882,
      "Ġx": 3883,
      "care": 3884,
      "spir": 3885,
      "Ġreview": 3886,
      "verse": 3887,
      "Ġstick": 3888,
      "Ġmodern": 3889,
      "Ġmanage": 3890,
      "Ġroll": 3891,
      "Ġconsum": 3892,
      "Ġallowing": 3893,
      "Ġcreative": 3894,
      "Ġpieces": 3895,
      "Ġhurt": 3896,
      "Ġabsolutely": 3897,
      "Ġmaterials": 3898,
      "Ġwritten": 3899,
      "EY": 3900,
      "MI": 3901,
      "dy": 3902,
      "set": 3903,
      "atoes": 3904,
      "Ġbat": 3905,
      "ĠIV": 3906,
      "Ġnerv": 3907,
      "Ġwhose": 3908,
      "ĠLu": 3909,
      "Ġplat": 3910,
      "ĠTai": 3911,
      "ĠTuesday": 3912,
      "ĠHowever": 3913,
      "Ġtransportation": 3914,
      "Ġoptim": 3915,
      "Every": 3916,
      "Nay": 3917,
      "bon": 3918,
      "vere": 3919,
      "Ġcousin": 3920,
      "ĠRob": 3921,
      "Ġjump": 3922,
      "Ġtwice": 3923,
      "Ġshows": 3924,
      "ground": 3925,
      "Ġapplications": 3926,
      "Ġmilk": 3927,
      "Ġdangerous": 3928,
      "draw": 3929,
      "Ġnervous": 3930,
      "PU": 3931,
      "ray": 3932,
      "can": 3933,
      "ancy": 3934,
      "Ġduke": 3935,
      "Ġduty": 3936,
      "Ġrespect": 3937,
      "Ġsaf": 3938,
      "Ġlau": 3939,
      "Ġcheaper": 3940,
      "Ġassistant": 3941,
      "Ġnewspaper": 3942,
      "Classify": 3943,
      "eag": 3944,
      "ham": 3945,
      "Ġring": 3946,
      "amed": 3947,
      "Ġconcer": 3948,
      "108": 3949,
      "ĠOr": 3950,
      "ĠGet": 3951,
      "Ġgives": 3952,
      "izz": 3953,
      "Nothing": 3954,
      "Ġparking": 3955,
      "Ġmenu": 3956,
      "ĠUniversity": 3957,
      "Ġprotect": 3958,
      "Ġdegree": 3959,
      "Ġmountain": 3960,
      "Ġeggs": 3961,
      "LUCIO": 3962,
      "ĠFinally": 3963,
      "Ġmarriage": 3964,
      "akes": 3965,
      "mal": 3966,
      "wan": 3967,
      "Ġmad": 3968,
      "Ġmiddle": 3969,
      "Ġful": 3970,
      "Ġforth": 3971,
      "iff": 3972,
      "icles": 3973,
      "Ġproud": 3974,
      "Ġsto": 3975,
      "antastic": 3976,
      "Ġplant": 3977,
      "ĠBye": 3978,
      "ĠDr": 3979,
      "ongrat": 3980,
      "Ġmoon": 3981,
      "Ġclim": 3982,
      "Ġleaves": 3983,
      "ĠVI": 3984,
      "Ġtypically": 3985,
      "Ġbeginning": 3986,
      "Ġusers": 3987,
      "Ġmiles": 3988,
      "Ġeconomy": 3989,
      "Ġfurniture": 3990,
      "Summar": 3991,
      "Tom": 3992,
      "pon": 3993,
      "tening": 3994,
      "Ġwide": 3995,
      "Ġrush": 3996,
      "Ġarms": 3997,
      "Ġwhom": 3998,
      "Ġshirt": 3999,
      "ĠActually": 4000,
      "ĠCar": 4001,
      "Ġprove": 4002,
      "Ġspring": 4003,
      "Ġpolit": 4004,
      "Ġfee": 4005,
      "ĠGer": 4006,
      "Ġexpected": 4007,
      "Ġcourses": 4008,
      "like": 4009,
      "Ġlived": 4010,
      "Ġlately": 4011,
      "ĠEngland": 4012,
      "Ġmarry": 4013,
      "Ġincreasing": 4014,
      "Ġmaintain": 4015,
      "Ġtopic": 4016,
      "Ġsuitable": 4017,
      "Ġmistake": 4018,
      "Ġprofessional": 4019,
      "board": 4020,
      "yd": 4021,
      "Ġhung": 4022,
      "Ġpull": 4023,
      "date": 4024,
      "These": 4025,
      "Ġplants": 4026,
      "ĠBill": 4027,
      "ĠWang": 4028,
      "Ġanymore": 4029,
      "Ġnose": 4030,
      "useum": 4031,
      "Ġsalad": 4032,
      "Ġincreased": 4033,
      "Nice": 4034,
      "RI": 4035,
      "iol": 4036,
      "ients": 4037,
      "ok": 4038,
      "ru": 4039,
      "Ġwalking": 4040,
      "usan": 4041,
      "Ġareas": 4042,
      "Ġstir": 4043,
      "Ġsomewhere": 4044,
      "107": 4045,
      "Ġproduction": 4046,
      "Ġformal": 4047,
      "Ġregister": 4048,
      "Ġunto": 4049,
      "Ġsurpr": 4050,
      "Ġunique": 4051,
      "itizen": 4052,
      "Ġjuice": 4053,
      "Ġcenter": 4054,
      "Summarize": 4055,
      "Ha": 4056,
      "men": 4057,
      "vant": 4058,
      "Ġut": 4059,
      "Ġsad": 4060,
      "Ġ40": 4061,
      "Ġabroad": 4062,
      "iple": 4063,
      "ĠBl": 4064,
      "Ġlooked": 4065,
      "Ġmax": 4066,
      "Ġcareer": 4067,
      "Ġterm": 4068,
      "Ġdocument": 4069,
      "ĠHotel": 4070,
      "Ar": 4071,
      "ZAB": 4072,
      "hold": 4073,
      "par": 4074,
      "Ġwild": 4075,
      "Ġbother": 4076,
      "Ġport": 4077,
      "Ġocc": 4078,
      "Ġgonna": 4079,
      "Three": 4080,
      "eds": 4081,
      "Ġ24": 4082,
      "Ġwithdraw": 4083,
      "ĠELI": 4084,
      "Ġima": 4085,
      "ites": 4086,
      "ETH": 4087,
      "Ġveh": 4088,
      "Ġallowed": 4089,
      "Ġpaint": 4090,
      "ropri": 4091,
      "Ġbehav": 4092,
      "ZABETH": 4093,
      "ĠELIZABETH": 4094,
      "pted": 4095,
      "Ġwood": 4096,
      "vey": 4097,
      "lect": 4098,
      "Ġrules": 4099,
      "Ġsup": 4100,
      "Ġsudd": 4101,
      "Ġuses": 4102,
      "Ġhelping": 4103,
      "Ġovertime": 4104,
      "Ġuncle": 4105,
      "ertifi": 4106,
      "ĠUn": 4107,
      "Ġstarting": 4108,
      "Ġwarrant": 4109,
      "Ġsecure": 4110,
      "Ġinflue": 4111,
      "Ġgreater": 4112,
      "Ġmethods": 4113,
      "Ġdaily": 4114,
      "Ġphrase": 4115,
      "ertificate": 4116,
      "De": 4117,
      "Nor": 4118,
      "ma": 4119,
      "uf": 4120,
      "orted": 4121,
      "Ġthine": 4122,
      "Ġmouth": 4123,
      "Ġcm": 4124,
      "Ġcrow": 4125,
      "Ġfi": 4126,
      "Ġsoci": 4127,
      "ĠIndi": 4128,
      "ument": 4129,
      "ĠPark": 4130,
      "Ġheld": 4131,
      "ĠGe": 4132,
      "Ġfunny": 4133,
      "Ġavoid": 4134,
      "Ġopportunities": 4135,
      "Ġpatient": 4136,
      "ursday": 4137,
      "Ġcamera": 4138,
      "Ġingredients": 4139,
      "ongratulations": 4140,
      "Ġsudden": 4141,
      "HENRY": 4142,
      "alian": 4143,
      "idge": 4144,
      "Ġpardon": 4145,
      "Ġfund": 4146,
      "Ġgym": 4147,
      "Thy": 4148,
      "Ġef": 4149,
      "Ġtears": 4150,
      "epend": 4151,
      "Ġcalls": 4152,
      "Ġloves": 4153,
      "Ġsometime": 4154,
      "Ġfriendly": 4155,
      "Ġchecking": 4156,
      "ivity": 4157,
      "Ġleading": 4158,
      "Should": 4159,
      "airs": 4160,
      "Ġtelephone": 4161,
      "Ġspecific": 4162,
      "Ġchocolate": 4163,
      ").": 4164,
      "GE": 4165,
      "Like": 4166,
      "based": 4167,
      "hib": 4168,
      "ik": 4169,
      "oting": 4170,
      "erved": 4171,
      "Ġban": 4172,
      "Ġborrow": 4173,
      "Ġlam": 4174,
      "Ġgarden": 4175,
      "irs": 4176,
      "Ġsection": 4177,
      "ĠCom": 4178,
      "Ġmoving": 4179,
      "Ġnoise": 4180,
      "Ġcheese": 4181,
      "Ġdescription": 4182,
      "Ġrepresent": 4183,
      "Ġpassed": 4184,
      "Ġprocessing": 4185,
      "Ġfavor": 4186,
      "Ġconfirm": 4187,
      "Ġbags": 4188,
      "Ġeconomic": 4189,
      "Ġpictures": 4190,
      "Ġdamage": 4191,
      "ĠParis": 4192,
      "200": 4193,
      "UT": 4194,
      "ded": 4195,
      "nic": 4196,
      "Ġtrea": 4197,
      "angh": 4198,
      "oman": 4199,
      "Ġscal": 4200,
      "Ġsce": 4201,
      "Ġsym": 4202,
      "Ġhom": 4203,
      "urch": 4204,
      "ĠSometimes": 4205,
      "Ġdesp": 4206,
      "Ġbranch": 4207,
      "easons": 4208,
      "Ġcourt": 4209,
      "Ġsmell": 4210,
      "Ġbusinesses": 4211,
      "Ġstaying": 4212,
      "Ġsolve": 4213,
      "Ġpleasant": 4214,
      "Ġmachines": 4215,
      "Ġprograms": 4216,
      "Ġpowerful": 4217,
      "Ġcharacters": 4218,
      "Anything": 4219,
      "Ġconcert": 4220,
      "Ġbudget": 4221,
      "Ġattract": 4222,
      "anghai": 4223,
      "Sp": 4224,
      "WAR": 4225,
      "WIC": 4226,
      "Wait": 4227,
      "Ġ:": 4228,
      "dience": 4229,
      "cean": 4230,
      "atic": 4231,
      "Ġmix": 4232,
      "essert": 4233,
      "Ġneg": 4234,
      "Ġplastic": 4235,
      "ĠBar": 4236,
      "ĠBank": 4237,
      "ĠPaul": 4238,
      "Ġoffers": 4239,
      "Ġletters": 4240,
      "Ġbooked": 4241,
      "Ġdetail": 4242,
      "Ġbottle": 4243,
      "Ġliked": 4244,
      "cense": 4245,
      "Ġplatform": 4246,
      "WARWIC": 4247,
      "WARWICK": 4248,
      "Nurse": 4249,
      "Ġlength": 4250,
      "Ġgro": 4251,
      "irus": 4252,
      "Ġsum": 4253,
      "Ġchem": 4254,
      "ĠHENRY": 4255,
      "ĠBrown": 4256,
      "Ġquant": 4257,
      "Ġearlier": 4258,
      "Ġturned": 4259,
      "Ġsubway": 4260,
      "Ġincludes": 4261,
      "Ġgrowth": 4262,
      "Ġprepared": 4263,
      "Ġdispl": 4264,
      "iliar": 4265,
      "Ġvideo": 4266,
      "),": 4267,
      "uting": 4268,
      "Ġtar": 4269,
      "Ġmid": 4270,
      "Ġfuel": 4271,
      "Ġgenerate": 4272,
      "Ġreven": 4273,
      "Ġreli": 4274,
      "Ġstories": 4275,
      "ĠAustr": 4276,
      "Ġconcl": 4277,
      "ĠTw": 4278,
      "Ġclub": 4279,
      "ĠGreen": 4280,
      "ĠJane": 4281,
      "Ġpaying": 4282,
      "Ġimportance": 4283,
      "Ġbase": 4284,
      "Ġshape": 4285,
      "Ġhumans": 4286,
      "Ġcolleag": 4287,
      "Ġrenewable": 4288,
      "HAM": 4289,
      "Sug": 4290,
      "ium": 4291,
      "Ġtim": 4292,
      "utting": 4293,
      "Ġsorrow": 4294,
      "Ġsides": 4295,
      "rend": 4296,
      "Ġbutter": 4297,
      "Ġdessert": 4298,
      "Ġlon": 4299,
      "Ġfalse": 4300,
      "vert": 4301,
      "Ġneck": 4302,
      "ĠCitizen": 4303,
      "Ġexec": 4304,
      "Ġanywhere": 4305,
      "Ġspot": 4306,
      "iest": 4307,
      "Ġfeet": 4308,
      "Ġappropri": 4309,
      "Ġsauce": 4310,
      "Ġelements": 4311,
      "sential": 4312,
      "Ġwarming": 4313,
      "Ġlords": 4314,
      "Ġraise": 4315,
      "Ġcents": 4316,
      "ĠAnything": 4317,
      "Ġindividual": 4318,
      "Even": 4319,
      "IAN": 4320,
      "LET": 4321,
      "Were": 4322,
      "Yet": 4323,
      "fl": 4324,
      "five": 4325,
      "icate": 4326,
      "ucing": 4327,
      "ining": 4328,
      "iling": 4329,
      "Ġcy": 4330,
      "Ġitself": 4331,
      "ches": 4332,
      "lymp": 4333,
      "though": 4334,
      "ustain": 4335,
      "ĠWorld": 4336,
      "ĠDay": 4337,
      "Ġlocated": 4338,
      "ĠPh": 4339,
      "Ġhelpful": 4340,
      "Ġparts": 4341,
      "Ġuseful": 4342,
      "âĢĿ": 4343,
      "Ġremain": 4344,
      "ĠStreet": 4345,
      "Ġsolution": 4346,
      "fortun": 4347,
      "Ġreasonable": 4348,
      "Ġalgorithms": 4349,
      "Ġpredict": 4350,
      "Ġfortune": 4351,
      "ĠTaiwan": 4352,
      "PULET": 4353,
      "Ġhungry": 4354,
      "aign": 4355,
      "ket": 4356,
      "ox": 4357,
      "emember": 4358,
      "Ġwid": 4359,
      "Ġbes": 4360,
      "estern": 4361,
      "Ġfell": 4362,
      "Ġinstruction": 4363,
      "issions": 4364,
      "ĠSu": 4365,
      "Ġthemselves": 4366,
      "ĠOlymp": 4367,
      "Ġbuilt": 4368,
      "Ġblog": 4369,
      "Ġfoods": 4370,
      "Ġdrinking": 4371,
      "Ġanimal": 4372,
      "appy": 4373,
      "Ġfifteen": 4374,
      "Ġachie": 4375,
      "MIO": 4376,
      "Was": 4377,
      "mark": 4378,
      "oms": 4379,
      "Ġmood": 4380,
      "Ġhi": 4381,
      "Ġancient": 4382,
      "etic": 4383,
      "Ġfirm": 4384,
      "Ġcaught": 4385,
      "Ġliter": 4386,
      "ĠThursday": 4387,
      "Ġkil": 4388,
      "ĠCal": 4389,
      "Ġenem": 4390,
      "Ġspo": 4391,
      "Ġspare": 4392,
      "Ġfinding": 4393,
      "Ġgram": 4394,
      "Ġchecked": 4395,
      "atives": 4396,
      "Ġtechni": 4397,
      "Ġmodels": 4398,
      "ĠAnyway": 4399,
      "Ġentertain": 4400,
      "Ġcampaign": 4401,
      "Ġimproved": 4402,
      "Suggest": 4403,
      "More": 4404,
      "lic": 4405,
      "ply": 4406,
      "tee": 4407,
      "alia": 4408,
      "Ġhous": 4409,
      "dation": 4410,
      "Ġbecoming": 4411,
      "Ġrid": 4412,
      "Ġrise": 4413,
      "Ġshar": 4414,
      "Ġsold": 4415,
      "ĠHis": 4416,
      "Ġprevent": 4417,
      "ĠWhite": 4418,
      "Ġresol": 4419,
      "Ġsett": 4420,
      "ESS": 4421,
      "Ġsimilar": 4422,
      "ĠSpanish": 4423,
      "Ġlikely": 4424,
      "Ġangry": 4425,
      "500": 4426,
      "Most": 4427,
      "PER": 4428,
      "iency": 4429,
      "nis": 4430,
      "nes": 4431,
      "nam": 4432,
      "Ġoriginal": 4433,
      "Ġwit": 4434,
      "Ġcancel": 4435,
      "Ġstars": 4436,
      "Ġexcept": 4437,
      "istic": 4438,
      "Ġfaith": 4439,
      "UCKING": 4440,
      "Ġstands": 4441,
      "Ġshad": 4442,
      "Ġsugar": 4443,
      "BRUT": 4444,
      "Ġadvantages": 4445,
      "Ġgentleman": 4446,
      "Ġimmediately": 4447,
      "UCKINGHAM": 4448,
      "BRUTUS": 4449,
      "BUCKINGHAM": 4450,
      "TRAN": 4451,
      "ians": 4452,
      "alys": 4453,
      "oul": 4454,
      "vell": 4455,
      "Ġbutt": 4456,
      "inger": 4457,
      "Ġpush": 4458,
      "Ġden": 4459,
      "Ġdancing": 4460,
      "Ġfri": 4461,
      "Ġreque": 4462,
      "Ġears": 4463,
      "Ġlicense": 4464,
      "Ġabove": 4465,
      "ĠBOL": 4466,
      "Ġmaid": 4467,
      "Ġrock": 4468,
      "Ġroyal": 4469,
      "ervant": 4470,
      "OKE": 4471,
      "Ġident": 4472,
      "INGBR": 4473,
      "ĠâĢĿ": 4474,
      "Ġpainting": 4475,
      "ĠShanghai": 4476,
      "TRANIO": 4477,
      "ĠBOLINGBR": 4478,
      "ĠBOLINGBROKE": 4479,
      "vost": 4480,
      "vision": 4481,
      "tect": 4482,
      "Ġwake": 4483,
      "Ġboring": 4484,
      "Ġlack": 4485,
      "Ġfellow": 4486,
      "Ġcaused": 4487,
      "Ġmeals": 4488,
      "Ġprim": 4489,
      "Ġstom": 4490,
      "Ġkne": 4491,
      "ĠApp": 4492,
      "Ġcond": 4493,
      "Ġspread": 4494,
      "soci": 4495,
      "ptop": 4496,
      "Ġcommand": 4497,
      "Ġfamiliar": 4498,
      "Ġguar": 4499,
      "Ġmedium": 4500,
      "ployment": 4501,
      "Ġrequir": 4502,
      "Ġarrived": 4503,
      "Ġessential": 4504,
      "ĠDavid": 4505,
      "Ġspirit": 4506,
      "Ġlaugh": 4507,
      "Am": 4508,
      "Bye": 4509,
      "ech": 4510,
      "ucation": 4511,
      "yth": 4512,
      "Ġere": 4513,
      "ority": 4514,
      "Ġsle": 4515,
      "Ġband": 4516,
      "Ġfantastic": 4517,
      "Ġforest": 4518,
      "Ġforty": 4519,
      "Ġrice": 4520,
      "Ġalright": 4521,
      "ĠMAR": 4522,
      "ology": 4523,
      "Ġcompon": 4524,
      "Ġmob": 4525,
      "105": 4526,
      "Ġloved": 4527,
      "cles": 4528,
      "Ġkeeps": 4529,
      "Ġkeeping": 4530,
      "Ġguide": 4531,
      "Ġarray": 4532,
      "Ġfilled": 4533,
      "Ġmembers": 4534,
      "Ġfifty": 4535,
      "itizens": 4536,
      "Ġstructure": 4537,
      "Ġappropriate": 4538,
      "LAR": 4539,
      "Ste": 4540,
      "sca": 4541,
      "wich": 4542,
      "Ġtail": 4543,
      "using": 4544,
      "Ġhob": 4545,
      "Ġtow": 4546,
      "Ġlies": 4547,
      "Ġassoci": 4548,
      "umn": 4549,
      "Ġviol": 4550,
      "pril": 4551,
      "ĠChe": 4552,
      "ĠCanada": 4553,
      "Ġactive": 4554,
      "Ġbelow": 4555,
      "Ġhealthcare": 4556,
      "Ġcontain": 4557,
      "Ġarrang": 4558,
      "Ġstores": 4559,
      "Ġbalance": 4560,
      "Ġbrave": 4561,
      "izza": 4562,
      "Ġstomach": 4563,
      "After": 4564,
      "GAR": 4565,
      "NE": 4566,
      "ww": 4567,
      "usion": 4568,
      "Ġcrea": 4569,
      "Ġdow": 4570,
      "Ġcapt": 4571,
      "comes": 4572,
      "Ġgoal": 4573,
      "Ġjud": 4574,
      "agement": 4575,
      "Ġclaim": 4576,
      "ĠGreat": 4577,
      "Ġimm": 4578,
      "bling": 4579,
      "Ġadvent": 4580,
      "ĠYuan": 4581,
      "Ġplanet": 4582,
      "ĠKate": 4583,
      "Ġinvite": 4584,
      "Ġsmaller": 4585,
      "Ġarrange": 4586,
      "Ġgracious": 4587,
      "Ġfactory": 4588,
      "Ġincluded": 4589,
      "Ġdogs": 4590,
      "Ġlimit": 4591,
      "ĠArt": 4592,
      "Ġsnack": 4593,
      "ĠSteven": 4594,
      "Ġbottom": 4595,
      "ĠGeorge": 4596,
      "ĠMARGAR": 4597,
      "ĠMARGARET": 4598,
      "ATH": 4599,
      "ners": 4600,
      "Ġ\"$": 4601,
      "Ġtough": 4602,
      "arr": 4603,
      "Ġsam": 4604,
      "Ġbrief": 4605,
      "Ġpal": 4606,
      "Ġdar": 4607,
      "Ġgrief": 4608,
      "Ġnational": 4609,
      "ooper": 4610,
      "ulate": 4611,
      "ĠWas": 4612,
      "abor": 4613,
      "Ġsport": 4614,
      "ĠOf": 4615,
      "Ġnights": 4616,
      "Ġhighly": 4617,
      "Ġmonthly": 4618,
      "Ġspecies": 4619,
      "Ġforms": 4620,
      "ORD": 4621,
      "Ġcontrib": 4622,
      "Ġtennis": 4623,
      "Ġprogress": 4624,
      "Ġapolog": 4625,
      "Ġlights": 4626,
      "ields": 4627,
      "Ġlanguages": 4628,
      "Ġleader": 4629,
      "Ġdirection": 4630,
      "Provide": 4631,
      "Ġboxes": 4632,
      "Ġnoticed": 4633,
      "Ġhorse": 4634,
      "Ġadvertising": 4635,
      "Ġpatterns": 4636,
      "Ġsafety": 4637,
      "Ġmobile": 4638,
      "Her": 4639,
      "pre": 4640,
      "pet": 4641,
      "uted": 4642,
      "spoon": 4643,
      "stant": 4644,
      "enger": 4645,
      "Ġ22": 4646,
      "Ġweep": 4647,
      "Ġkiss": 4648,
      "ĠMike": 4649,
      "rap": 4650,
      "Ġbrown": 4651,
      "ĠFl": 4652,
      "Ġunf": 4653,
      "Ġcarbon": 4654,
      "Ġemerg": 4655,
      "Ġcommit": 4656,
      "Ġswear": 4657,
      "Ġterr": 4658,
      "Ġbasic": 4659,
      "Ġexpecting": 4660,
      "Ġissues": 4661,
      "Ġinstall": 4662,
      "Ġoptions": 4663,
      "Ġbehavior": 4664,
      "fortunately": 4665,
      "HOR": 4666,
      "Pe": 4667,
      "aph": 4668,
      "bly": 4669,
      "orm": 4670,
      "erving": 4671,
      "aries": 4672,
      "Ġbanish": 4673,
      "Ġdrea": 4674,
      "Ġloud": 4675,
      "Ġincome": 4676,
      "Ġhabit": 4677,
      "Ġstat": 4678,
      "ĠMany": 4679,
      "Ġtender": 4680,
      "Ġspicy": 4681,
      "103": 4682,
      "cius": 4683,
      "Ġeveryday": 4684,
      "Ġdepart": 4685,
      "Ġguests": 4686,
      "Ġdollar": 4687,
      "ANGE": 4688,
      "Ġlarger": 4689,
      "Ġcrit": 4690,
      "Ġbirds": 4691,
      "Ġseats": 4692,
      "Ġprescription": 4693,
      "ĠPeter": 4694,
      "Ġcomplain": 4695,
      "Ġbathroom": 4696,
      "Ġhoping": 4697,
      "GRE": 4698,
      "Ġsquare": 4699,
      "Ġmillion": 4700,
      "ANGELO": 4701,
      "05": 4702,
      "Br": 4703,
      "CU": 4704,
      "Mom": 4705,
      "Say": 4706,
      "uals": 4707,
      "Ġtrend": 4708,
      "arence": 4709,
      "idence": 4710,
      "Ġmat": 4711,
      "Ġtowards": 4712,
      "Ġflex": 4713,
      "Ġsuits": 4714,
      "ĠHa": 4715,
      "ading": 4716,
      "umber": 4717,
      "Ġcoat": 4718,
      "Ġpepper": 4719,
      "Ġdescri": 4720,
      "ARINA": 4721,
      "Ġbigger": 4722,
      "Ġschools": 4723,
      "Ġbaggage": 4724,
      "Ġenvironmental": 4725,
      "ĠGoodbye": 4726,
      "Ġsmooth": 4727,
      "Ġcolleagues": 4728,
      "alysis": 4729,
      "Ġguaran": 4730,
      "'.": 4731,
      ".\"": 4732,
      "KATH": 4733,
      "LLO": 4734,
      "Never": 4735,
      "Perhaps": 4736,
      "oted": 4737,
      "Ġ)": 4738,
      "ĠVe": 4739,
      "cast": 4740,
      "ores": 4741,
      "eaking": 4742,
      "Ġmas": 4743,
      "Ġmurder": 4744,
      "Ġhither": 4745,
      "ils": 4746,
      "Ġpath": 4747,
      "Ġpale": 4748,
      "Ġcig": 4749,
      "Ġev": 4750,
      "ifts": 4751,
      "Ġprison": 4752,
      "ĠSusan": 4753,
      "Ġjo": 4754,
      "ffice": 4755,
      "Ġourselves": 4756,
      "ĠPerhaps": 4757,
      "Ġbrings": 4758,
      "ĠGl": 4759,
      "ĠGive": 4760,
      "Ġlaptop": 4761,
      "Ġdesire": 4762,
      "Ġskill": 4763,
      "Ġregard": 4764,
      "Ġdiscover": 4765,
      "Ġheada": 4766,
      "Ġchanging": 4767,
      "ĠMadam": 4768,
      "Ġsatisfied": 4769,
      "Ġagreement": 4770,
      "Ġurgent": 4771,
      "KATHARINA": 4772,
      "God": 4773,
      "Ind": 4774,
      "OS": 4775,
      "iant": 4776,
      "zz": 4777,
      "Ġet": 4778,
      "Ġ\"(": 4779,
      "onder": 4780,
      "Ġhar": 4781,
      "iles": 4782,
      "Ġculture": 4783,
      "Ġfile": 4784,
      "enny": 4785,
      "ednes": 4786,
      "Ġforce": 4787,
      "Ġcast": 4788,
      "ĠMost": 4789,
      "Ġexhib": 4790,
      "olar": 4791,
      "Ġvict": 4792,
      "Ġloyal": 4793,
      "Ġfever": 4794,
      "Ġcloud": 4795,
      "Ġappet": 4796,
      "Ġdisapp": 4797,
      "Ġplayed": 4798,
      "Ġemissions": 4799,
      "Ġbiggest": 4800,
      "Ġthoughts": 4801,
      "Ġbasket": 4802,
      "Ġsitting": 4803,
      "Ġassign": 4804,
      "Ġnearby": 4805,
      "Ġfilms": 4806,
      "Ġfreque": 4807,
      "Ġequal": 4808,
      "Ġlistening": 4809,
      "Construct": 4810,
      "Ġphotos": 4811,
      "Ġmeasure": 4812,
      "istration": 4813,
      "Ġneighbor": 4814,
      "Ġfeedback": 4815,
      "Next": 4816,
      "Once": 4817,
      "tt": 4818,
      "Ġ``": 4819,
      "Ġmuseum": 4820,
      "Ġcities": 4821,
      "Ġcab": 4822,
      "Ġshipment": 4823,
      "ights": 4824,
      "ops": 4825,
      "ĠMich": 4826,
      "Ġtend": 4827,
      "Ġconference": 4828,
      "Ġoutput": 4829,
      "ĠTell": 4830,
      "Ġbackground": 4831,
      "Ġcheer": 4832,
      "Ġsword": 4833,
      "rency": 4834,
      "Ġmyster": 4835,
      "Ġindepend": 4836,
      "ĠEducation": 4837,
      "Ġinvolved": 4838,
      "Ġgarlic": 4839,
      "Ġadvantage": 4840,
      "Ì¦Ì¦Ì¦Ì¦Ì¦Ì¦Ì¦Ì¦Ì¦Ì¦Ì¦Ì¦Ì¦Ì¦Ì¦Ì¦": 4841,
      "Ġinnov": 4842,
      "ednesday": 4843,
      "LUS": 4844,
      "Out": 4845,
      "def": 4846,
      "Ġ%": 4847,
      "Ġtur": 4848,
      "Ġwhatever": 4849,
      "Ġpun": 4850,
      "Ġinspect": 4851,
      "oop": 4852,
      "Ġrom": 4853,
      "antic": 4854,
      "ĠSouth": 4855,
      "ĠCor": 4856,
      "ĠMan": 4857,
      "ĠMom": 4858,
      "Ġexcuse": 4859,
      "ĠEl": 4860,
      "angle": 4861,
      "istics": 4862,
      "Ġclients": 4863,
      "ĠNice": 4864,
      "ĠHey": 4865,
      "Ġsens": 4866,
      "ESCA": 4867,
      "Ġsignifi": 4868,
      "Ġsurprise": 4869,
      "Ġmissed": 4870,
      "Ġprogramming": 4871,
      "Ġefficiency": 4872,
      "ĠBrit": 4873,
      "Ġstrategy": 4874,
      "Ġdivor": 4875,
      "Ġsavings": 4876,
      "Ġsource": 4877,
      "ESCALUS": 4878,
      "Since": 4879,
      "eg": 4880,
      "min": 4881,
      "rough": 4882,
      "Ġmass": 4883,
      "Ġmember": 4884,
      "itation": 4885,
      "Ġhire": 4886,
      "Ġbike": 4887,
      "Ġocean": 4888,
      "Ġnurse": 4889,
      "lest": 4890,
      "Ġ23": 4891,
      "ours": 4892,
      "ĠApril": 4893,
      "Ġund": 4894,
      "ĠSar": 4895,
      "Ġwashing": 4896,
      "ĠWednesday": 4897,
      "Ġlocation": 4898,
      "icks": 4899,
      "Ġflat": 4900,
      "Ġcourage": 4901,
      "Ġfax": 4902,
      "Ġemp": 4903,
      "Ġsetting": 4904,
      "Ġvisa": 4905,
      "ibilities": 4906,
      "Ġpromised": 4907,
      "Ġsolutions": 4908,
      "goti": 4909,
      "Ġtotally": 4910,
      "ĠEveryone": 4911,
      "Ġaudience": 4912,
      "Ġrequires": 4913,
      "Ġnegative": 4914,
      "Ġrequest": 4915,
      "Hath": 4916,
      "Hold": 4917,
      "TM": 4918,
      "iter": 4919,
      "uc": 4920,
      "under": 4921,
      "Ġeth": 4922,
      "teria": 4923,
      "Ġcult": 4924,
      "Ġbeg": 4925,
      "Ġcafe": 4926,
      "Ġrea": 4927,
      "Ġmeant": 4928,
      "Ġnegoti": 4929,
      "nown": 4930,
      "oph": 4931,
      "ĠHer": 4932,
      "ĠDad": 4933,
      "ĠDuke": 4934,
      "Ġcock": 4935,
      "Ġrole": 4936,
      "Ġinteract": 4937,
      "Ġaccom": 4938,
      "Ġeverybody": 4939,
      "Ġblow": 4940,
      "nected": 4941,
      "Ġlaund": 4942,
      "Ġhomework": 4943,
      "Exactly": 4944,
      "Ġtraveling": 4945,
      "Ġdirectly": 4946,
      "Ġtelevision": 4947,
      "Ġprinc": 4948,
      "Ġsandwich": 4949,
      "Ġmotor": 4950,
      "Ġriver": 4951,
      "Ġsemester": 4952,
      "Ġcomponents": 4953,
      "Ġassociated": 4954,
      "08": 4955,
      "Com": 4956,
      "DUCH": 4957,
      "ccas": 4958,
      "mon": 4959,
      "uous": 4960,
      "uits": 4961,
      "case": 4962,
      "emic": 4963,
      "Ġtal": 4964,
      "Ġtie": 4965,
      "omas": 4966,
      "ued": 4967,
      "Ġsin": 4968,
      "ases": 4969,
      "Ġreasons": 4970,
      "Ġdost": 4971,
      "irts": 4972,
      "ĠRes": 4973,
      "ĠCity": 4974,
      "inks": 4975,
      "Ġusual": 4976,
      "olk": 4977,
      "Ġrights": 4978,
      "Ġtheme": 4979,
      "Ġaddition": 4980,
      "Ġperhaps": 4981,
      "Ġhighest": 4982,
      "Ġshower": 4983,
      "ĠKeep": 4984,
      "Ġcarefully": 4985,
      "Ġdatab": 4986,
      "Ġincredi": 4987,
      "moking": 4988,
      "Ġestabl": 4989,
      "Ġhuge": 4990,
      "ography": 4991,
      "Ġsurprised": 4992,
      "Ġdownt": 4993,
      "Ġapologize": 4994,
      "DUCHESS": 4995,
      "Cal": 4996,
      "Lord": 4997,
      "Pl": 4998,
      "pen": 4999,
      "ta": 5000,
      "tch": 5001,
      "zing": 5002,
      "Ġsustain": 5003,
      "iled": 5004,
      "Ġanalysis": 5005,
      "Ġgall": 5006,
      "Ġstam": 5007,
      "thank": 5008,
      "Ġchurch": 5009,
      "ĠDan": 5010,
      "eased": 5011,
      "ĠOnce": 5012,
      "Ġclient": 5013,
      "bles": 5014,
      "cling": 5015,
      "Ġsmoke": 5016,
      "Ġstarts": 5017,
      "Ġadvance": 5018,
      "Ġscore": 5019,
      "ĠShall": 5020,
      "Ġwearing": 5021,
      "Ġmultiple": 5022,
      "Ġfully": 5023,
      "09": 5024,
      "IA": 5025,
      "Pr": 5026,
      "Pre": 5027,
      "orter": 5028,
      "ato": 5029,
      "Ġwilt": 5030,
      "Ġpow": 5031,
      "Ġoccas": 5032,
      "Ġdro": 5033,
      "imin": 5034,
      "Ġplain": 5035,
      "ĠCol": 5036,
      "Ġspell": 5037,
      "Ġhasn": 5038,
      "Ġbless": 5039,
      "Ġreserve": 5040,
      "Ġcommission": 5041,
      "bsolutely": 5042,
      "Ġexperiences": 5043,
      "Ġsoldi": 5044,
      "Ġpresentation": 5045,
      "Ġdesigned": 5046,
      "Ġcleaning": 5047,
      "Ġdifferences": 5048,
      "ĠEverything": 5049,
      "ĠMarcius": 5050,
      "Ġsecretary": 5051,
      "Ġgraduate": 5052,
      "Ġbowl": 5053,
      "ĠAustralia": 5054,
      "Ġlaundry": 5055,
      "ipping": 5056,
      "oved": 5057,
      "yle": 5058,
      "Ġ!": 5059,
      "isa": 5060,
      "yself": 5061,
      "Ġpool": 5062,
      "Ġpizza": 5063,
      "Ġcertificate": 5064,
      "Ġcooper": 5065,
      "Ġdare": 5066,
      "Ġfoul": 5067,
      "Ġrough": 5068,
      "ĠHong": 5069,
      "ĠBen": 5070,
      "Ġdetect": 5071,
      "Ġconse": 5072,
      "Ġjustice": 5073,
      "valu": 5074,
      "agraph": 5075,
      "Ġflower": 5076,
      "Ġdecor": 5077,
      "ivil": 5078,
      "while": 5079,
      "Ġpassion": 5080,
      "Ġvisiting": 5081,
      "ĠâĢĶ": 5082,
      "Ġexpenses": 5083,
      "Ġvalues": 5084,
      "Ġsimply": 5085,
      "Ġbenefit": 5086,
      "ĠClarence": 5087,
      "Ġprovided": 5088,
      "CAMI": 5089,
      "Ġactivity": 5090,
      "Ġsatisfaction": 5091,
      "Ġgraduated": 5092,
      "Ġselection": 5093,
      "Ġsuggestions": 5094,
      "Ġrule": 5095,
      "Ġorders": 5096,
      "Ġconversation": 5097,
      "ĠAccount": 5098,
      "ython": 5099,
      "CAMILLO": 5100,
      "01": 5101,
      "Honey": 5102,
      "Mary": 5103,
      "Um": 5104,
      "bur": 5105,
      "bits": 5106,
      "ky": 5107,
      "load": 5108,
      "erry": 5109,
      "erous": 5110,
      "employment": 5111,
      "died": 5112,
      "atically": 5113,
      "Ġyog": 5114,
      "Ġbell": 5115,
      "Ġpic": 5116,
      "Ġmeters": 5117,
      "Ġsovere": 5118,
      "Ġsepar": 5119,
      "Ġchann": 5120,
      "ĠMex": 5121,
      "101": 5122,
      "asty": 5123,
      "bled": 5124,
      "Ġflav": 5125,
      "Ġstrict": 5126,
      "Ġdrug": 5127,
      "Ġsweater": 5128,
      "upid": 5129,
      "ounter": 5130,
      "Ġinvited": 5131,
      "Ġgrave": 5132,
      "Ġcovered": 5133,
      "adays": 5134,
      "Ġmotiv": 5135,
      "Ġstrategies": 5136,
      "ĠJapanese": 5137,
      "ossible": 5138,
      "Ġtools": 5139,
      "rupt": 5140,
      "Dad": 5141,
      "ID": 5142,
      "TEN": 5143,
      "Upon": 5144,
      "ker": 5145,
      "oca": 5146,
      "sy": 5147,
      "arian": 5148,
      "Ġyellow": 5149,
      "Ġpers": 5150,
      "Ġowe": 5151,
      "Ġobs": 5152,
      "Ġled": 5153,
      "elve": 5154,
      "Ġbegan": 5155,
      "ĠLast": 5156,
      "ĠSorry": 5157,
      "ĠCam": 5158,
      "Ġcompli": 5159,
      "Ġvote": 5160,
      "Ġhelped": 5161,
      "ĠTra": 5162,
      "epher": 5163,
      "Ġimage": 5164,
      "ĠJan": 5165,
      "Ġapples": 5166,
      "Ġsupply": 5167,
      "Ġexplore": 5168,
      "Ġmajest": 5169,
      "Ġselling": 5170,
      "Ġmemory": 5171,
      "Ġmistakes": 5172,
      "Ġregularly": 5173,
      "Ġimpressed": 5174,
      "ĠAngelo": 5175,
      "Ġmagazine": 5176,
      "Ġdisplay": 5177,
      "Ġtarget": 5178,
      "HORTEN": 5179,
      "Ġcigaret": 5180,
      "HORTENS": 5181,
      ",'": 5182,
      "07": 5183,
      "En": 5184,
      "FRI": 5185,
      "ien": 5186,
      "round": 5187,
      "Ġthro": 5188,
      "usiness": 5189,
      "Ġdad": 5190,
      "Ġrap": 5191,
      "iring": 5192,
      "Ġcandi": 5193,
      "Ġshr": 5194,
      "Ġstates": 5195,
      "Ġkno": 5196,
      "ĠAf": 5197,
      "ĠMont": 5198,
      "Ġjam": 5199,
      "ĠInte": 5200,
      "Ġupset": 5201,
      "Ġprevious": 5202,
      "Ġexpert": 5203,
      "Ġapple": 5204,
      "Ġparties": 5205,
      "Ġminimum": 5206,
      "Ġopening": 5207,
      "Ġstanding": 5208,
      "Ġsurv": 5209,
      "Ġfiles": 5210,
      "Ġtechnolog": 5211,
      "Ġspending": 5212,
      "Ġbloody": 5213,
      "Ġvari": 5214,
      "Ġtests": 5215,
      "Ġequipment": 5216,
      "Provost": 5217,
      "idden": 5218,
      "Ġfixed": 5219,
      "Ġdelivered": 5220,
      "Ġdegrees": 5221,
      "Ġslowly": 5222,
      "HORTENSIO": 5223,
      "FRIAR": 5224,
      "02": 5225,
      "Absolutely": 5226,
      "XX": 5227,
      "YC": 5228,
      "adi": 5229,
      "gon": 5230,
      "ua": 5231,
      "year": 5232,
      "text": 5233,
      "cepted": 5234,
      "isten": 5235,
      "resh": 5236,
      "stit": 5237,
      "Ġpm": 5238,
      "Ġlines": 5239,
      "Though": 5240,
      "Third": 5241,
      "Ġcas": 5242,
      "Ġreplace": 5243,
      "Ġkn": 5244,
      "ĠTy": 5245,
      "ĠOther": 5246,
      "Ġclock": 5247,
      "Ġclosed": 5248,
      "Ġeverywhere": 5249,
      "Ġmostly": 5250,
      "Ġfollows": 5251,
      "Ġpap": 5252,
      "Ġguest": 5253,
      "Ġpassage": 5254,
      "Ġsteak": 5255,
      "Ġwatched": 5256,
      "Ġdelay": 5257,
      "Ġradio": 5258,
      "ĠAlso": 5259,
      "ISTA": 5260,
      "Ġcommunity": 5261,
      "Ġintegr": 5262,
      "BAPT": 5263,
      "Ġachieve": 5264,
      "ĠJuliet": 5265,
      "Ġimagine": 5266,
      "Ġdreams": 5267,
      "Ġguarantee": 5268,
      "Ġsignificant": 5269,
      "BAPTISTA": 5270,
      ".'": 5271,
      "03": 5272,
      "COM": 5273,
      "TOL": 5274,
      "morrow": 5275,
      "Ġspeaker": 5276,
      "Ġtight": 5277,
      "ouds": 5278,
      "Ġaware": 5279,
      "rest": 5280,
      "Ġcitizens": 5281,
      "Ġgather": 5282,
      "quet": 5283,
      "ense": 5284,
      "eless": 5285,
      "edge": 5286,
      "have": 5287,
      "Ġdozen": 5288,
      "ĠWelcome": 5289,
      "ĠEven": 5290,
      "Ġoverall": 5291,
      "Ġstring": 5292,
      "Ġbold": 5293,
      "Ġharder": 5294,
      "Ġstayed": 5295,
      "vidence": 5296,
      "Ġparagraph": 5297,
      "Ġbird": 5298,
      "Ġpleased": 5299,
      "Ġnearly": 5300,
      "Ġconsidered": 5301,
      "Ġpresence": 5302,
      "Ġdistance": 5303,
      "AUTOL": 5304,
      "Ġscared": 5305,
      "____": 5306,
      "Ġlegal": 5307,
      "Ġconnection": 5308,
      "Ġaccurate": 5309,
      "Ġdetermine": 5310,
      "Ġcelebrate": 5311,
      "Ġsociety": 5312,
      "Ġprimary": 5313,
      "echnol": 5314,
      "Ġindependent": 5315,
      "YCUS": 5316,
      "COMINIUS": 5317,
      "AUTOLYCUS": 5318,
      "04": 5319,
      "even": 5320,
      "give": 5321,
      "pes": 5322,
      "rance": 5323,
      "yeah": 5324,
      "Ġbound": 5325,
      "Ġcin": 5326,
      "etch": 5327,
      "Ġinit": 5328,
      "Ġaltern": 5329,
      "ĠThose": 5330,
      "Ġgods": 5331,
      "Ġasleep": 5332,
      "Ġworst": 5333,
      "Ġorange": 5334,
      "Ġfees": 5335,
      "Ġages": 5336,
      "Ġadjust": 5337,
      "Ġovers": 5338,
      "Ġunemployment": 5339,
      "Ġrepair": 5340,
      "Ġopened": 5341,
      "Ġpossess": 5342,
      "Ġcooked": 5343,
      "Ġyounger": 5344,
      "Ġprofit": 5345,
      "Ġrequired": 5346,
      "Ġpresident": 5347,
      "Ġdistrib": 5348,
      "Ġrisks": 5349,
      "Ġchamp": 5350,
      "Ġcapital": 5351,
      "Ġrelationships": 5352,
      "ufact": 5353,
      "Ġinstructions": 5354,
      "LARENCE": 5355,
      "Ġheadache": 5356,
      "Ġpicnic": 5357,
      "CLARENCE": 5358,
      "MAR": 5359,
      "gy": 5360,
      "idi": 5361,
      "known": 5362,
      "rup": 5363,
      "unt": 5364,
      "Ġign": 5365,
      "Ġlend": 5366,
      "Ġship": 5367,
      "Ġgod": 5368,
      "Ġsuffer": 5369,
      "ĠCreate": 5370,
      "ĠInc": 5371,
      "ĠWind": 5372,
      "ĠItalian": 5373,
      "Ġfruits": 5374,
      "unes": 5375,
      "eases": 5376,
      "Ġclouds": 5377,
      "Ġaccepted": 5378,
      "ENES": 5379,
      "ĠYear": 5380,
      "Ġsalt": 5381,
      "Ġhardly": 5382,
      "Ġrelig": 5383,
      "Ġolder": 5384,
      "Ġaccounting": 5385,
      "Ġexperienced": 5386,
      "Ġcurrency": 5387,
      "Ġinviting": 5388,
      "Ġpromote": 5389,
      "Ġpurs": 5390,
      "Ġdeveloping": 5391,
      "Ġemployee": 5392,
      "Ġseries": 5393,
      "ointed": 5394,
      "Ġteaspoon": 5395,
      "Ġentire": 5396,
      "Ġrecords": 5397,
      "Only": 5398,
      "Ġgreatest": 5399,
      "Ġindividuals": 5400,
      "Ġanti": 5401,
      "Ġpolitical": 5402,
      "Ġrequirements": 5403,
      "Ġbasketball": 5404,
      "epherd": 5405,
      "06": 5406,
      "AI": 5407,
      "BEN": 5408,
      "MER": 5409,
      "NOR": 5410,
      "lor": 5411,
      "Ġtag": 5412,
      "Ġtips": 5413,
      "atures": 5414,
      "Ġmal": 5415,
      "Ġhat": 5416,
      "Ġfried": 5417,
      "enge": 5418,
      "Ġint": 5419,
      "Ġrele": 5420,
      "ico": 5421,
      "Ġshalt": 5422,
      "Ġ500": 5423,
      "Ġextens": 5424,
      "Ġmanufact": 5425,
      "Ġnotes": 5426,
      "Ġads": 5427,
      "Ġfeels": 5428,
      "Ġordered": 5429,
      "Ġended": 5430,
      "Ġbreaks": 5431,
      "Ġmetaph": 5432,
      "Ġpolic": 5433,
      "Ġconfident": 5434,
      "Ġrefund": 5435,
      "Ġgenerally": 5436,
      "Ġchoices": 5437,
      "alyze": 5438,
      "Clown": 5439,
      "Ġflying": 5440,
      "Ġimpression": 5441,
      "ĠNorth": 5442,
      "VOLIO": 5443,
      "Ġchallenges": 5444,
      "Ġelectricity": 5445,
      "Ġbattle": 5446,
      "Ġsuperv": 5447,
      "Ġattractive": 5448,
      "Ġcreated": 5449,
      "Ġconseque": 5450,
      "BENVOLIO": 5451,
      "Sometimes": 5452,
      "bol": 5453,
      "Ġess": 5454,
      "came": 5455,
      "Ġwet": 5456,
      "Ġmel": 5457,
      "Ġgate": 5458,
      "Ġcable": 5459,
      "Ġcases": 5460,
      "Ġrevolution": 5461,
      "Ġrou": 5462,
      "ĠThomas": 5463,
      "ĠRemember": 5464,
      "riving": 5465,
      "ĠCur": 5466,
      "Ġattitude": 5467,
      "Ġheight": 5468,
      "Ġtwelve": 5469,
      "Ġroses": 5470,
      "Ġadditional": 5471,
      "Ġbuses": 5472,
      "Ġholy": 5473,
      "Ġshowing": 5474,
      "Ġski": 5475,
      "Ġswitch": 5476,
      "Ġaccounts": 5477,
      "Ġsurface": 5478,
      "ĠâĢĺ": 5479,
      "Ġprocesses": 5480,
      "Ġserved": 5481,
      "Ġoppos": 5482,
      "ĠAlice": 5483,
      "Ġhurts": 5484,
      "Ġcommunicate": 5485,
      "UMIO": 5486,
      "Ġwalls": 5487,
      "resident": 5488,
      "ĠZh": 5489,
      "GRUMIO": 5490,
      "urderer": 5491,
      "Ġsupermark": 5492,
      "Ġquarter": 5493,
      "PROS": 5494,
      "ancis": 5495,
      "Ġreliable": 5496,
      "PERO": 5497,
      "Ġetc": 5498,
      "Ġdowntown": 5499,
      "Ġthroat": 5500,
      "PROSPERO": 5501,
      "Uh": 5502,
      "coh": 5503,
      "eed": 5504,
      "fess": 5505,
      "Ġvers": 5506,
      "inct": 5507,
      "orth": 5508,
      "aren": 5509,
      "ctob": 5510,
      "isy": 5511,
      "Ġpin": 5512,
      "dable": 5513,
      "see": 5514,
      "chan": 5515,
      "Ġcats": 5516,
      "Ġrecy": 5517,
      "ĠService": 5518,
      "ĠCo": 5519,
      "ĠMurderer": 5520,
      "Ġ90": 5521,
      "Ġcomputing": 5522,
      "tenance": 5523,
      "ĠGu": 5524,
      "Ġunit": 5525,
      "Ġladies": 5526,
      "Ġfriendship": 5527,
      "Ġtravell": 5528,
      "Ġhost": 5529,
      "Ġdepress": 5530,
      "Ġcorpor": 5531,
      "Ġfavour": 5532,
      "Ġvalu": 5533,
      "Design": 5534,
      "Ġgrowing": 5535,
      "Ġequation": 5536,
      "Ġcampus": 5537,
      "Ġrobot": 5538,
      "Ġmagazines": 5539,
      "Ġinfluence": 5540,
      "Ġsuddenly": 5541,
      "Ġtechniques": 5542,
      "CUTIO": 5543,
      "ĠAfri": 5544,
      "MERCUTIO": 5545,
      "cohol": 5546,
      "ctober": 5547,
      "Edit": 5548,
      "Get": 5549,
      "ael": 5550,
      "iver": 5551,
      "lies": 5552,
      "name": 5553,
      "erem": 5554,
      "utation": 5555,
      "ids": 5556,
      "eable": 5557,
      "Ġwise": 5558,
      "Ġhers": 5559,
      "style": 5560,
      "Ġbills": 5561,
      "Ġresponse": 5562,
      "Ġevidence": 5563,
      "Ġrout": 5564,
      "Ġdied": 5565,
      "Ġsouth": 5566,
      "Ġsubs": 5567,
      "Ġexist": 5568,
      "ĠWait": 5569,
      "race": 5570,
      "ĠFurther": 5571,
      "ĠOver": 5572,
      "ĠJoe": 5573,
      "Ġelev": 5574,
      "Ġstrike": 5575,
      "Ġbelong": 5576,
      "Ġends": 5577,
      "Ġdisco": 5578,
      "ĠAdd": 5579,
      "Ġteams": 5580,
      "Ġgrown": 5581,
      "Ġradi": 5582,
      "ĠAnn": 5583,
      "Ġboyfriend": 5584,
      "Ġsilly": 5585,
      "Ġengineering": 5586,
      "Ġchallenge": 5587,
      "LUCENTIO": 5588,
      "Ġauthor": 5589,
      "Ġlogo": 5590,
      "gainst": 5591,
      "Ġmathem": 5592,
      "ĠRobert": 5593,
      "Ġstopped": 5594,
      "Ġsovereign": 5595,
      "Both": 5596,
      "FL": 5597,
      "HA": 5598,
      "LE": 5599,
      "POM": 5600,
      "bro": 5601,
      "nia": 5602,
      "oan": 5603,
      "Ġdom": 5604,
      "iding": 5605,
      "Ġthin": 5606,
      "Ġmir": 5607,
      "Ġhall": 5608,
      "Ġtoast": 5609,
      "Ġtooth": 5610,
      "Ġoath": 5611,
      "Ġge": 5612,
      "Ġinstr": 5613,
      "Ġintend": 5614,
      "Ġnamed": 5615,
      "key": 5616,
      "cker": 5617,
      "ĠHel": 5618,
      "Ġdest": 5619,
      "Ġconnected": 5620,
      "igr": 5621,
      "Ġvirus": 5622,
      "ĠPython": 5623,
      "acket": 5624,
      "Ġmanner": 5625,
      "ague": 5626,
      "Ġuns": 5627,
      "Ġsurely": 5628,
      "Ġplayers": 5629,
      "ĠFrom": 5630,
      "Ġfreedom": 5631,
      "Ġrealize": 5632,
      "ĠBecause": 5633,
      "Ġcompleted": 5634,
      "Ġscreen": 5635,
      "Ġpopulation": 5636,
      "Ġbegins": 5637,
      "Ġstudied": 5638,
      "Ġelectron": 5639,
      "Ġlaws": 5640,
      "ĠMonica": 5641,
      "Ġparticip": 5642,
      "Ġinvestment": 5643,
      "Convert": 5644,
      "Ġlegs": 5645,
      "LAND": 5646,
      "Compare": 5647,
      "Ġrecognition": 5648,
      "Ġargument": 5649,
      "Ġcrowded": 5650,
      "Ġemergency": 5651,
      "Ġfrequent": 5652,
      "echnology": 5653,
      "Ġrelevant": 5654,
      "POMP": 5655,
      "Culture": 5656,
      "Happy": 5657,
      "LINA": 5658,
      "Ma": 5659,
      "PO": 5660,
      "PAU": 5661,
      "law": 5662,
      "med": 5663,
      "nces": 5664,
      "zh": 5665,
      "Ġintent": 5666,
      "erves": 5667,
      "ald": 5668,
      "ĠIm": 5669,
      "Ġinj": 5670,
      "Ġinqu": 5671,
      "Ġnames": 5672,
      "Ġbecame": 5673,
      "Ġrace": 5674,
      "entlem": 5675,
      "ĠAut": 5676,
      "riger": 5677,
      "ĠCA": 5678,
      "Ġseek": 5679,
      "ager": 5680,
      "Ġexper": 5681,
      "osal": 5682,
      "Ġcommer": 5683,
      "ĠFrancis": 5684,
      "ugg": 5685,
      "Ġsurvey": 5686,
      "Ġsolar": 5687,
      "Ġkingdom": 5688,
      "Ġorganiz": 5689,
      "exp": 5690,
      "Ġprojects": 5691,
      "Ġscar": 5692,
      "Ġdevices": 5693,
      "Ġpatience": 5694,
      "ĠDevelop": 5695,
      "True": 5696,
      "Ġpotatoes": 5697,
      "Ġofficer": 5698,
      "Ġbonus": 5699,
      "Ġeffort": 5700,
      "Ġbeseech": 5701,
      "Ġempty": 5702,
      "Ġcomplicated": 5703,
      "Ġknock": 5704,
      "PAULINA": 5705,
      "Congratulations": 5706,
      "Mmm": 5707,
      "YORK": 5708,
      "balt": 5709,
      "iam": 5710,
      "Ġcategori": 5711,
      "erk": 5712,
      "uts": 5713,
      "eme": 5714,
      "Ġtone": 5715,
      "ana": 5716,
      "Ġble": 5717,
      "Ġbite": 5718,
      "Ġpound": 5719,
      "urt": 5720,
      "Ġstupid": 5721,
      "Ġliqu": 5722,
      "ĠAN": 5723,
      "oles": 5724,
      "ums": 5725,
      "Ġmole": 5726,
      "Ġload": 5727,
      "ĠPerson": 5728,
      "ĠPresident": 5729,
      "Ġnoon": 5730,
      "Ġnobody": 5731,
      "Ġcoast": 5732,
      "ĠOctober": 5733,
      "ĠJune": 5734,
      "Ġunb": 5735,
      "Ġflatter": 5736,
      "Ġelement": 5737,
      "Ġkeys": 5738,
      "achine": 5739,
      "Ġboat": 5740,
      "âĢ¢": 5741,
      "Ġcharges": 5742,
      "Ġsets": 5743,
      "Ġtriangle": 5744,
      "ĠUse": 5745,
      "Ġthroughout": 5746,
      "Ġrecipe": 5747,
      "Ġfactors": 5748,
      "Ġrestaurants": 5749,
      "Ġrefriger": 5750,
      "Ġelection": 5751,
      "ifications": 5752,
      "Ġattack": 5753,
      "Ġerr": 5754,
      "Ġfarewell": 5755,
      "Ġvillain": 5756,
      "Ġextreme": 5757,
      "Ġmaximum": 5758,
      "Ġscene": 5759,
      "Ġchemical": 5760,
      "Ġfuels": 5761,
      "GREMIO": 5762,
      "Ġdatabase": 5763,
      "Ġoccasion": 5764,
      "POMPEY": 5765,
      "150": 5766,
      "NIA": 5767,
      "Per": 5768,
      "XENES": 5769,
      "ially": 5770,
      "look": 5771,
      "lace": 5772,
      "ris": 5773,
      "ties": 5774,
      "ux": 5775,
      "Ġide": 5776,
      "ceive": 5777,
      "Ġhell": 5778,
      "stairs": 5779,
      "ilies": 5780,
      "Ġputting": 5781,
      "edy": 5782,
      "illed": 5783,
      "Ġpron": 5784,
      "Ġdivid": 5785,
      "Ġum": 5786,
      "ĠLee": 5787,
      "ĠRoom": 5788,
      "ĠSam": 5789,
      "ĠSecond": 5790,
      "Ġproced": 5791,
      "Ġ80": 5792,
      "ĠWow": 5793,
      "ander": 5794,
      "Ġmort": 5795,
      "abel": 5796,
      "umin": 5797,
      "Ġmap": 5798,
      "obe": 5799,
      "Ġunits": 5800,
      "Ġflood": 5801,
      "Ġimpossible": 5802,
      "Ġfacial": 5803,
      "Ġtraitor": 5804,
      "achel": 5805,
      "ĠIsn": 5806,
      "Ġseemed": 5807,
      "ANT": 5808,
      "Ġtalked": 5809,
      "LIXENES": 5810,
      "Ġtesting": 5811,
      "Ġrecommen": 5812,
      "aker": 5813,
      "UMNIA": 5814,
      "ĠInternational": 5815,
      "Ġsubjects": 5816,
      "Ġaccurately": 5817,
      "Ġcompetition": 5818,
      "Ġanalyze": 5819,
      "ĠDepartment": 5820,
      "VOLUMNIA": 5821,
      "Ġburning": 5822,
      "Ġvehicle": 5823,
      "Ġsymbol": 5824,
      "Ġbutton": 5825,
      "Ġtrends": 5826,
      "ĠIntelligence": 5827,
      "ĠFurthermore": 5828,
      "POLIXENES": 5829,
      "GON": 5830,
      "ey": 5831,
      "gen": 5832,
      "smoking": 5833,
      "order": 5834,
      "eren": 5835,
      "ema": 5836,
      "ogram": 5837,
      "east": 5838,
      "cend": 5839,
      "Ġthick": 5840,
      "ata": 5841,
      "isle": 5842,
      "Ġfond": 5843,
      "Ġgam": 5844,
      "char": 5845,
      "Whose": 5846,
      "Ġalive": 5847,
      "Ġstuck": 5848,
      "Ġneither": 5849,
      "Ġliber": 5850,
      "ĠSen": 5851,
      "ĠServing": 5852,
      "Ġbye": 5853,
      "Ġbride": 5854,
      "ĠTower": 5855,
      "ĠOffice": 5856,
      "Ġcalm": 5857,
      "Ġotherwise": 5858,
      "bec": 5859,
      "Ġdrunk": 5860,
      "Ġsmile": 5861,
      "Ġdeserve": 5862,
      "Ġemph": 5863,
      "Ġspeaks": 5864,
      "why": 5865,
      "INGS": 5866,
      "Ġmissing": 5867,
      "Ġpacking": 5868,
      "Analyze": 5869,
      "Ġsched": 5870,
      "Ġstorm": 5871,
      "Ġcounsel": 5872,
      "Ġeventually": 5873,
      "Ġchair": 5874,
      "Ġnetworks": 5875,
      "Ġaccuracy": 5876,
      "Ġproperly": 5877,
      "Ġmercy": 5878,
      "Ġattach": 5879,
      "Ġvirtual": 5880,
      "Ġannoun": 5881,
      "STINGS": 5882,
      "Ġliterature": 5883,
      "Ġsettled": 5884,
      "Calculate": 5885,
      "Ġmajesty": 5886,
      "Ġsupermarket": 5887,
      "ĠServingman": 5888,
      "BY": 5889,
      "FF": 5890,
      "Qu": 5891,
      "RENCE": 5892,
      "bot": 5893,
      "bul": 5894,
      "col": 5895,
      "cra": 5896,
      "des": 5897,
      "gers": 5898,
      "hand": 5899,
      "life": 5900,
      "uild": 5901,
      "Â°": 5902,
      "orning": 5903,
      "ales": 5904,
      "cell": 5905,
      "Ġwoe": 5906,
      "itam": 5907,
      "Ġbatter": 5908,
      "Ġcri": 5909,
      "Ġfas": 5910,
      "Ġfed": 5911,
      "Ġgri": 5912,
      "Ġ199": 5913,
      "Ġisland": 5914,
      "ched": 5915,
      "Ġreturns": 5916,
      "imately": 5917,
      "Ġshot": 5918,
      "ĠLAU": 5919,
      "Ġgoodbye": 5920,
      "Ġnowadays": 5921,
      "obably": 5922,
      "ĠOut": 5923,
      "rote": 5924,
      "Ġcalcul": 5925,
      "Ġflu": 5926,
      "Ġfeelings": 5927,
      "Ġlaunch": 5928,
      "Ġtaught": 5929,
      "centio": 5930,
      "Ġdecrea": 5931,
      "Ġtypical": 5932,
      "Ġcontrast": 5933,
      "Ġwindows": 5934,
      "Ġstudies": 5935,
      "Ġmistress": 5936,
      "Ġlimited": 5937,
      "Ġmountains": 5938,
      "Ġhuh": 5939,
      "ribly": 5940,
      "Ġregistered": 5941,
      "ĠIndia": 5942,
      "oxide": 5943,
      "Ġentertainment": 5944,
      "Ġloyalty": 5945,
      "Ġroutine": 5946,
      "Ġmathemat": 5947,
      "HASTINGS": 5948,
      "broke": 5949,
      "Ġemphas": 5950,
      "ĠLAURENCE": 5951,
      "300": 5952,
      "BER": 5953,
      "Che": 5954,
      "Unt": 5955,
      "ifor": 5956,
      "mates": 5957,
      "rit": 5958,
      "vement": 5959,
      "xy": 5960,
      "yond": 5961,
      "inition": 5962,
      "ona": 5963,
      "eral": 5964,
      "oriz": 5965,
      "idays": 5966,
      "Ġscen": 5967,
      "Ġmall": 5968,
      "Ġyouth": 5969,
      "Ġtoil": 5970,
      "Ġpian": 5971,
      "Ġcivil": 5972,
      "Ġll": 5973,
      "Ġgifts": 5974,
      "Ġcauses": 5975,
      "Ġ00": 5976,
      "Ġalcohol": 5977,
      "Ġstage": 5978,
      "Ġdioxide": 5979,
      "ĠSc": 5980,
      "ĠSand": 5981,
      "ĠSep": 5982,
      "ĠMac": 5983,
      "uled": 5984,
      "ĠBol": 5985,
      "ĠEach": 5986,
      "Ġworkers": 5987,
      "ĠPer": 5988,
      "ĠTa": 5989,
      "ishing": 5990,
      "Ġunless": 5991,
      "nesses": 5992,
      "Ġblame": 5993,
      "Ġcarpet": 5994,
      "Today": 5995,
      "Ġremove": 5996,
      "ĠKong": 5997,
      "standing": 5998,
      "Ġsteal": 5999,
      "Ġcrime": 6000,
      "Ġsinging": 6001,
      "Ġnorth": 6002,
      "Ġclearly": 6003,
      "Ġsilver": 6004,
      "Ġapplying": 6005,
      "Ġfeature": 6006,
      "Ġblocks": 6007,
      "Ġcompetitive": 6008,
      "Ġverb": 6009,
      "ĠGerman": 6010,
      "ĠBlack": 6011,
      "ĠTwo": 6012,
      "Ġhouses": 6013,
      "Ġinspection": 6014,
      "Ġsurvive": 6015,
      "Ġpapers": 6016,
      "Ġessay": 6017,
      "CLI": 6018,
      "Many": 6019,
      "cil": 6020,
      "ality": 6021,
      "did": 6022,
      "ogging": 6023,
      "ators": 6024,
      "itions": 6025,
      "Ġfields": 6026,
      "elieve": 6027,
      "Ġhappiness": 6028,
      "Ġrepl": 6029,
      "icing": 6030,
      "Ġstol": 6031,
      "Ġkick": 6032,
      "ĠAnt": 6033,
      "Ġdiag": 6034,
      "ama": 6035,
      "Ġsusp": 6036,
      "ĠSet": 6037,
      "ĠCap": 6038,
      "ĠMount": 6039,
      "ĠWork": 6040,
      "Ġthinks": 6041,
      "Ġframe": 6042,
      "Ġsomebody": 6043,
      "Ġcompar": 6044,
      "Ġloving": 6045,
      "Ġbrain": 6046,
      "Ġfest": 6047,
      "ĠGree": 6048,
      "Ġfoss": 6049,
      "ĠNext": 6050,
      "Ġblank": 6051,
      "ĠChar": 6052,
      "ensive": 6053,
      "ustomer": 6054,
      "Ġregulations": 6055,
      "Ġterribly": 6056,
      "Ġheads": 6057,
      "Ġhearts": 6058,
      "Ġstops": 6059,
      "Ġconfess": 6060,
      "Ġsleeping": 6061,
      "ĠJohnson": 6062,
      "Ġnormal": 6063,
      "Ġbargain": 6064,
      "fficient": 6065,
      "Ġfalling": 6066,
      "Ġwebsites": 6067,
      "Ġstorage": 6068,
      "Ġhistori": 6069,
      "Ġeducational": 6070,
      "Ġresponsibility": 6071,
      "Ġphoto": 6072,
      "UMBER": 6073,
      "Ġimpressive": 6074,
      "Ġawful": 6075,
      "THUMBER": 6076,
      "Ġengaging": 6077,
      "ĠOkay": 6078,
      "ĠCalifor": 6079,
      "Ġsharp": 6080,
      "Ġadventure": 6081,
      "ĠArtificial": 6082,
      "Ġpersu": 6083,
      "NORTHUMBER": 6084,
      "Ġvaluable": 6085,
      "CLIFF": 6086,
      "NORTHUMBERLAND": 6087,
      "'.\",": 6088,
      "HER": 6089,
      "bies": 6090,
      "down": 6091,
      "fall": 6092,
      "ler": 6093,
      "odi": 6094,
      "together": 6095,
      "with": 6096,
      "Ġsplit": 6097,
      "input": 6098,
      "onstr": 6099,
      "Ġwrote": 6100,
      "Ġada": 6101,
      "Ġaspect": 6102,
      "Ġbesides": 6103,
      "Ġdust": 6104,
      "Ġlift": 6105,
      "Ġrefer": 6106,
      "Ġrare": 6107,
      "ental": 6108,
      "Ġproof": 6109,
      "Ġdial": 6110,
      "ĠLe": 6111,
      "Ġchess": 6112,
      "Ġchest": 6113,
      "ĠMaster": 6114,
      "Ġje": 6115,
      "ado": 6116,
      "ender": 6117,
      "Ġcompare": 6118,
      "Ġenab": 6119,
      "iece": 6120,
      "Ġbrows": 6121,
      "Ġcalculate": 6122,
      "Ġgotten": 6123,
      "Ġstraw": 6124,
      "Ġlaid": 6125,
      "Ġmeetings": 6126,
      "Ġarticles": 6127,
      "Ġsupplies": 6128,
      "Ġhearing": 6129,
      "Therefore": 6130,
      "Ġadvanced": 6131,
      "Ġtastes": 6132,
      "Ġcontains": 6133,
      "Ġstretch": 6134,
      "Before": 6135,
      "Ġdeveloped": 6136,
      "Ġclothing": 6137,
      "Ġbenefic": 6138,
      "Ġpersonality": 6139,
      "Ġseriously": 6140,
      "Ġbillion": 6141,
      "Ġsentiment": 6142,
      "going": 6143,
      "Ġagreed": 6144,
      "ĠEnjoy": 6145,
      "Ġannual": 6146,
      "Ġneighborhood": 6147,
      "ĠSarah": 6148,
      "Ġincredible": 6149,
      "sych": 6150,
      "Ġpolicies": 6151,
      "Ġfossil": 6152,
      "Cool": 6153,
      "Def": 6154,
      "Fr": 6155,
      "II": 6156,
      "but": 6157,
      "good": 6158,
      "many": 6159,
      "nical": 6160,
      "ino": 6161,
      "ero": 6162,
      "usted": 6163,
      "ushing": 6164,
      "Ġaid": 6165,
      "tember": 6166,
      "esh": 6167,
      "ilos": 6168,
      "Ġcute": 6169,
      "Ġobe": 6170,
      "Ġdread": 6171,
      "eting": 6172,
      "Ġfan": 6173,
      "Ġfab": 6174,
      "Ġinvent": 6175,
      "ason": 6176,
      "Those": 6177,
      "Ġhabits": 6178,
      "Ġforb": 6179,
      "Ġcausing": 6180,
      "Ġonto": 6181,
      "lla": 6182,
      "Ġweigh": 6183,
      "Ġlip": 6184,
      "Ġexact": 6185,
      "ĠBusiness": 6186,
      "Ġdestr": 6187,
      "olly": 6188,
      "ĠDis": 6189,
      "earch": 6190,
      "ards": 6191,
      "ĠPC": 6192,
      "anges": 6193,
      "ĠTime": 6194,
      "Ġhaste": 6195,
      "Ġagent": 6196,
      "Ġsac": 6197,
      "ĠNational": 6198,
      "osition": 6199,
      "Ġearn": 6200,
      "Ġslip": 6201,
      "Ġoffering": 6202,
      "Ġincreases": 6203,
      "Ġdirector": 6204,
      "Ġdealing": 6205,
      "Ġorganization": 6206,
      "ĠAmericans": 6207,
      "Ġtemperatures": 6208,
      "Ġrising": 6209,
      "Ġfigures": 6210,
      "Ġhorrible": 6211,
      "Ġcollabor": 6212,
      "Ġgroups": 6213,
      "ĠGrand": 6214,
      "Ġspoken": 6215,
      "ĠApple": 6216,
      "Ġtechnologies": 6217,
      "Ġoverseas": 6218,
      "Ġmetaphor": 6219,
      "ĠANNE": 6220,
      "Ġrefrigerator": 6221,
      "ĠCalifornia": 6222,
      "Dear": 6223,
      "Gl": 6224,
      "bre": 6225,
      "cover": 6226,
      "Ġ*": 6227,
      "Ġtent": 6228,
      "ĠĠĊ": 6229,
      "oriol": 6230,
      "aration": 6231,
      "att": 6232,
      "atory": 6233,
      "rey": 6234,
      "illy": 6235,
      "Ġplot": 6236,
      "Ġpork": 6237,
      "Ġcerem": 6238,
      "Ġlease": 6239,
      "urry": 6240,
      "eding": 6241,
      "ppy": 6242,
      "Ġrecon": 6243,
      "ĠLear": 6244,
      "ĠRight": 6245,
      "ĠRose": 6246,
      "Ġpluck": 6247,
      "ĠHum": 6248,
      "ĠBuck": 6249,
      "Ġteeth": 6250,
      "abilities": 6251,
      "ĠDes": 6252,
      "igning": 6253,
      "Ġlosing": 6254,
      "Ġspoke": 6255,
      "Ġpoison": 6256,
      "ences": 6257,
      "arewell": 6258,
      "Ġcheek": 6259,
      "Goodbye": 6260,
      "Isn": 6261,
      "Ġconsult": 6262,
      "Didn": 6263,
      "Ġexams": 6264,
      "Ġapplied": 6265,
      "Ġappliances": 6266,
      "Ġconfidence": 6267,
      "Ġmessages": 6268,
      "CAPULET": 6269,
      "Ġtourist": 6270,
      "INCE": 6271,
      "Ġworthy": 6272,
      "Ġgreenhouse": 6273,
      "Ġdevice": 6274,
      "Ġmental": 6275,
      "Ġrobots": 6276,
      "Ġobjects": 6277,
      "Ġparticularly": 6278,
      "Ġadmit": 6279,
      "Ġlabor": 6280,
      "Ġdetermined": 6281,
      "Compose": 6282,
      "PRINCE": 6283,
      "Ġscientific": 6284,
      "Ġchallenging": 6285,
      "Ġscale": 6286,
      "ĠOlympic": 6287,
      "Ġdarling": 6288,
      "ĠMichael": 6289,
      "Ġprincip": 6290,
      "fessor": 6291,
      "Ġcategories": 6292,
      "Ġideal": 6293,
      "AS": 6294,
      "Till": 6295,
      "food": 6296,
      "father": 6297,
      "oons": 6298,
      "tor": 6299,
      "uh": 6300,
      "uing": 6301,
      "arent": 6302,
      "eam": 6303,
      "ception": 6304,
      "Ġwis": 6305,
      "Ġwestern": 6306,
      "Ġaim": 6307,
      "forts": 6308,
      "Ġmild": 6309,
      "itors": 6310,
      "Ġyield": 6311,
      "ingbroke": 6312,
      "Ġcow": 6313,
      "Ġdy": 6314,
      "Ġlink": 6315,
      "Ġnu": 6316,
      "ifford": 6317,
      "illing": 6318,
      "Ġstood": 6319,
      "ĠRoad": 6320,
      "cket": 6321,
      "ĠSay": 6322,
      "Ġplate": 6323,
      "ĠMo": 6324,
      "Ġconstant": 6325,
      "cience": 6326,
      "ignior": 6327,
      "Ġdiseases": 6328,
      "Ġgrass": 6329,
      "Ġactions": 6330,
      "cript": 6331,
      "Ġoffices": 6332,
      "Ġregistration": 6333,
      "Ġincor": 6334,
      "Ġenjoying": 6335,
      "Ġinterests": 6336,
      "Ġwarning": 6337,
      "Ġbasis": 6338,
      "Ġapart": 6339,
      "Ġreality": 6340,
      "Ġteaching": 6341,
      "Ġtopics": 6342,
      "Ġcatalog": 6343,
      "Ġfairly": 6344,
      "Ġbreathe": 6345,
      "Ġcentre": 6346,
      "ications": 6347,
      "Ġstyles": 6348,
      "Ġsilk": 6349,
      "Ġbroad": 6350,
      "Ġencounter": 6351,
      "Ġadvertisement": 6352,
      "Ġcharacteristics": 6353,
      "Ġmeasures": 6354,
      "istry": 6355,
      "Ġproperty": 6356,
      "Ġliege": 6357,
      "ĠAngeles": 6358,
      "Everything": 6359,
      "Ġconcerned": 6360,
      "Ġincreasingly": 6361,
      "Ġenemy": 6362,
      "Ġopposite": 6363,
      "Ġelevator": 6364,
      "Ġcommercial": 6365,
      "//": 6366,
      "mother": 6367,
      "nel": 6368,
      "off": 6369,
      "vin": 6370,
      "iny": 6371,
      "eries": 6372,
      "omen": 6373,
      "Ġthyself": 6374,
      "actions": 6375,
      "Ġsake": 6376,
      "reh": 6377,
      "Ġpink": 6378,
      "Ġpitch": 6379,
      "eline": 6380,
      "Ġbeyond": 6381,
      "Ġforgive": 6382,
      "chain": 6383,
      "Ġreward": 6384,
      "Ġrot": 6385,
      "imp": 6386,
      "ĠThrough": 6387,
      "ĠAB": 6388,
      "ĠStr": 6389,
      "ĠMus": 6390,
      "Ġath": 6391,
      "ulty": 6392,
      "shop": 6393,
      "Ġdeb": 6394,
      "indy": 6395,
      "Ġconcent": 6396,
      "ended": 6397,
      "Ġcompe": 6398,
      "anging": 6399,
      "ishment": 6400,
      "reeze": 6401,
      "Ġexport": 6402,
      "ĠJames": 6403,
      "ĠJones": 6404,
      "berry": 6405,
      "Ġwaves": 6406,
      "utes": 6407,
      "Ġacting": 6408,
      "Ġshowed": 6409,
      "Ġclassical": 6410,
      "Ġturning": 6411,
      "Ġexamples": 6412,
      "Ġtrains": 6413,
      "Ġdining": 6414,
      "Ġlargest": 6415,
      "Ġvent": 6416,
      "Ġsurround": 6417,
      "Ġadded": 6418,
      "Ġqualified": 6419,
      "Ġreflect": 6420,
      "Ġwann": 6421,
      "Ġcentury": 6422,
      "Ġprivacy": 6423,
      "Ġhorror": 6424,
      "Ġwallet": 6425,
      "Ġsongs": 6426,
      "Ġquarrel": 6427,
      "Ġgentlemen": 6428,
      "Ġencourage": 6429,
      "Ġutil": 6430,
      "Ġquantity": 6431,
      "Ġethical": 6432,
      "ĠSeptember": 6433,
      "ĠBolingbroke": 6434,
      "Ġstolen": 6435,
      "Ġconcentr": 6436,
      "\"\"": 6437,
      "Ad": 6438,
      "ALO": 6439,
      "Acc": 6440,
      "Has": 6441,
      "Had": 6442,
      "Mark": 6443,
      "apt": 6444,
      "bie": 6445,
      "Ġir": 6446,
      "orous": 6447,
      "Ġtip": 6448,
      "Ġtale": 6449,
      "ogle": 6450,
      "Ġsli": 6451,
      "Ġwrap": 6452,
      "Ġweren": 6453,
      "Ġaisle": 6454,
      "etr": 6455,
      "enter": 6456,
      "Ġinfect": 6457,
      "Ġforever": 6458,
      "keep": 6459,
      "Ġreb": 6460,
      "Ġprot": 6461,
      "ĠAss": 6462,
      "ĠLan": 6463,
      "ĠLos": 6464,
      "ipes": 6465,
      "ĠBet": 6466,
      "ĠBoth": 6467,
      "Ġcontext": 6468,
      "Ġworkplace": 6469,
      "Ġexpand": 6470,
      "omething": 6471,
      "Ġunl": 6472,
      "Ġflo": 6473,
      "ode": 6474,
      "Ġpermit": 6475,
      "Ġleather": 6476,
      "Ġlazy": 6477,
      "Ġdisease": 6478,
      "versary": 6479,
      "Ġfamilies": 6480,
      "ĠVal": 6481,
      "Ġvisited": 6482,
      "cester": 6483,
      "Ġsigns": 6484,
      "Ġreception": 6485,
      "Ġinsights": 6486,
      "Ġscr": 6487,
      "Ġsucceed": 6488,
      "Ġtraveler": 6489,
      "Ġperfectly": 6490,
      "aked": 6491,
      "Ġamounts": 6492,
      "Ġvegetable": 6493,
      "ĠExp": 6494,
      "Ġholidays": 6495,
      "Ġdemonstr": 6496,
      "Ġboarding": 6497,
      "Ġengaged": 6498,
      "Ġsynon": 6499,
      "Ġgolden": 6500,
      "ĠEuropean": 6501,
      "ydr": 6502,
      "Ġfiction": 6503,
      "Ġrevenge": 6504,
      "Ġconclusion": 6505,
      "Ġgrammar": 6506,
      "Ġsample": 6507,
      "ĠWashing": 6508,
      "Ġromantic": 6509,
      "Ġaccompl": 6510,
      "Pretty": 6511,
      "ĠMexico": 6512,
      "Ġconsequences": 6513,
      "ĠAfrica": 6514,
      "Ġherself": 6515,
      "Madam": 6516,
      "Ġjeans": 6517,
      "400": 6518,
      "800": 6519,
      "OP": 6520,
      "Poor": 6521,
      "SE": 6522,
      "garet": 6523,
      "lt": 6524,
      "mate": 6525,
      "mission": 6526,
      "uary": 6527,
      "vable": 6528,
      "Ġiron": 6529,
      "Ġwings": 6530,
      "forest": 6531,
      "Ġhide": 6532,
      "ingham": 6533,
      "ille": 6534,
      "Ġlake": 6535,
      "Ġham": 6536,
      "ppers": 6537,
      "Ġrude": 6538,
      "imal": 6539,
      "Ġshy": 6540,
      "ĠSec": 6541,
      "Ġplus": 6542,
      "Ġplays": 6543,
      "ĠMore": 6544,
      "ĠHope": 6545,
      "umes": 6546,
      "uments": 6547,
      "ffect": 6548,
      "Ġvan": 6549,
      "Ġlock": 6550,
      "Ġtrou": 6551,
      "agon": 6552,
      "ĠWeb": 6553,
      "Ġimages": 6554,
      "Ġrose": 6555,
      "roll": 6556,
      "Ġacqu": 6557,
      "Ġblind": 6558,
      "Ġperf": 6559,
      "Ġpartner": 6560,
      "ires": 6561,
      "Ġresist": 6562,
      "Ġdownload": 6563,
      "Ġtrib": 6564,
      "Ġreducing": 6565,
      "Ġmarkets": 6566,
      "Ġslain": 6567,
      "Ġaccountant": 6568,
      "Ġtechnical": 6569,
      "Ġoffered": 6570,
      "Ġsunny": 6571,
      "Ġweekends": 6572,
      "Ġsuitcase": 6573,
      "Ġsouven": 6574,
      "Ġdressing": 6575,
      "ĠClifford": 6576,
      "Ġorganized": 6577,
      "lligent": 6578,
      "Ġresponsibilities": 6579,
      "Ġcopies": 6580,
      "Ġautomate": 6581,
      "Ġengineer": 6582,
      "Trans": 6583,
      "Ġcircum": 6584,
      "Ġextremely": 6585,
      "ixty": 6586,
      "Ġfriar": 6587,
      "Ġcasual": 6588,
      "ĠZhang": 6589,
      "seeing": 6590,
      "Ġexperiment": 6591,
      "://": 6592,
      "Bl": 6593,
      "Bet": 6594,
      "Five": 6595,
      "FID": 6596,
      "IZ": 6597,
      "Person": 6598,
      "Such": 6599,
      "mond": 6600,
      "ped": 6601,
      "sm": 6602,
      "sually": 6603,
      "Ġven": 6604,
      "inter": 6605,
      "erate": 6606,
      "Ġtor": 6607,
      "Ġtorn": 6608,
      "Ġwoo": 6609,
      "Ġbicy": 6610,
      "Ġcough": 6611,
      "Ġlect": 6612,
      "Ġfle": 6613,
      "essenger": 6614,
      "Ġrum": 6615,
      "Ġrail": 6616,
      "Ġrates": 6617,
      "irement": 6618,
      "Ġneural": 6619,
      "ĠAg": 6620,
      "Ġ60": 6621,
      "ĠRed": 6622,
      "ĠSince": 6623,
      "ĠHi": 6624,
      "she": 6625,
      "Ġdeed": 6626,
      "ĠDec": 6627,
      "unte": 6628,
      "allow": 6629,
      "Ġvac": 6630,
      "Ġtruly": 6631,
      "agne": 6632,
      "Ġagency": 6633,
      "ĠJuly": 6634,
      "ĠNet": 6635,
      "osom": 6636,
      "Ġcarr": 6637,
      "Ġgrade": 6638,
      "ION": 6639,
      "Ġdesired": 6640,
      "Ġbelie": 6641,
      "Ġcharged": 6642,
      "---": 6643,
      "Ġdataset": 6644,
      "acing": 6645,
      "Ġreputation": 6646,
      "Ġinformed": 6647,
      "Ġslave": 6648,
      "Ġpassing": 6649,
      "ERS": 6650,
      "ORIZ": 6651,
      "Ġleis": 6652,
      "Ġinvitation": 6653,
      "ugust": 6654,
      "niversary": 6655,
      "audio": 6656,
      "Ġrefresh": 6657,
      "Ġconsideration": 6658,
      "Ġdressed": 6659,
      "Ġholding": 6660,
      "Ġresulting": 6661,
      "Ġentrance": 6662,
      "Ġfitness": 6663,
      "Ġforecast": 6664,
      "Ġcrack": 6665,
      "AUFID": 6666,
      "Ġdevil": 6667,
      "Ġrelaxed": 6668,
      "Ġgases": 6669,
      "Ġglasses": 6670,
      "Ġrandom": 6671,
      "ĠLucy": 6672,
      "Ġclimb": 6673,
      "Ġvehicles": 6674,
      "ĠCorpor": 6675,
      "Ġpowder": 6676,
      "Ġcandidate": 6677,
      "Ġcinema": 6678,
      "FLORIZ": 6679,
      "zhou": 6680,
      "entleman": 6681,
      "ĠCAPULET": 6682,
      "ĠWashington": 6683,
      "AUFIDIUS": 6684,
      "FLORIZEL": 6685,
      "App": 6686,
      "Against": 6687,
      "DA": 6688,
      "Gr": 6689,
      "Pardon": 6690,
      "Whatever": 6691,
      "eel": 6692,
      "host": 6693,
      "isp": 6694,
      "kin": 6695,
      "made": 6696,
      "oot": 6697,
      "yr": 6698,
      "ott": 6699,
      "Ġwars": 6700,
      "isor": 6701,
      "Ġtoward": 6702,
      "Ġpump": 6703,
      "ching": 6704,
      "lying": 6705,
      "aylor": 6706,
      "Ġmechan": 6707,
      "Ġprem": 6708,
      "Ġprize": 6709,
      "ĠAb": 6710,
      "ĠSim": 6711,
      "ĠCent": 6712,
      "ĠHarry": 6713,
      "ĠWall": 6714,
      "Ġdedi": 6715,
      "ĠPM": 6716,
      "ĠPri": 6717,
      "Ġtrick": 6718,
      "pring": 6719,
      "Ġroot": 6720,
      "Ġrocks": 6721,
      "Ġadject": 6722,
      "Ġunus": 6723,
      "Ġtells": 6724,
      "claim": 6725,
      "Ġgrab": 6726,
      "Ġmonitor": 6727,
      "Ġboys": 6728,
      "Ġreleased": 6729,
      "Ġfewer": 6730,
      "acted": 6731,
      "Ġpassword": 6732,
      "Ġqualities": 6733,
      "ashed": 6734,
      "Ġsummar": 6735,
      "Ġleads": 6736,
      "Ġwalked": 6737,
      "Ġdefinition": 6738,
      "Ġpacked": 6739,
      "ĠDidn": 6740,
      "Ġdragon": 6741,
      "Ġentreat": 6742,
      "Ġseafood": 6743,
      "Ġrelaxing": 6744,
      "Ġheavens": 6745,
      "Ġvoices": 6746,
      "Ġpredictions": 6747,
      "ĠQu": 6748,
      "Ġscientist": 6749,
      "Ġdeclare": 6750,
      "Ġordinary": 6751,
      "ĠGermany": 6752,
      "Ġdetailed": 6753,
      "Ġenemies": 6754,
      "ĠCheck": 6755,
      "onderful": 6756,
      "Ġexhibition": 6757,
      "ttps": 6758,
      "Ġcabin": 6759,
      "Ġdivorce": 6760,
      "thanks": 6761,
      "Ġrapid": 6762,
      "Ġroute": 6763,
      "ĠSenator": 6764,
      "Ġfestival": 6765,
      "Ġdestroy": 6766,
      "ĠBuckingham": 6767,
      "ĠABC": 6768,
      "!'": 6769,
      "Bob": 6770,
      "Call": 6771,
      "CLA": 6772,
      "DEL": 6773,
      "OW": 6774,
      "free": 6775,
      "live": 6776,
      "lines": 6777,
      "sted": 6778,
      "td": 6779,
      "uff": 6780,
      "vince": 6781,
      "Ġ==": 6782,
      "Ġedge": 6783,
      "arily": 6784,
      "cts": 6785,
      "spite": 6786,
      "Ġsore": 6787,
      "Ġmut": 6788,
      "Ġhello": 6789,
      "Ġbend": 6790,
      "Ġpand": 6791,
      "Ġanniversary": 6792,
      "Ġdull": 6793,
      "Ġlif": 6794,
      "Ġfries": 6795,
      "Ġgun": 6796,
      "Ġedit": 6797,
      "Ġ300": 6798,
      "illo": 6799,
      "Ġcanst": 6800,
      "Ġlips": 6801,
      "there": 6802,
      "ĠRuss": 6803,
      "Ġsecon": 6804,
      "rical": 6805,
      "ĠSe": 6806,
      "ĠHar": 6807,
      "shine": 6808,
      "ols": 6809,
      "ĠEconom": 6810,
      "Ġprecious": 6811,
      "print": 6812,
      "ĠWest": 6813,
      "izer": 6814,
      "Ġadult": 6815,
      "Ġappeal": 6816,
      "eating": 6817,
      "ervations": 6818,
      "Ġgrant": 6819,
      "Ġlifestyle": 6820,
      "Ġcharity": 6821,
      "Ġhousehold": 6822,
      "Ġconsists": 6823,
      "Ġslight": 6824,
      "Ġturns": 6825,
      "Ġruns": 6826,
      "Ġvalid": 6827,
      "Ġtransaction": 6828,
      "Ġserves": 6829,
      "Ġcreature": 6830,
      "Ġproposal": 6831,
      "Ġbreathing": 6832,
      "Ġpractical": 6833,
      "ĠWilliam": 6834,
      "Ġraining": 6835,
      "Ġcentral": 6836,
      "Ġfearful": 6837,
      "Ġstocks": 6838,
      "Ġprinter": 6839,
      "Ġexpression": 6840,
      "Ġadmin": 6841,
      "Ġretirement": 6842,
      "Ġrecognize": 6843,
      "Ġfailed": 6844,
      "Ġimplement": 6845,
      "Ġoccur": 6846,
      "Ġefforts": 6847,
      "Ġhobby": 6848,
      "Ġterrific": 6849,
      "Ġevil": 6850,
      "Ġcooperation": 6851,
      "valuate": 6852,
      "ĠTybalt": 6853,
      "ilosoph": 6854,
      "Ġseconds": 6855,
      "Cate": 6856,
      "CIUS": 6857,
      "Mar": 6858,
      "Marry": 6859,
      "RICHARD": 6860,
      "Too": 6861,
      "Tra": 6862,
      "den": 6863,
      "ollow": 6864,
      "dium": 6865,
      "eave": 6866,
      "oucester": 6867,
      "Ġsite": 6868,
      "force": 6869,
      "Ġhyp": 6870,
      "Ġbreeze": 6871,
      "tempt": 6872,
      "Ġfought": 6873,
      "Ġfancy": 6874,
      "Ġfinger": 6875,
      "ena": 6876,
      "days": 6877,
      "dates": 6878,
      "Ġincon": 6879,
      "dations": 6880,
      "uries": 6881,
      "Ġ28": 6882,
      "ithee": 6883,
      "Ġcancer": 6884,
      "Ġwealth": 6885,
      "Ġshipping": 6886,
      "Ġpra": 6887,
      "Ġstain": 6888,
      "Ġstone": 6889,
      "ĠAlex": 6890,
      "ĠATM": 6891,
      "Ġdiss": 6892,
      "Ġsoda": 6893,
      "ĠCenter": 6894,
      "ades": 6895,
      "ĠTry": 6896,
      "ĠGPT": 6897,
      "Ġquery": 6898,
      "ĠJenny": 6899,
      "ĠChen": 6900,
      "Ġflesh": 6901,
      "Ġstrugg": 6902,
      "Excellent": 6903,
      "Ġskirt": 6904,
      "Ġreports": 6905,
      "Ġvision": 6906,
      "ibly": 6907,
      "ĠFrank": 6908,
      "Ġshake": 6909,
      "Ġstreets": 6910,
      "555": 6911,
      "Ġsinger": 6912,
      "Ġunivers": 6913,
      "Shepherd": 6914,
      "Ġlessons": 6915,
      "ĠShould": 6916,
      "Ġvegetarian": 6917,
      "Ġcorrectly": 6918,
      "Change": 6919,
      "Ġreached": 6920,
      "BAST": 6921,
      "Ġimproving": 6922,
      "ĠLiu": 6923,
      "ĠQue": 6924,
      "ealous": 6925,
      "Ġeaten": 6926,
      "Ġvillage": 6927,
      "Ġcloser": 6928,
      "Ġcups": 6929,
      "Ġoccup": 6930,
      "Ġplatforms": 6931,
      "Ġhobbies": 6932,
      "Ġjudge": 6933,
      "Ġcritic": 6934,
      "Ġflexible": 6935,
      "Ġmysterious": 6936,
      "Ġcigarettes": 6937,
      "Ġexisting": 6938,
      "Ġorganizations": 6939,
      "achelor": 6940,
      "ĠLearning": 6941,
      "SEBAST": 6942,
      "Ġleisure": 6943,
      "Categori": 6944,
      "SEBASTIAN": 6945,
      "Add": 6946,
      "Last": 6947,
      "OH": 6948,
      "Str": 6949,
      "fit": 6950,
      "oys": 6951,
      "iner": 6952,
      "cad": 6953,
      "car": 6954,
      "card": 6955,
      "emon": 6956,
      "Ġthunder": 6957,
      "Ġsigh": 6958,
      "Ġwound": 6959,
      "Ġate": 6960,
      "itter": 6961,
      "ilty": 6962,
      "Ġpsych": 6963,
      "Ġanno": 6964,
      "Ġoh": 6965,
      "Ġdum": 6966,
      "asted": 6967,
      "elect": 6968,
      "urp": 6969,
      "ĠThou": 6970,
      "ĠLa": 6971,
      "ĠRoman": 6972,
      "Ġplum": 6973,
      "Ġchips": 6974,
      "ĠCath": 6975,
      "ĠCoriol": 6976,
      "ĠMart": 6977,
      "ĠMars": 6978,
      "Ġjealous": 6979,
      "ĠHast": 6980,
      "ĠWestern": 6981,
      "Ġcontest": 6982,
      "ĠIts": 6983,
      "Ġfrank": 6984,
      "rah": 6985,
      "Ġgoodness": 6986,
      "igation": 6987,
      "Ġvast": 6988,
      "Ġvitam": 6989,
      "Ġenables": 6990,
      "Ġtrim": 6991,
      "Ġaffor": 6992,
      "roach": 6993,
      "Ġunexp": 6994,
      "ĠWhile": 6995,
      "osen": 6996,
      "Ġkindness": 6997,
      "Ġtape": 6998,
      "Ġcolour": 6999,
      "oston": 7000,
      "Ġproductivity": 7001,
      "Ġtrained": 7002,
      "Ġmanaged": 7003,
      "Ġshortly": 7004,
      "Ġcloth": 7005,
      "Ġinterviewer": 7006,
      "Ġpaperwork": 7007,
      "ĠClaudio": 7008,
      "Ġbreast": 7009,
      "Ġhonor": 7010,
      "Ġlandsca": 7011,
      "Ġthousands": 7012,
      "ĠToday": 7013,
      "Ġbehold": 7014,
      "Ġpeaceful": 7015,
      "ĠOnly": 7016,
      "Ġhunt": 7017,
      "Ġzoo": 7018,
      "Ġcameras": 7019,
      "Ġofficial": 7020,
      "Ġcuis": 7021,
      "Ġwarranty": 7022,
      "ĠIndian": 7023,
      "Ġlongest": 7024,
      "ĠMontague": 7025,
      "Ġtravelling": 7026,
      "Perfect": 7027,
      "xygen": 7028,
      "Ġpiano": 7029,
      "Ġdiagno": 7030,
      "Ġceremony": 7031,
      "Categorize": 7032,
      "Ġunexpected": 7033,
      "Away": 7034,
      "Besides": 7035,
      "BION": 7036,
      "Hel": 7037,
      "Listen": 7038,
      "Wonderful": 7039,
      "cin": 7040,
      "folk": 7041,
      "ipped": 7042,
      "lf": 7043,
      "oves": 7044,
      "pons": 7045,
      "sis": 7046,
      "tail": 7047,
      "wood": 7048,
      "Ġease": 7049,
      "utch": 7050,
      "Ġtu": 7051,
      "Ġtack": 7052,
      "Ġtables": 7053,
      "anus": 7054,
      "ctors": 7055,
      "Ġtheater": 7056,
      "Ġwret": 7057,
      "Ġye": 7058,
      "rets": 7059,
      "Ġbaking": 7060,
      "ĠInd": 7061,
      "Ġloose": 7062,
      "Ġfits": 7063,
      "Ġfetch": 7064,
      "Ġgross": 7065,
      "Think": 7066,
      "Ġeco": 7067,
      "verb": 7068,
      "Ġshirts": 7069,
      "ĠThings": 7070,
      "ĠAir": 7071,
      "Ġdir": 7072,
      "Ġsuff": 7073,
      "Ġsuite": 7074,
      "Ġseque": 7075,
      "ateful": 7076,
      "Ġchart": 7077,
      "Ġchosen": 7078,
      "Ġjew": 7079,
      "ĠHouse": 7080,
      "ulous": 7081,
      "ĠWil": 7082,
      "Ġfrustr": 7083,
      "unning": 7084,
      "Ġspr": 7085,
      "Ġnoisy": 7086,
      "Ġbridge": 7087,
      "Ġtwe": 7088,
      "venue": 7089,
      "Ġsheet": 7090,
      "Ġfold": 7091,
      "Ġbucks": 7092,
      "ĠDoctor": 7093,
      "ĠHealth": 7094,
      "Ġdisag": 7095,
      "Ġchecks": 7096,
      "Ġemails": 7097,
      "Ġfinance": 7098,
      "Ġclassic": 7099,
      "Ġreduction": 7100,
      "Ġconsul": 7101,
      "acle": 7102,
      "Ġrecover": 7103,
      "Ġmaintenance": 7104,
      "Ġqualifications": 7105,
      "Ġnearest": 7106,
      "Ġcollection": 7107,
      "Ġorganic": 7108,
      "Ġmagical": 7109,
      "icago": 7110,
      "Ġoperating": 7111,
      "Ġmeaningful": 7112,
      "Ġestim": 7113,
      "Ġcombination": 7114,
      "Ġwashed": 7115,
      "--------": 7116,
      "Ġvolume": 7117,
      "Ġvolunte": 7118,
      "ĠDeposit": 7119,
      "Tomorrow": 7120,
      "Ġfunds": 7121,
      "Ġscener": 7122,
      "Ġquantum": 7123,
      "ĠOlympics": 7124,
      "Ġidentity": 7125,
      "Step": 7126,
      "Ġviolence": 7127,
      "Index": 7128,
      "Ġcafeteria": 7129,
      "Ġsustainable": 7130,
      "Ġstamps": 7131,
      "Ġsoldiers": 7132,
      "Ġchampagne": 7133,
      "MARCIUS": 7134,
      "Ġextension": 7135,
      "Ġbeneficial": 7136,
      "Ġprinciples": 7137,
      "DELLO": 7138,
      "Ġpandemic": 7139,
      "ĠHastings": 7140,
      "BIONDELLO": 7141,
      "600": 7142,
      "MON": 7143,
      "bes": 7144,
      "bage": 7145,
      "ders": 7146,
      "door": 7147,
      "gment": 7148,
      "hear": 7149,
      "lation": 7150,
      "list": 7151,
      "sc": 7152,
      "ster": 7153,
      "ubl": 7154,
      "erable": 7155,
      "Ġsites": 7156,
      "istent": 7157,
      "really": 7158,
      "storm": 7159,
      "ĠImp": 7160,
      "esome": 7161,
      "Ġpays": 7162,
      "Ġanx": 7163,
      "Ġdates": 7164,
      "Ġinse": 7165,
      "Ġnav": 7166,
      "Thus": 7167,
      "Ġshelf": 7168,
      "Ġdistr": 7169,
      "ĠSan": 7170,
      "ĠCD": 7171,
      "ĠCongratulations": 7172,
      "Ġheir": 7173,
      "Ġexha": 7174,
      "ĠBra": 7175,
      "ĠBoston": 7176,
      "ĠWatch": 7177,
      "Ġconvey": 7178,
      "Ġfrag": 7179,
      "ĠDick": 7180,
      "Ġours": 7181,
      "Ġenable": 7182,
      "Ġtrem": 7183,
      "udy": 7184,
      "ĠGener": 7185,
      "Ġagen": 7186,
      "Ġroast": 7187,
      "ĠChicago": 7188,
      "ptoms": 7189,
      "Ġreserved": 7190,
      "Ġfollowed": 7191,
      "Ġdesert": 7192,
      "weight": 7193,
      "Ġhighness": 7194,
      "Ġdating": 7195,
      "Ġbadly": 7196,
      "Ġguilty": 7197,
      "ĠStart": 7198,
      "oundation": 7199,
      "Ġfarm": 7200,
      "Ġtense": 7201,
      "Ġassess": 7202,
      "Ġmainly": 7203,
      "Ġcrimin": 7204,
      "Ġheadline": 7205,
      "Being": 7206,
      "Ġautumn": 7207,
      "Ġenvy": 7208,
      "Show": 7209,
      "Ġinternal": 7210,
      "Ġdefend": 7211,
      "Ġexercises": 7212,
      "elsius": 7213,
      "Ġscholar": 7214,
      "ava": 7215,
      "Ġcham": 7216,
      "Ġdepending": 7217,
      "Ġforgotten": 7218,
      "Ġcapable": 7219,
      "Ġconvenience": 7220,
      "Ġinstance": 7221,
      "Ġtreatment": 7222,
      "Ġsouls": 7223,
      "Ġsightseeing": 7224,
      "Ġerror": 7225,
      "ĠMedi": 7226,
      "Ġbranches": 7227,
      "Ġresolution": 7228,
      "Ġshadow": 7229,
      "Ġconduct": 7230,
      "ĠGloucester": 7231,
      "Ġseparate": 7232,
      "Ġerrors": 7233,
      "Ġumbre": 7234,
      "Ġscheduled": 7235,
      "coln": 7236,
      "Ġbattery": 7237,
      "Definitely": 7238,
      "Ġunusual": 7239,
      "Ġscenery": 7240,
      "Farewell": 7241,
      "Hope": 7242,
      "Must": 7243,
      "Ne": 7244,
      "Su": 7245,
      "Turn": 7246,
      "aid": 7247,
      "dr": 7248,
      "dle": 7249,
      "gn": 7250,
      "gal": 7251,
      "mally": 7252,
      "nal": 7253,
      "xford": 7254,
      "yer": 7255,
      "ĠÂ": 7256,
      "Ġther": 7257,
      "Ġster": 7258,
      "Ġmam": 7259,
      "Ġtheory": 7260,
      "isted": 7261,
      "Ġbunch": 7262,
      "Ġdu": 7263,
      "Ġgates": 7264,
      "elly": 7265,
      "Ġnation": 7266,
      "Ġnoun": 7267,
      "happy": 7268,
      "Ġrh": 7269,
      "While": 7270,
      "comfort": 7271,
      "Ġcancell": 7272,
      "Ġalthough": 7273,
      "Ġaltogether": 7274,
      "icro": 7275,
      "Ġsharing": 7276,
      "ĠAUM": 7277,
      "ĠAugust": 7278,
      "ĠLaw": 7279,
      "Ġaside": 7280,
      "ĠMc": 7281,
      "ĠMen": 7282,
      "Ġexception": 7283,
      "Ġdeca": 7284,
      "Ġdecent": 7285,
      "Ġanytime": 7286,
      "Ġamen": 7287,
      "Ġmock": 7288,
      "Ġspa": 7289,
      "ĠTaylor": 7290,
      "Ġclick": 7291,
      "Ġinterface": 7292,
      "estival": 7293,
      "Ġflour": 7294,
      "Ġflies": 7295,
      "Ġeleven": 7296,
      "Ġdeserved": 7297,
      "Ġphilosoph": 7298,
      "Ġdepos": 7299,
      "Ġremote": 7300,
      "Ġtomatoes": 7301,
      "Ġtrial": 7302,
      "Ġformer": 7303,
      "ERLE": 7304,
      "Ġidi": 7305,
      "Ġgraph": 7306,
      "Ġbrothers": 7307,
      "Ġpresents": 7308,
      "Ġbanking": 7309,
      "Ġgeneration": 7310,
      "Ġchances": 7311,
      "Ġenth": 7312,
      "Ġgrades": 7313,
      "Ġgraduation": 7314,
      "Ġintelligent": 7315,
      "Ġcurrently": 7316,
      "Ġhandsome": 7317,
      "ĠMargaret": 7318,
      "Char": 7319,
      "ONIO": 7320,
      "Ġlabel": 7321,
      "Ġauthent": 7322,
      "Ġengagement": 7323,
      "ological": 7324,
      "caster": 7325,
      "Ġbottles": 7326,
      "Art": 7327,
      "Ġnecklace": 7328,
      "Ġhiking": 7329,
      "Ġcampaigns": 7330,
      "Peter": 7331,
      "People": 7332,
      "Ġdisappointed": 7333,
      "Ġcultural": 7334,
      "Ġdestination": 7335,
      "ANTONIO": 7336,
      "Ġtoilet": 7337,
      "Ġhistorical": 7338,
      "ĠLancaster": 7339,
      "Ġbicycle": 7340,
      "ĠAUMERLE": 7341,
      "',": 7342,
      "250": 7343,
      "Got": 7344,
      "Keep": 7345,
      "Put": 7346,
      "Pray": 7347,
      "ZALO": 7348,
      "may": 7349,
      "making": 7350,
      "range": 7351,
      "ser": 7352,
      "uum": 7353,
      "zil": 7354,
      "Ġcate": 7355,
      "orough": 7356,
      "spected": 7357,
      "spoons": 7358,
      "Ġsizes": 7359,
      "usi": 7360,
      "Ġmotion": 7361,
      "itate": 7362,
      "Ġhidden": 7363,
      "isk": 7364,
      "Ġbun": 7365,
      "Ġbosom": 7366,
      "Ġpure": 7367,
      "Ġpunch": 7368,
      "Ġpills": 7369,
      "Ġlung": 7370,
      "Ġbegg": 7371,
      "Ġbecomes": 7372,
      "Ġretr": 7373,
      "Ġreference": 7374,
      "Ġrub": 7375,
      "Ġ45": 7376,
      "Ġstations": 7377,
      "Ġknight": 7378,
      "elling": 7379,
      "Ġsof": 7380,
      "ĠLily": 7381,
      "Ġchef": 7382,
      "ĠHello": 7383,
      "Ġconsent": 7384,
      "ĠDuring": 7385,
      "Their": 7386,
      "Ġdidst": 7387,
      "ĠTechnology": 7388,
      "ĠFestival": 7389,
      "ĠGentleman": 7390,
      "rod": 7391,
      "Ġaddi": 7392,
      "Ġhadn": 7393,
      "Ġunknown": 7394,
      "being": 7395,
      "oses": 7396,
      "estic": 7397,
      "Ġwaiter": 7398,
      "Ġperspect": 7399,
      "Ġrelations": 7400,
      "Ġclassroom": 7401,
      "ĠVin": 7402,
      "Ġrepeat": 7403,
      "Ġmarvel": 7404,
      "Ġowners": 7405,
      "Ġmarks": 7406,
      "Ġsteel": 7407,
      "Ġbringing": 7408,
      "Ġbitter": 7409,
      "Ġsending": 7410,
      "Ġpurse": 7411,
      "Ġteachers": 7412,
      "Ġreduced": 7413,
      "Ġconsidering": 7414,
      "Ġobvious": 7415,
      "Ġdistinct": 7416,
      "Ġprofessor": 7417,
      "Ġtransp": 7418,
      "Ġoperate": 7419,
      "Ġadvertisements": 7420,
      "Ġaunt": 7421,
      "Ġphysics": 7422,
      "Ġblockchain": 7423,
      "Ġgrandmother": 7424,
      "Ġmerry": 7425,
      "Unfortunately": 7426,
      "ĠLincoln": 7427,
      "Ġmillions": 7428,
      "Ġimplications": 7429,
      "Ġimagin": 7430,
      "Ġdespite": 7431,
      "Ġwidow": 7432,
      "Ġlaughing": 7433,
      "Ġdeparture": 7434,
      "Ġvictory": 7435,
      "Ì¦Ì¦Ì¦Ì¦Ì¦Ì¦Ì¦Ì¦Ì¦Ì¦Ì¦Ì¦Ì¦Ì¦Ì¦Ì¦Ì¦Ì¦Ì¦Ì¦Ì¦Ì¦Ì¦Ì¦Ì¦Ì¦Ì¦Ì¦Ì¦Ì¦Ì¦Ì¦": 7436,
      "ĠBritish": 7437,
      "Ġchannels": 7438,
      "Ġdrugs": 7439,
      "ruption": 7440,
      "ĠHelen": 7441,
      "Ġpronoun": 7442,
      "Ġdivided": 7443,
      "GONZALO": 7444,
      "Ġtweet": 7445,
      "Believe": 7446,
      "SON": 7447,
      "UD": 7448,
      "aving": 7449,
      "cut": 7450,
      "gar": 7451,
      "hi": 7452,
      "pha": 7453,
      "power": 7454,
      "uter": 7455,
      "ucted": 7456,
      "vy": 7457,
      "water": 7458,
      "Ġom": 7459,
      "onom": 7460,
      "erob": 7461,
      "die": 7462,
      "ara": 7463,
      "uess": 7464,
      "Ġsixty": 7465,
      "Ġwea": 7466,
      "Ġwra": 7467,
      "Ġwire": 7468,
      "reds": 7469,
      "Ġdent": 7470,
      "Ġgrew": 7471,
      "Ġgorge": 7472,
      "Ġinspir": 7473,
      "Ġrash": 7474,
      "Ġwher": 7475,
      "Ġwithal": 7476,
      "Ġwest": 7477,
      "Ġprime": 7478,
      "ĠAh": 7479,
      "ĠAvenue": 7480,
      "riter": 7481,
      "ĠSw": 7482,
      "ĠCons": 7483,
      "ĠCelsius": 7484,
      "ĠMachine": 7485,
      "ĠHigh": 7486,
      "ula": 7487,
      "advant": 7488,
      "Ġextend": 7489,
      "ĠBir": 7490,
      "string": 7491,
      "Ġfro": 7492,
      "ĠDi": 7493,
      "ĠEast": 7494,
      "Ġvow": 7495,
      "Ġvoting": 7496,
      "Ġmoves": 7497,
      "Ġspots": 7498,
      "ĠPut": 7499,
      "Ġshoulder": 7500,
      "Ġbrush": 7501,
      "Ġprec": 7502,
      "Ġclerk": 7503,
      "erior": 7504,
      "ords": 7505,
      "Ġarts": 7506,
      "Ġsupper": 7507,
      "Ġsworn": 7508,
      "Ġowner": 7509,
      "Ġtyping": 7510,
      "Ġvisual": 7511,
      "Ġregion": 7512,
      "Ġbasically": 7513,
      "Ġcurse": 7514,
      "ianca": 7515,
      "Ġmetal": 7516,
      "Ġcru": 7517,
      "aunt": 7518,
      "Ġsunshine": 7519,
      "Ġuniverse": 7520,
      "thern": 7521,
      "Ġsummary": 7522,
      "Ġconfli": 7523,
      "Ġdesigns": 7524,
      "Ġbuildings": 7525,
      "Ġdifficulties": 7526,
      "Ġpreparing": 7527,
      "Ġseller": 7528,
      "they": 7529,
      "Ġstored": 7530,
      "Ġlowest": 7531,
      "Ġfishing": 7532,
      "Ġpractices": 7533,
      "Stay": 7534,
      "Ġtransferred": 7535,
      "Ġneighbour": 7536,
      "Ġconcise": 7537,
      "Ġmentioned": 7538,
      "ĠLinda": 7539,
      "Ġvirtue": 7540,
      "Ġlamb": 7541,
      "Ġhousing": 7542,
      "Ġshadows": 7543,
      "Ġjoking": 7544,
      "Indeed": 7545,
      "Ġappetite": 7546,
      "Ġinnovation": 7547,
      "Ġflavor": 7548,
      "ĠCamillo": 7549,
      "Ġdepressed": 7550,
      "Quite": 7551,
      "ĠOutput": 7552,
      "Ġscratch": 7553,
      "Ġuniversities": 7554,
      "Ġcuisine": 7555,
      "Da": 7556,
      "Either": 7557,
      "Four": 7558,
      "Jack": 7559,
      "Try": 7560,
      "Yep": 7561,
      "aks": 7562,
      "cement": 7563,
      "fts": 7564,
      "lin": 7565,
      "long": 7566,
      "lig": 7567,
      "vis": 7568,
      "your": 7569,
      "eated": 7570,
      "Ġwast": 7571,
      "Ġawhile": 7572,
      "itt": 7573,
      "Ġhired": 7574,
      "stood": 7575,
      "Ġbio": 7576,
      "Ġpets": 7577,
      "Ġoxygen": 7578,
      "Ġfur": 7579,
      "Ġfoundation": 7580,
      "Ġgap": 7581,
      "Ġgreet": 7582,
      "Ġbeans": 7583,
      "Ġcam": 7584,
      "Ġarch": 7585,
      "ĠAirl": 7586,
      "Ġsole": 7587,
      "Ġgolf": 7588,
      "ĠLike": 7589,
      "Ġseal": 7590,
      "anta": 7591,
      "Ġjoke": 7592,
      "Ġjacket": 7593,
      "ĠWater": 7594,
      "ĠTheir": 7595,
      "Ġcompared": 7596,
      "Ġloans": 7597,
      "ĠTim": 7598,
      "ista": 7599,
      "Ġcoin": 7600,
      "Ġquote": 7601,
      "Ġinterp": 7602,
      "Ġsaved": 7603,
      "Ġfox": 7604,
      "ĠName": 7605,
      "ighted": 7606,
      "Ġcart": 7607,
      "Ġkeen": 7608,
      "Ġtomato": 7609,
      "ĠKath": 7610,
      "Ġbelt": 7611,
      "ĠVer": 7612,
      "123": 7613,
      "Ġregret": 7614,
      "Ġfunctions": 7615,
      "apers": 7616,
      "Ġbreaking": 7617,
      "Ġwaitress": 7618,
      "111": 7619,
      "Ġassured": 7620,
      "ternal": 7621,
      "Ġpainted": 7622,
      "Ġbanks": 7623,
      "ierce": 7624,
      "Ġtemp": 7625,
      "Ġserver": 7626,
      "Ġdifficulty": 7627,
      "Ġpersonalized": 7628,
      "ĠAnother": 7629,
      "ĠAnna": 7630,
      "Ġtaxes": 7631,
      "Ġstorms": 7632,
      "Ġmemories": 7633,
      "Ġstronger": 7634,
      "Ġhundreds": 7635,
      "Ġinvolve": 7636,
      "Ġdiscussion": 7637,
      "Ġprotection": 7638,
      "Ġoperations": 7639,
      "Ġcompliment": 7640,
      "Ġautomation": 7641,
      "ĠGoogle": 7642,
      "Ġauthority": 7643,
      "Ġstrengths": 7644,
      "bedroom": 7645,
      "ĠNorfolk": 7646,
      "Ġpattern": 7647,
      "Ġnuts": 7648,
      "Ġpaintings": 7649,
      "Ġsymptoms": 7650,
      "Ġhomes": 7651,
      "MIONE": 7652,
      "Ġgramm": 7653,
      "Ġimmigr": 7654,
      "Ġsnacks": 7655,
      "Ġ%.\",": 7656,
      "Ġyogurt": 7657,
      "ĠAutom": 7658,
      "ĠGreek": 7659,
      "CLIFFORD": 7660,
      "HERMIONE": 7661,
      "ĠMusic": 7662,
      "According": 7663,
      "ĠCentral": 7664,
      "CLAUD": 7665,
      "Ġumbrella": 7666,
      "Ġenthusi": 7667,
      "CLAUDIO": 7668,
      "':": 7669,
      "120": 7670,
      "CT": 7671,
      "EDWARD": 7672,
      "IR": 7673,
      "LORD": 7674,
      "Rome": 7675,
      "cery": 7676,
      "eve": 7677,
      "giving": 7678,
      "lar": 7679,
      "low": 7680,
      "offer": 7681,
      "pack": 7682,
      "sol": 7683,
      "vements": 7684,
      "Ġdialogue": 7685,
      "emn": 7686,
      "anio": 7687,
      "dif": 7688,
      "arrow": 7689,
      "Ġthirst": 7690,
      "actory": 7691,
      "Ġsink": 7692,
      "Ġsons": 7693,
      "Ġwounds": 7694,
      "Ġmp": 7695,
      "reg": 7696,
      "stances": 7697,
      "Ġbones": 7698,
      "ilst": 7699,
      "Ġpor": 7700,
      "Ġpeak": 7701,
      "Ġlen": 7702,
      "Ġlad": 7703,
      "Ġfry": 7704,
      "Ġgown": 7705,
      "asy": 7706,
      "ele": 7707,
      "Ġnap": 7708,
      "Ġforced": 7709,
      "Ġrestr": 7710,
      "Ġ27": 7711,
      "Ġarriving": 7712,
      "Ġyourselves": 7713,
      "Ġshown": 7714,
      "Ġshift": 7715,
      "Ġshared": 7716,
      "commo": 7717,
      "Ġpri": 7718,
      "ĠThree": 7719,
      "ĠAM": 7720,
      "Ġsuspect": 7721,
      "ĠSue": 7722,
      "ĠSally": 7723,
      "ĠMain": 7724,
      "ĠMum": 7725,
      "Ġjest": 7726,
      "Ġworship": 7727,
      "ĠInter": 7728,
      "ĠBianca": 7729,
      "Ġproceed": 7730,
      "Ġtear": 7731,
      "umph": 7732,
      "Ġcompens": 7733,
      "Ġvib": 7734,
      "Ġamb": 7735,
      "Ġworker": 7736,
      "uchio": 7737,
      "ĠPal": 7738,
      "ĠTurn": 7739,
      "pro": 7740,
      "Ġhero": 7741,
      "tened": 7742,
      "ĠOxford": 7743,
      "Ġaccommo": 7744,
      "Ġfoe": 7745,
      "erial": 7746,
      "Ġbug": 7747,
      "Ġwave": 7748,
      "Ġimpacts": 7749,
      "Ġsenior": 7750,
      "Ġgrateful": 7751,
      "Ġhardware": 7752,
      "Ġthoughtful": 7753,
      "Ġreply": 7754,
      "Ġguard": 7755,
      "Ġparcel": 7756,
      "Ġcorn": 7757,
      "Ġcorre": 7758,
      "Ġsignal": 7759,
      "Ġshoe": 7760,
      "Ġsurf": 7761,
      "Ġrealized": 7762,
      "azz": 7763,
      "ercise": 7764,
      "Ġwinds": 7765,
      "Ġserving": 7766,
      "Ġraised": 7767,
      "Ġvisitors": 7768,
      "Ġfitting": 7769,
      "Ġfalls": 7770,
      "ceries": 7771,
      "feit": 7772,
      "cules": 7773,
      "Ġmagn": 7774,
      "Ġsilent": 7775,
      "Ġshops": 7776,
      "Ġfifth": 7777,
      "Ġcamping": 7778,
      "Ġmiserable": 7779,
      "Ġdarkness": 7780,
      "Ġkilled": 7781,
      "Ġhanging": 7782,
      "Ġappears": 7783,
      "Ġeast": 7784,
      "Ġscientists": 7785,
      "RANDA": 7786,
      "twas": 7787,
      "twere": 7788,
      "Ġconsumption": 7789,
      "MIRANDA": 7790,
      "ufidi": 7791,
      "Ġdeny": 7792,
      "Ġcommitted": 7793,
      "Ġflexibility": 7794,
      "Ġ)\",": 7795,
      "Ġestablished": 7796,
      "Ġchannel": 7797,
      "Ġskiing": 7798,
      "Ġdomestic": 7799,
      "uilding": 7800,
      "Ġathle": 7801,
      "etruchio": 7802,
      "Ġperfume": 7803,
      "ĠDecember": 7804,
      "Ġvacuum": 7805,
      "Ġvitamins": 7806,
      "Customer": 7807,
      "Messenger": 7808,
      "Res": 7809,
      "Servant": 7810,
      "bow": 7811,
      "gu": 7812,
      "la": 7813,
      "ocate": 7814,
      "tics": 7815,
      "ubs": 7816,
      "vard": 7817,
      "vity": 7818,
      "erce": 7819,
      "orious": 7820,
      "anation": 7821,
      "ogs": 7822,
      "Ġemotional": 7823,
      "Ġwool": 7824,
      "Ġmum": 7825,
      "Ġhook": 7826,
      "Ġhttps": 7827,
      "Ġboo": 7828,
      "Ġbored": 7829,
      "Ġtoys": 7830,
      "Ġpig": 7831,
      "Ġpace": 7832,
      "Ġpages": 7833,
      "Ġoven": 7834,
      "Ġfacts": 7835,
      "Ġincent": 7836,
      "Ġinstruct": 7837,
      "asm": 7838,
      "elie": 7839,
      "Ġnative": 7840,
      "Ġrow": 7841,
      "ims": 7842,
      "imize": 7843,
      "ource": 7844,
      "ourage": 7845,
      "Ġshut": 7846,
      "Ġshout": 7847,
      "then": 7848,
      "Ġsoil": 7849,
      "rian": 7850,
      "ĠSum": 7851,
      "Ġabsent": 7852,
      "Ġchose": 7853,
      "ĠCard": 7854,
      "ĠMin": 7855,
      "Ġjoint": 7856,
      "ĠHappy": 7857,
      "Ġexceed": 7858,
      "Ġprosp": 7859,
      "Ġteen": 7860,
      "ĠReg": 7861,
      "Ġoutdoor": 7862,
      "iger": 7863,
      "Ġenh": 7864,
      "ĠPIN": 7865,
      "angzhou": 7866,
      "Ġcoach": 7867,
      "ichuan": 7868,
      "obile": 7869,
      "ĠJava": 7870,
      "Ġgotta": 7871,
      "Ġunhappy": 7872,
      "Ġroommate": 7873,
      "Ġdisadvant": 7874,
      "Ġremains": 7875,
      "cycle": 7876,
      "Ġrelatives": 7877,
      "Ġsuppli": 7878,
      "180": 7879,
      "Ġearl": 7880,
      "Ġsweat": 7881,
      "ĠHereford": 7882,
      "Ġlists": 7883,
      "Ġadvise": 7884,
      "Ġlean": 7885,
      "Ġsigned": 7886,
      "Ġhappening": 7887,
      "Ġheading": 7888,
      "Ġstarving": 7889,
      "Ġfourth": 7890,
      "Ġconfused": 7891,
      "Ġtransform": 7892,
      "Ġfaced": 7893,
      "Ġdelicate": 7894,
      "Ġcreatures": 7895,
      "aiter": 7896,
      "Ġexercising": 7897,
      "Ġlawyer": 7898,
      "termine": 7899,
      "Ġlands": 7900,
      "ĠExam": 7901,
      "ican": 7902,
      "Ġassistance": 7903,
      "Ġphotograph": 7904,
      "Ġcapabilities": 7905,
      "Ġinstant": 7906,
      "Ġoperation": 7907,
      "Ġdamaged": 7908,
      "Ġarmy": 7909,
      "Ġbalanced": 7910,
      "Ġjournal": 7911,
      "Ġneighbors": 7912,
      "check": 7913,
      "Ġsynt": 7914,
      "Unless": 7915,
      "Ġcollecting": 7916,
      "Ġconsumer": 7917,
      "Ġfulf": 7918,
      "Ġwildlife": 7919,
      "Determine": 7920,
      "Ġrepresentative": 7921,
      "Ġkilome": 7922,
      "Ġwitness": 7923,
      "Ġknee": 7924,
      "Ġcritical": 7925,
      "Ġdrove": 7926,
      "Ġsoldier": 7927,
      "Ġdistributed": 7928,
      "ĠFrancisco": 7929,
      "Ġmolecules": 7930,
      "Ġmathematics": 7931,
      "forestation": 7932,
      "Ġsouvenirs": 7933,
      "Ġinconven": 7934,
      "OHN": 7935,
      "Ġecosystem": 7936,
      "Ġexhausted": 7937,
      "Ġchamber": 7938,
      "Ġgorgeous": 7939,
      "ufidius": 7940,
      "256": 7941,
      "900": 7942,
      "=\"": 7943,
      "DI": 7944,
      "Ph": 7945,
      "Peace": 7946,
      "Read": 7947,
      "Ver": 7948,
      "duct": 7949,
      "done": 7950,
      "ka": 7951,
      "rition": 7952,
      "ups": 7953,
      "Ġ\"...": 7954,
      "inate": 7955,
      "oration": 7956,
      "alty": 7957,
      "Ġtv": 7958,
      "Ġtid": 7959,
      "ogan": 7960,
      "ntrod": 7961,
      "Ġwel": 7962,
      "Ġbars": 7963,
      "Ġbaw": 7964,
      "Ġded": 7965,
      "Ġfeast": 7966,
      "Ġginger": 7967,
      "Ġghost": 7968,
      "Ġinches": 7969,
      "asing": 7970,
      "ashing": 7971,
      "Ġ26": 7972,
      "Ġrage": 7973,
      "ĠSignior": 7974,
      "ĠSpring": 7975,
      "ĠSichuan": 7976,
      "Ġcho": 7977,
      "ĠCa": 7978,
      "ĠCont": 7979,
      "ĠCertificate": 7980,
      "ĠCindy": 7981,
      "ĠMerc": 7982,
      "ĠHon": 7983,
      "ĠWood": 7984,
      "ĠRest": 7985,
      "Ġdebt": 7986,
      "ĠItaly": 7987,
      "ears": 7988,
      "unction": 7989,
      "Ġoutcomes": 7990,
      "Ġoutstanding": 7991,
      "Ġmoist": 7992,
      "Ġmode": 7993,
      "Ġspect": 7994,
      "ĠPol": 7995,
      "Ġmang": 7996,
      "Ġnode": 7997,
      "ouses": 7998,
      "Ġtrading": 7999,
      "Ġpocket": 8000,
      "ĠFood": 8001,
      "ĠFair": 8002,
      "tense": 8003,
      "ĠJen": 8004,
      "ĠJason": 8005,
      "berries": 8006,
      "Ġletting": 8007,
      "Ġbuff": 8008,
      "ression": 8009,
      "Ġstranger": 8010,
      "Ġdeserves": 8011,
      "Ġplaced": 8012,
      "Ġ'\",": 8013,
      "308": 8014,
      "ĠEmory": 8015,
      "Ġcustoms": 8016,
      "345": 8017,
      "Ġmighty": 8018,
      "Ġsooner": 8019,
      "Ġinvoice": 8020,
      "Ġprompt": 8021,
      "Ġpromoted": 8022,
      "Ġassure": 8023,
      "Ġcruel": 8024,
      "aughter": 8025,
      "Ġpreferences": 8026,
      "Ġcollected": 8027,
      "Ġtablespoons": 8028,
      "Ġemployment": 8029,
      "Ġprobation": 8030,
      "ccer": 8031,
      "Ġorganism": 8032,
      "Ġlisted": 8033,
      "Ġvacan": 8034,
      "Looks": 8035,
      "ilton": 8036,
      "Ġapprox": 8037,
      "Ġprofession": 8038,
      "ĠDespite": 8039,
      "Stop": 8040,
      "Ġroads": 8041,
      "Ġintroduction": 8042,
      "Ġefficiently": 8043,
      "Ġesca": 8044,
      "Ġeager": 8045,
      "ĠLucentio": 8046,
      "Ġclimbing": 8047,
      "Ġgrocery": 8048,
      "Ġgroceries": 8049,
      "Ġlonely": 8050,
      "Ġknees": 8051,
      "Ġdiscovered": 8052,
      "Ġinnovative": 8053,
      "Ġtalent": 8054,
      "Ġyoga": 8055,
      "ĠOtherwise": 8056,
      "Ġsupervisor": 8057,
      "ĠPersonal": 8058,
      "Ġprocedure": 8059,
      "Ġrecommendation": 8060,
      "Ġadapt": 8061,
      "Ġfrozen": 8062,
      "David": 8063,
      "Romeo": 8064,
      "456": 8065,
      "700": 8066,
      "Bring": 8067,
      "Er": 8068,
      "LY": 8069,
      "Man": 8070,
      "Miss": 8071,
      "Mine": 8072,
      "Morning": 8073,
      "Rep": 8074,
      "Sm": 8075,
      "TES": 8076,
      "].": 8077,
      "don": 8078,
      "equ": 8079,
      "icated": 8080,
      "kins": 8081,
      "top": 8082,
      "Ã©": 8083,
      "Ġ!\",": 8084,
      "ĠYeah": 8085,
      "Ġought": 8086,
      "erget": 8087,
      "ainted": 8088,
      "cture": 8089,
      "Ġseas": 8090,
      "Ġward": 8091,
      "Ġaward": 8092,
      "itz": 8093,
      "Ġhy": 8094,
      "Ġhes": 8095,
      "isis": 8096,
      "isters": 8097,
      "stor": 8098,
      "stick": 8099,
      "store": 8100,
      "Ġpi": 8101,
      "Ġdur": 8102,
      "Ġlion": 8103,
      "Ġfired": 8104,
      "Ġinsp": 8105,
      "aste": 8106,
      "urb": 8107,
      "Ġna": 8108,
      "Ġbears": 8109,
      "Ġonion": 8110,
      "Ġripe": 8111,
      "Ġroof": 8112,
      "Ġshining": 8113,
      "commerce": 8114,
      "Ġstones": 8115,
      "ĠLisa": 8116,
      "ĠRom": 8117,
      "ĠRick": 8118,
      "Ġsevent": 8119,
      "Ġsevere": 8120,
      "ĠSaint": 8121,
      "Ġchop": 8122,
      "Ġchron": 8123,
      "Ġjogging": 8124,
      "ĠBaker": 8125,
      "ĠRevolution": 8126,
      "oli": 8127,
      "umer": 8128,
      "Ġvia": 8129,
      "Ġenerget": 8130,
      "ĠPan": 8131,
      "ĠPre": 8132,
      "1000": 8133,
      "Ġmanual": 8134,
      "Ġnood": 8135,
      "Ġbrow": 8136,
      "Ġoffence": 8137,
      "ĠFred": 8138,
      "Ġcosm": 8139,
      "Ġclubs": 8140,
      "ĠGR": 8141,
      "ĠGames": 8142,
      "Ġsheep": 8143,
      "Ġthence": 8144,
      "Ġunable": 8145,
      "ositive": 8146,
      "Ġ120": 8147,
      "Ġstruck": 8148,
      "Ġresign": 8149,
      "Ġreservations": 8150,
      "Ġfacing": 8151,
      "Ġgran": 8152,
      "Ġtradition": 8153,
      "Ġhole": 8154,
      "Ġhandling": 8155,
      "Ġglory": 8156,
      "Ġclassified": 8157,
      "Ġthrone": 8158,
      "Ġpersonnel": 8159,
      "160": 8160,
      "Ġproductive": 8161,
      "367": 8162,
      "ucky": 8163,
      "589": 8164,
      "Ġhealthier": 8165,
      "iao": 8166,
      "Ġcontrary": 8167,
      "Ġsolving": 8168,
      "Ġmusical": 8169,
      "Ġcrisis": 8170,
      "Ġreturning": 8171,
      "Ġreturned": 8172,
      "Ġexplanation": 8173,
      "Ġfactor": 8174,
      "Ġlesson": 8175,
      "iolent": 8176,
      "Ġstairs": 8177,
      "Ġpicking": 8178,
      "Ġpicked": 8179,
      "Ġtraveled": 8180,
      "ĠAlright": 8181,
      "Ġdrivers": 8182,
      "Ġhotels": 8183,
      "Alas": 8184,
      "Ġdraft": 8185,
      "Ġexpectations": 8186,
      "Ġdepartments": 8187,
      "CATES": 8188,
      "Ġmemo": 8189,
      "ĠToky": 8190,
      "Ġjoining": 8191
    },
    "merges": [
      [
        "Ġ",
        "Ġ"
      ],
      [
        "ĠĠ",
        "ĠĠ"
      ],
      [
        "Ġ",
        "\""
      ],
      [
        "ĠĠĠĠ",
        "ĠĠĠĠ"
      ],
      [
        "\"",
        ":"
      ],
      [
        "ĠĠ",
        "Ġ"
      ],
      [
        "ĠĠĠĠ",
        "ĠĠĠ"
      ],
      [
        "i",
        "n"
      ],
      [
        "ĠĠĠĠ",
        "Ġ"
      ],
      [
        "t",
        "e"
      ],
      [
        "\"",
        ","
      ],
      [
        "c",
        "a"
      ],
      [
        "ĠĠĠĠĠĠĠĠ",
        "Ġ"
      ],
      [
        "o",
        "n"
      ],
      [
        "Ġ",
        "["
      ],
      [
        "o",
        "r"
      ],
      [
        "Ġ",
        "{"
      ],
      [
        "Ġ",
        "}"
      ],
      [
        "o",
        "t"
      ],
      [
        "ĠĠĠĠĠĠĠĠ",
        "ĠĠĠĠĠ"
      ],
      [
        "i",
        "on"
      ],
      [
        "e",
        "r"
      ],
      [
        "u",
        "t"
      ],
      [
        "or",
        "i"
      ],
      [
        "]",
        ","
      ],
      [
        "ca",
        "l"
      ],
      [
        "ca",
        "te"
      ],
      [
        "g",
        "ori"
      ],
      [
        "cate",
        "gori"
      ],
      [
        "ĠĠĠĠĠĠĠĠ",
        "ĠĠĠ"
      ],
      [
        "Ġ}",
        ","
      ],
      [
        "categori",
        "cal"
      ],
      [
        "e",
        "m"
      ],
      [
        "a",
        "l"
      ],
      [
        "=",
        "="
      ],
      [
        "Ġ",
        "t"
      ],
      [
        "ot",
        "ion"
      ],
      [
        "a",
        "n"
      ],
      [
        "em",
        "otion"
      ],
      [
        "d",
        "i"
      ],
      [
        "o",
        "m"
      ],
      [
        "a",
        "in"
      ],
      [
        "a",
        "r"
      ],
      [
        "u",
        "e"
      ],
      [
        "o",
        "g"
      ],
      [
        "i",
        "d"
      ],
      [
        "al",
        "og"
      ],
      [
        "di",
        "alog"
      ],
      [
        "c",
        "t"
      ],
      [
        "e",
        "a"
      ],
      [
        "s",
        "p"
      ],
      [
        "c",
        "e"
      ],
      [
        "n",
        "t"
      ],
      [
        "te",
        "r"
      ],
      [
        "d",
        "om"
      ],
      [
        "dialog",
        "ue"
      ],
      [
        "dom",
        "ain"
      ],
      [
        "Ġ",
        "],"
      ],
      [
        "Ġt",
        "h"
      ],
      [
        "ar",
        "y"
      ],
      [
        "in",
        "ary"
      ],
      [
        "a",
        "ct"
      ],
      [
        "an",
        "ce"
      ],
      [
        "o",
        "u"
      ],
      [
        "l",
        "ot"
      ],
      [
        "ea",
        "k"
      ],
      [
        "sp",
        "eak"
      ],
      [
        "te",
        "nt"
      ],
      [
        "n",
        "on"
      ],
      [
        "ut",
        "t"
      ],
      [
        "ut",
        "ter"
      ],
      [
        "act",
        "s"
      ],
      [
        "speak",
        "er"
      ],
      [
        "in",
        "tent"
      ],
      [
        "s",
        "lot"
      ],
      [
        "b",
        "inary"
      ],
      [
        "Ġ\"",
        "\","
      ],
      [
        "Ġ\"",
        "\""
      ],
      [
        "Ġ[",
        "]"
      ],
      [
        "utter",
        "ance"
      ],
      [
        "Ġ[",
        "],"
      ],
      [
        "id",
        "x"
      ],
      [
        "n",
        "o"
      ],
      [
        "==",
        "=="
      ],
      [
        "a",
        "t"
      ],
      [
        "Ġ",
        "emotion"
      ],
      [
        "Ġ",
        "s"
      ],
      [
        "Ġ",
        "w"
      ],
      [
        "u",
        "s"
      ],
      [
        "Ġ",
        "a"
      ],
      [
        "f",
        "or"
      ],
      [
        "v",
        "e"
      ],
      [
        "Ġ",
        "m"
      ],
      [
        "Ġth",
        "e"
      ],
      [
        ".",
        "\","
      ],
      [
        "i",
        "t"
      ],
      [
        "Ġ",
        "h"
      ],
      [
        "Ġ",
        "y"
      ],
      [
        "i",
        "s"
      ],
      [
        "r",
        "e"
      ],
      [
        "s",
        "t"
      ],
      [
        "Ġy",
        "ou"
      ],
      [
        "Ġ",
        "b"
      ],
      [
        "Ġ",
        "I"
      ],
      [
        "y",
        "s"
      ],
      [
        "us",
        "er"
      ],
      [
        "Ġt",
        "o"
      ],
      [
        "te",
        "m"
      ],
      [
        "ys",
        "tem"
      ],
      [
        "in",
        "g"
      ],
      [
        "s",
        "ystem"
      ],
      [
        "e",
        "s"
      ],
      [
        "for",
        "m"
      ],
      [
        "i",
        "l"
      ],
      [
        "in",
        "form"
      ],
      [
        "====",
        "===="
      ],
      [
        "Ġ",
        "p"
      ],
      [
        "Ġ",
        "c"
      ],
      [
        "Ġ",
        "an"
      ],
      [
        "Ġ",
        "o"
      ],
      [
        "Ġ",
        "d"
      ],
      [
        "e",
        "t"
      ],
      [
        "Ġ",
        "l"
      ],
      [
        "t",
        "r"
      ],
      [
        "i",
        "ve"
      ],
      [
        "Ġ",
        "f"
      ],
      [
        "?",
        "\","
      ],
      [
        "Ġ",
        "g"
      ],
      [
        "tr",
        "ain"
      ],
      [
        "q",
        "ue"
      ],
      [
        "e",
        "n"
      ],
      [
        "d",
        "a"
      ],
      [
        "st",
        "ion"
      ],
      [
        "que",
        "stion"
      ],
      [
        "Ġan",
        "d"
      ],
      [
        "Ġ",
        "in"
      ],
      [
        "a",
        "s"
      ],
      [
        "Ġo",
        "f"
      ],
      [
        "il",
        "y"
      ],
      [
        "e",
        "l"
      ],
      [
        "d",
        "at"
      ],
      [
        "Ġ",
        "1"
      ],
      [
        "da",
        "ily"
      ],
      [
        "daily",
        "dialog"
      ],
      [
        "u",
        "r"
      ],
      [
        "Ġ",
        "n"
      ],
      [
        "T",
        "h"
      ],
      [
        "e",
        "d"
      ],
      [
        "Ġ",
        "is"
      ],
      [
        "'",
        "s"
      ],
      [
        "Ġ",
        "it"
      ],
      [
        "#",
        "#"
      ],
      [
        "========",
        "========"
      ],
      [
        "Ġh",
        "a"
      ],
      [
        "s",
        "e"
      ],
      [
        "p",
        "p"
      ],
      [
        "Ġb",
        "e"
      ],
      [
        "o",
        "w"
      ],
      [
        "Ġ",
        "for"
      ],
      [
        "c",
        "h"
      ],
      [
        "es",
        "s"
      ],
      [
        "re",
        "ct"
      ],
      [
        "k",
        "e"
      ],
      [
        "di",
        "rect"
      ],
      [
        "Ġ",
        "ca"
      ],
      [
        "l",
        "e"
      ],
      [
        "direct",
        "ive"
      ],
      [
        "er",
        "e"
      ],
      [
        "l",
        "y"
      ],
      [
        "o",
        "o"
      ],
      [
        "Ġ",
        "on"
      ],
      [
        "a",
        "y"
      ],
      [
        "g",
        "h"
      ],
      [
        "l",
        "d"
      ],
      [
        "Ġth",
        "at"
      ],
      [
        "Ġ",
        "re"
      ],
      [
        "h",
        "a"
      ],
      [
        "ur",
        "n"
      ],
      [
        "Ġ",
        "2"
      ],
      [
        "Ġ",
        "e"
      ],
      [
        "Ġha",
        "ve"
      ],
      [
        "Ġ",
        "r"
      ],
      [
        "Ġ",
        "ar"
      ],
      [
        "v",
        "er"
      ],
      [
        "i",
        "m"
      ],
      [
        "Ġm",
        "e"
      ],
      [
        "in",
        "ess"
      ],
      [
        "g",
        "in"
      ],
      [
        "t",
        "urn"
      ],
      [
        "W",
        "h"
      ],
      [
        "l",
        "it"
      ],
      [
        "Ġ",
        "0"
      ],
      [
        "ori",
        "gin"
      ],
      [
        "origin",
        "al"
      ],
      [
        "Ġ",
        "3"
      ],
      [
        "sp",
        "lit"
      ],
      [
        "turn",
        "s"
      ],
      [
        "as",
        "et"
      ],
      [
        "Ġw",
        "h"
      ],
      [
        "dat",
        "a"
      ],
      [
        "Ġ",
        "]"
      ],
      [
        "domain",
        "s"
      ],
      [
        "dat",
        "aset"
      ],
      [
        "Ġd",
        "o"
      ],
      [
        "pp",
        "iness"
      ],
      [
        "ha",
        "ppiness"
      ],
      [
        "at",
        "ion"
      ],
      [
        "l",
        "l"
      ],
      [
        "'",
        "t"
      ],
      [
        "i",
        "r"
      ],
      [
        "i",
        "f"
      ],
      [
        "it",
        "h"
      ],
      [
        "ou",
        "ld"
      ],
      [
        "c",
        "om"
      ],
      [
        "Ġyou",
        "r"
      ],
      [
        "gh",
        "t"
      ],
      [
        "e",
        "nt"
      ],
      [
        "il",
        "l"
      ],
      [
        "Ġca",
        "n"
      ],
      [
        "Ġar",
        "e"
      ],
      [
        "is",
        "s"
      ],
      [
        "ou",
        "r"
      ],
      [
        "Ġ",
        "al"
      ],
      [
        "Ġ",
        "4"
      ],
      [
        "n",
        "d"
      ],
      [
        "Ġw",
        "ith"
      ],
      [
        "i",
        "c"
      ],
      [
        "Ġw",
        "e"
      ],
      [
        "Ġs",
        "h"
      ],
      [
        "com",
        "m"
      ],
      [
        "Ġp",
        "r"
      ],
      [
        "Ġs",
        "t"
      ],
      [
        "##",
        "#"
      ],
      [
        "Ġn",
        "e"
      ],
      [
        "Ġm",
        "y"
      ],
      [
        "Ġl",
        "i"
      ],
      [
        "Ġ",
        "Th"
      ],
      [
        "iss",
        "ive"
      ],
      [
        "comm",
        "issive"
      ],
      [
        "Ġ",
        "5"
      ],
      [
        "t",
        "h"
      ],
      [
        "i",
        "ght"
      ],
      [
        "om",
        "e"
      ],
      [
        "Ġ",
        "k"
      ],
      [
        "no",
        "w"
      ],
      [
        "Ġ",
        "A"
      ],
      [
        "el",
        "l"
      ],
      [
        "Ġ",
        "di"
      ],
      [
        "Ġth",
        "is"
      ],
      [
        "Ġ",
        "u"
      ],
      [
        "Ġs",
        "o"
      ],
      [
        "Wh",
        "at"
      ],
      [
        "Ġg",
        "o"
      ],
      [
        "oo",
        "d"
      ],
      [
        "us",
        "t"
      ],
      [
        "Ġ",
        "L"
      ],
      [
        "Ġ",
        "6"
      ],
      [
        "a",
        "m"
      ],
      [
        "Ġli",
        "ke"
      ],
      [
        "Ġs",
        "u"
      ],
      [
        "Ġ",
        "R"
      ],
      [
        "Ġs",
        "e"
      ],
      [
        "Ġa",
        "s"
      ],
      [
        "an",
        "t"
      ],
      [
        "c",
        "k"
      ],
      [
        "r",
        "i"
      ],
      [
        "Ġ",
        "S"
      ],
      [
        "Ġa",
        "b"
      ],
      [
        "Ġp",
        "l"
      ],
      [
        "a",
        "te"
      ],
      [
        "o",
        "ut"
      ],
      [
        "Y",
        "ou"
      ],
      [
        "g",
        "e"
      ],
      [
        "a",
        "ke"
      ],
      [
        "Ġc",
        "h"
      ],
      [
        "Ġ",
        "C"
      ],
      [
        "o",
        "p"
      ],
      [
        "Ġn",
        "ot"
      ],
      [
        "Ġ",
        "M"
      ],
      [
        "Ġ",
        "at"
      ],
      [
        "Ġ",
        "j"
      ],
      [
        "Ġh",
        "e"
      ],
      [
        "'",
        "m"
      ],
      [
        "Ġ",
        "7"
      ],
      [
        "Ġ",
        "H"
      ],
      [
        "u",
        "ct"
      ],
      [
        "Ġw",
        "or"
      ],
      [
        "Ġw",
        "ill"
      ],
      [
        "in",
        "k"
      ],
      [
        "u",
        "l"
      ],
      [
        "r",
        "ea"
      ],
      [
        "i",
        "p"
      ],
      [
        "al",
        "ly"
      ],
      [
        "a",
        "d"
      ],
      [
        "s",
        "h"
      ],
      [
        "Ġc",
        "om"
      ],
      [
        "ĠI",
        "n"
      ],
      [
        "i",
        "ce"
      ],
      [
        "ver",
        "y"
      ],
      [
        "h",
        "er"
      ],
      [
        "Ġw",
        "as"
      ],
      [
        "Ġab",
        "out"
      ],
      [
        "Y",
        "es"
      ],
      [
        "Ġe",
        "x"
      ],
      [
        "Ġ",
        "B"
      ],
      [
        "st",
        "r"
      ],
      [
        "if",
        "e"
      ],
      [
        "r",
        "y"
      ],
      [
        "s",
        "s"
      ],
      [
        "Ġpr",
        "o"
      ],
      [
        "Ġ",
        "us"
      ],
      [
        "Ġ",
        "or"
      ],
      [
        "'",
        "ll"
      ],
      [
        "Ġ",
        "8"
      ],
      [
        "Ġ",
        "te"
      ],
      [
        "oo",
        "k"
      ],
      [
        "Ġ",
        "W"
      ],
      [
        "sp",
        "on"
      ],
      [
        "uct",
        "ion"
      ],
      [
        "Ġth",
        "ink"
      ],
      [
        "Ġal",
        "l"
      ],
      [
        "ĠR",
        "e"
      ],
      [
        "Ġb",
        "ut"
      ],
      [
        "Ġk",
        "now"
      ],
      [
        "Ġd",
        "e"
      ],
      [
        "an",
        "d"
      ],
      [
        "str",
        "uction"
      ],
      [
        "an",
        "k"
      ],
      [
        "Ġd",
        "on"
      ],
      [
        "u",
        "re"
      ],
      [
        "in",
        "d"
      ],
      [
        "spon",
        "se"
      ],
      [
        "Ġg",
        "et"
      ],
      [
        "ĠIn",
        "struction"
      ],
      [
        "ĠRe",
        "sponse"
      ],
      [
        "================",
        "========"
      ],
      [
        "================",
        "========================"
      ],
      [
        "Ġc",
        "on"
      ],
      [
        "ĠI",
        "t"
      ],
      [
        "Ġf",
        "r"
      ],
      [
        "en",
        "d"
      ],
      [
        "Ġth",
        "ere"
      ],
      [
        "sh",
        "ip"
      ],
      [
        "o",
        "l"
      ],
      [
        "im",
        "e"
      ],
      [
        "Ġm",
        "or"
      ],
      [
        "a",
        "b"
      ],
      [
        "r",
        "d"
      ],
      [
        "Ġ",
        "9"
      ],
      [
        "u",
        "m"
      ],
      [
        "ation",
        "ship"
      ],
      [
        "Ġs",
        "ome"
      ],
      [
        "!",
        "\","
      ],
      [
        "in",
        "e"
      ],
      [
        "Ġon",
        "e"
      ],
      [
        "Ġwh",
        "at"
      ],
      [
        "R",
        "el"
      ],
      [
        "r",
        "a"
      ],
      [
        "ĠTh",
        "e"
      ],
      [
        "Rel",
        "ationship"
      ],
      [
        "er",
        "s"
      ],
      [
        "ar",
        "t"
      ],
      [
        "Ġg",
        "ood"
      ],
      [
        "Ġ",
        "D"
      ],
      [
        "Th",
        "e"
      ],
      [
        "Ġw",
        "ould"
      ],
      [
        "ĠL",
        "ife"
      ],
      [
        "e",
        "ar"
      ],
      [
        "te",
        "d"
      ],
      [
        "on",
        "e"
      ],
      [
        "Ġan",
        "y"
      ],
      [
        "Ġ",
        "E"
      ],
      [
        "Ġu",
        "p"
      ],
      [
        "u",
        "n"
      ],
      [
        "Ġfr",
        "om"
      ],
      [
        "Ġse",
        "e"
      ],
      [
        "ar",
        "d"
      ],
      [
        "Ġt",
        "ime"
      ],
      [
        "on",
        "g"
      ],
      [
        "f",
        "f"
      ],
      [
        "Th",
        "at"
      ],
      [
        "al",
        "l"
      ],
      [
        "Ġ1",
        "0"
      ],
      [
        "Ġo",
        "ut"
      ],
      [
        "i",
        "g"
      ],
      [
        "Ġcom",
        "p"
      ],
      [
        "ot",
        "her"
      ],
      [
        "Ġ",
        "v"
      ],
      [
        "Ġ",
        "our"
      ],
      [
        "Ġa",
        "m"
      ],
      [
        "'",
        "d"
      ],
      [
        "O",
        "rd"
      ],
      [
        "Ord",
        "inary"
      ],
      [
        "Ġ",
        "en"
      ],
      [
        "q",
        "u"
      ],
      [
        "Ġr",
        "ight"
      ],
      [
        "Ġj",
        "ust"
      ],
      [
        "ea",
        "se"
      ],
      [
        "I",
        "t"
      ],
      [
        "Ġ",
        "very"
      ],
      [
        "Ġw",
        "ant"
      ],
      [
        "Ġm",
        "o"
      ],
      [
        "Ġne",
        "ed"
      ],
      [
        "ou",
        "nd"
      ],
      [
        "Ġl",
        "o"
      ],
      [
        "or",
        "t"
      ],
      [
        "Ġthe",
        "y"
      ],
      [
        "Ġ",
        "sp"
      ],
      [
        "it",
        "y"
      ],
      [
        "Ġwor",
        "k"
      ],
      [
        "Ġh",
        "ere"
      ],
      [
        "N",
        "o"
      ],
      [
        "u",
        "ch"
      ],
      [
        "Ġ",
        "P"
      ],
      [
        "Ġmor",
        "e"
      ],
      [
        "Ġb",
        "y"
      ],
      [
        "Ġto",
        "o"
      ],
      [
        "Ġ",
        "You"
      ],
      [
        "v",
        "al"
      ],
      [
        "Ġ",
        "if"
      ],
      [
        "e",
        "ct"
      ],
      [
        "i",
        "e"
      ],
      [
        "a",
        "ck"
      ],
      [
        "1",
        "0"
      ],
      [
        "Ġm",
        "uch"
      ],
      [
        "is",
        "e"
      ],
      [
        "Ġsh",
        "ould"
      ],
      [
        "Ġm",
        "an"
      ],
      [
        "Ġ",
        "no"
      ],
      [
        "te",
        "st"
      ],
      [
        "Ġb",
        "r"
      ],
      [
        "Ġl",
        "ook"
      ],
      [
        "Ġh",
        "el"
      ],
      [
        "Ġt",
        "ake"
      ],
      [
        "ou",
        "s"
      ],
      [
        "da",
        "y"
      ],
      [
        "an",
        "g"
      ],
      [
        "Ġt",
        "r"
      ],
      [
        "n",
        "ing"
      ],
      [
        "W",
        "ell"
      ],
      [
        "m",
        "ent"
      ],
      [
        "Ġdi",
        "d"
      ],
      [
        "t",
        "ion"
      ],
      [
        "u",
        "d"
      ],
      [
        "a",
        "st"
      ],
      [
        "Ġp",
        "o"
      ],
      [
        "Ġhel",
        "p"
      ],
      [
        "Ġ",
        "T"
      ],
      [
        "c",
        "i"
      ],
      [
        "id",
        "ation"
      ],
      [
        "val",
        "idation"
      ],
      [
        "O",
        "h"
      ],
      [
        "a",
        "g"
      ],
      [
        "Ġth",
        "em"
      ],
      [
        "Ġh",
        "is"
      ],
      [
        "Ġp",
        "re"
      ],
      [
        "Ġre",
        "ally"
      ],
      [
        ".",
        "."
      ],
      [
        "p",
        "r"
      ],
      [
        "ea",
        "d"
      ],
      [
        "Ġ",
        "now"
      ],
      [
        "rea",
        "t"
      ],
      [
        "am",
        "e"
      ],
      [
        "or",
        "k"
      ],
      [
        "Ġf",
        "e"
      ],
      [
        "'",
        "re"
      ],
      [
        "Ġne",
        "w"
      ],
      [
        "ic",
        "k"
      ],
      [
        "Ġgo",
        "ing"
      ],
      [
        "H",
        "ow"
      ],
      [
        "a",
        "ys"
      ],
      [
        "Ġ",
        "What"
      ],
      [
        "Ġh",
        "im"
      ],
      [
        "i",
        "es"
      ],
      [
        "Ġof",
        "f"
      ],
      [
        "Ġm",
        "ake"
      ],
      [
        "Ġ",
        "F"
      ],
      [
        "Ġ1",
        "1"
      ],
      [
        "is",
        "t"
      ],
      [
        "Ġc",
        "o"
      ],
      [
        "Ġm",
        "a"
      ],
      [
        "ea",
        "s"
      ],
      [
        "is",
        "h"
      ],
      [
        "i",
        "ch"
      ],
      [
        "Ġh",
        "er"
      ],
      [
        "re",
        "e"
      ],
      [
        "te",
        "n"
      ],
      [
        "e",
        "p"
      ],
      [
        "Ġpl",
        "ease"
      ],
      [
        "o",
        "b"
      ],
      [
        "Ġ",
        "O"
      ],
      [
        "A",
        "nd"
      ],
      [
        "Ġc",
        "l"
      ],
      [
        "en",
        "ce"
      ],
      [
        "Ġ",
        "G"
      ],
      [
        "a",
        "ge"
      ],
      [
        "ĠW",
        "e"
      ],
      [
        "Ġt",
        "w"
      ],
      [
        "Ġex",
        "p"
      ],
      [
        "Ġ",
        "im"
      ],
      [
        "Ġa",
        "f"
      ],
      [
        "Ġh",
        "ow"
      ],
      [
        "Ġh",
        "as"
      ],
      [
        "ab",
        "le"
      ],
      [
        "Ġa",
        "g"
      ],
      [
        "ou",
        "nt"
      ],
      [
        "Ġbe",
        "en"
      ],
      [
        "Ġg",
        "ive"
      ],
      [
        "Ġth",
        "ou"
      ],
      [
        "Ġ",
        "qu"
      ],
      [
        "Ġ",
        "J"
      ],
      [
        "i",
        "te"
      ],
      [
        "id",
        "e"
      ],
      [
        "Th",
        "ank"
      ],
      [
        "h",
        "ing"
      ],
      [
        "as",
        "s"
      ],
      [
        "Ġp",
        "e"
      ],
      [
        "Ġr",
        "o"
      ],
      [
        "b",
        "l"
      ],
      [
        "i",
        "z"
      ],
      [
        "us",
        "e"
      ],
      [
        "r",
        "ow"
      ],
      [
        "d",
        "er"
      ],
      [
        "a",
        "ce"
      ],
      [
        "Ġb",
        "et"
      ],
      [
        "Ġin",
        "ter"
      ],
      [
        "r",
        "o"
      ],
      [
        "Ġwh",
        "en"
      ],
      [
        "Ġc",
        "ould"
      ],
      [
        "op",
        "le"
      ],
      [
        "ve",
        "n"
      ],
      [
        "Ġa",
        "d"
      ],
      [
        "v",
        "ing"
      ],
      [
        "Ġa",
        "c"
      ],
      [
        "b",
        "le"
      ],
      [
        "Ġa",
        "pp"
      ],
      [
        "Ġo",
        "ver"
      ],
      [
        "Ġha",
        "d"
      ],
      [
        "ea",
        "t"
      ],
      [
        "s",
        "ur"
      ],
      [
        "Ġsh",
        "e"
      ],
      [
        "Ġthe",
        "n"
      ],
      [
        "ir",
        "st"
      ],
      [
        "b",
        "er"
      ],
      [
        "Ġ",
        "cal"
      ],
      [
        "ĠB",
        "ut"
      ],
      [
        "'",
        "ve"
      ],
      [
        "k",
        "ing"
      ],
      [
        "th",
        "ing"
      ],
      [
        "Ġ",
[...]
