{
  "Ġbusinesses": 4211,
  "Ġfamous": 2774,
  "Ġpri": 7718,
  "YC": 5228,
  "eme": 5714,
  "WARWICK": 4248,
  "Ġlibr": 3233,
  "rit": 5958,
  "Ġspell": 5037,
  "ar": 303,
  "ĠSpring": 7975,
  "Ġcamp": 2713,
  "Ġsof": 7380,
  "Ġroyal": 4469,
  "ĠIV": 3906,
  "oney": 972,
  "Ġenem": 4390,
  "new": 2005,
  "Ġtechniques": 5542,
  "iring": 5192,
  "Ġnood": 8135,
  "ined": 2993,
  "Ġslowly": 5222,
  "get": 1228,
  "fit": 6950,
  "enter": 6456,
  "tor": 6299,
  "BIONDELLO": 7141,
  "bed": 3353,
  "ĠMars": 6978,
  "Ġspicy": 4681,
  "ge": 533,
  "A": 37,
  "ĠJones": 6404,
  "aries": 4672,
  "estic": 7397,
  "Ġfear": 2341,
  "ĠIn": 557,
  "asm": 7838,
  "Ġwa": 862,
  "More": 4404,
  "ĠLAU": 5919,
  "ĠFood": 8001,
  "Ġincor": 6334,
  "Ġclub": 4279,
  "Ġperiod": 3489,
  "car": 6954,
  "Ġdiseases": 6328,
  "Ġmarkets": 6566,
  "Ġinform": 1318,
  "Ġtrading": 7999,
  "ĠJul": 3757,
  "Ġliege": 6357,
  "ĠMain": 7724,
  "ir": 470,
  "Ġshad": 4442,
  "Unt": 5955,
  "ucky": 8163,
  "ĠThere": 1214,
  "Ġdowntown": 5499,
  "Ġonline": 2068,
  "Ġcouldn": 2486,
  "Ġhar": 4781,
  "ap": 1484,
  "ĠAut": 5676,
  "Ġespecially": 2845,
  "Ġ10": 643,
  "Ġtell": 848,
  "Mary": 5103,
  "Ġstr": 894,
  "ĠStates": 3093,
  "Ġpills": 7369,
  "Ġlegal": 5307,
  "Ġspeaker": 5276,
  "Ġuntil": 1684,
  "bies": 6090,
  "Ġattack": 5753,
  "NTES": 3710,
  "Ġinput": 3158,
  "Ġstrugg": 6902,
  "ove": 1535,
  "Ġcounsel": 5872,
  "Ġextens": 5424,
  "ĠPaul": 4238,
  "seeing": 6590,
  "Ġfollowing": 1170,
  "Ġguard": 7755,
  "Ġsuite": 7074,
  "Ġpaper": 2034,
  "ization": 3148,
  "ogn": 3314,
  "Ġtotal": 2729,
  "ave": 901,
  "Ġfam": 1160,
  "'re": 726,
  "ĠMiss": 2791,
  "ĠĠĠĠĠĠĠĠĠĠĠĠĠ": 280,
  "ona": 5963,
  "ect": 681,
  "oss": 3288,
  "oom": 3322,
  "Ġdraw": 3318,
  "ĠRoad": 6320,
  "POM": 5600,
  "0": 20,
  "Ġdone": 1335,
  "ird": 3480,
  "erent": 1287,
  "itter": 6961,
  "uction": 579,
  "ority": 4514,
  "Ġpow": 5031,
  "igh": 911,
  "king": 808,
  "Ġevery": 843,
  "Ġsweater": 5128,
  "Ġnice": 1105,
  "orld": 3629,
  "Ġdisappointed": 7333,
  "slot": 335,
  "Hope": 7242,
  "Ġseems": 1761,
  "Ġpeople": 814,
  "Ġfrequent": 5652,
  "Ġimproving": 6922,
  "Ġfuels": 5761,
  "e": 73,
  "Ġer": 3354,
  "Ġidea": 1196,
  "Ġperfectly": 6490,
  "ĠDuring": 7385,
  "Ġslip": 6201,
  "Ġblame": 5993,
  "ig": 645,
  "ĠLe": 6111,
  "ud": 704,
  "'m": 543,
  "Both": 5596,
  "Ġswimming": 3689,
  "Thou": 2860,
  "lic": 4405,
  "ĠMon": 2305,
  "ĠII": 2430,
  "vey": 4097,
  "ulation": 3795,
  "Ah": 2984,
  "Ġexcellent": 2640,
  "ĠâĢľ": 3184,
  "Ġremains": 7875,
  "uter": 7455,
  "Ġlate": 1233,
  "589": 8164,
  "Ġairport": 3761,
  "Ġble": 5717,
  "ather": 1074,
  "Ġconsists": 6823,
  "Ġsaf": 3938,
  "rets": 7059,
  "Ġautomate": 6581,
  "Ġprices": 3047,
  "ĠFinally": 3963,
  "Ġmanage": 3890,
  "Ġowners": 7405,
  "bow": 7811,
  "commissive": 499,
  "ine": 614,
  "Ġski": 5475,
  "ĠClaudio": 7008,
  "ĠRoman": 6972,
  "Ġfeel": 956,
  "ĠYou": 678,
  "Ġshr": 5194,
  "Alas": 8184,
  "Ġsou": 1920,
  "hood": 3649,
  "ious": 1305,
  "Ġhide": 6532,
  "BRUT": 4444,
  "Ġ[]": 339,
  "FLORIZEL": 6685,
  "Ġvirt": 3598,
  "alt": 2753,
  "ĠJapan": 3237,
  "etr": 6455,
  "Ġmistakes": 5172,
  "8": 28,
  "EDWARD": 7672,
  "aurant": 1777,
  "You": 532,
  "6": 26,
  "train": 389,
  "com": 474,
  "Ġcompare": 6118,
  "ames": 2009,
  "Ġgrant": 6819,
  "Ġrestaurants": 5749,
  "But": 928,
  "ĠCould": 1792,
  "Ġintroduce": 3781,
  "ĠF": 737,
  "Ġwork": 670,
  "08": 4955,
  "Ġpattern": 7647,
  "Ġdiffic": 2011,
  "Ġresulting": 6661,
  "UCKING": 4440,
  "Ġchalleng": 3783,
  "ogs": 7822,
  "48": 2761,
  "Ġpurp": 3096,
  "Ġprocedure": 8059,
  "Ġk": 504,
  "redit": 1946,
  "ĠTower": 5855,
  "Ġnews": 1725,
  "Ġate": 6960,
  "Ġgreet": 7582,
  "yr": 6698,
  "Ġstrength": 3219,
  "UMIO": 5486,
  "round": 5187,
  "fe": 2320,
  "DELLO": 7138,
  "Ġagent": 6196,
  "'.\",": 6088,
  "ĠKate": 4583,
  "AUFIDIUS": 6684,
  "Ġfuel": 4271,
  "52": 1375,
  "Ġhath": 1949,
  "Ġwife": 1740,
  "yes": 1568,
  "Ġdisco": 5578,
  "dations": 6880,
  "out": 531,
  "Ġrestr": 7710,
  "Ġben": 1898,
  "Ġopportun": 2518,
  "Ġcalcul": 5925,
  "ict": 1754,
  "Ġru": 3699,
  "Ġpubl": 2236,
  "Ġpron": 5784,
  "UC": 1324,
  "37": 1328,
  "ursday": 4137,
  "rupt": 5140,
  "Ġchick": 2551,
  "Ġ},": 291,
  "ĠBusiness": 6186,
  "Ġscene": 5759,
  "ercise": 7764,
  "ired": 1593,
  "Ġreputation": 6646,
  "Ġveget": 2373,
  "Ġpurchase": 3782,
  "ores": 4741,
  "Ġclothes": 2193,
  "Provost": 5217,
  "Ġcheese": 4181,
  "Ġdangerous": 3928,
  "Ġextend": 7489,
  "TA": 3786,
  "Ġtransport": 3310,
  "UE": 2492,
  "Ġsuccess": 1984,
  "Ġflight": 1933,
  "validation": 711,
  "ĠJames": 6403,
  "Sure": 1036,
  "Ġstops": 6059,
  "cl": 863,
  "ĠCal": 4389,
  "ued": 4967,
  "Ġpace": 7832,
  "Ġdefinition": 6738,
  "Ġrecon": 6243,
  "LIXENES": 5810,
  "Ġworks": 3159,
  "Ġdating": 7195,
  "Ġincreasing": 4014,
  "Ġmoney": 1062,
  "Ġrobot": 5538,
  "Ġplayers": 5629,
  "AI": 5407,
  "Ġordinary": 6751,
  "Ġguess": 1548,
  "Ġdocum": 2501,
  "icle": 1983,
  "uf": 4120,
  "lease": 1232,
  "Wow": 2180,
  "dra": 3412,
  "Ġexist": 5568,
  "Ġwound": 6959,
  "ĠJuly": 6634,
  "Cool": 6153,
  "Ġcolleagues": 4728,
  "ĠChen": 6900,
  "ĠAlex": 6890,
  "Ġattitude": 5467,
  "istr": 3044,
  "ĠâĢĿ": 4474,
  "nol": 1698,
  "Ĥ": 229,
  "esome": 7161,
  "Ġopt": 3683,
  "Ġmotor": 4950,
  "Ġdestroy": 6766,
  "ĠBoth": 6467,
  "lar": 7679,
  "Ġghost": 7968,
  "host": 6693,
  "ack": 683,
  "Ġguarantee": 5268,
  "ĠBolingbroke": 6434,
  "Ġmag": 2473,
  "Ġprof": 1910,
  "audio": 6656,
  "ĠJohnson": 6062,
  "Ġcharge": 1969,
  "Ġatt": 3304,
  "tement": 2909,
  "Ġnature": 3103,
  "edy": 5782,
  "Ġguy": 2766,
  "Ġfreedom": 5631,
  "Provide": 4631,
  "Ġremote": 7300,
  "ĠApp": 4492,
  "Ġtim": 4292,
  "Ġelect": 2257,
  "agon": 6552,
  "ĠMrs": 3740,
  "ervation": 2122,
  "standing": 5998,
  "Ġoccup": 6930,
  "enry": 3491,
  "ĠHo": 3582,
  "Ġtravel": 1912,
  "Ġsongs": 6426,
  "ifor": 5956,
  "Ġnewsp": 3420,
  "Ġgentlem": 3485,
  "icks": 4899,
  "come": 1032,
  "imal": 6539,
  "speak": 327,
  "ĠPark": 4130,
  "Ġrespect": 3937,
  "cient": 3868,
  "30": 1189,
  "Ġserves": 6829,
  "iting": 1236,
  "ĠDid": 2093,
  "Ġdeserved": 7297,
  "employment": 5111,
  "ĠCentral": 7664,
  "Ġbroad": 6350,
  "Ġside": 2192,
  "Ġplane": 3553,
  "Ġdress": 2072,
  "Ġparticularly": 6278,
  "ĠYes": 3188,
  "Ġplease": 749,
  "ĠFrancisco": 7929,
  "itam": 5907,
  "soci": 4495,
  "ĠN": 830,
  "ck": 525,
  "Excellent": 6903,
  "N": 50,
  "000": 1883,
  "Q": 53,
  "Ġspecific": 4162,
  "ĠCD": 7171,
  "head": 2230,
  "dience": 4229,
  "Ġperf": 6559,
  "¦": 104,
  "Ġmom": 1469,
  "ĠGreen": 4280,
  "Ġsched": 5870,
  "ĠShould": 6916,
  "Ġvan": 6549,
  "where": 2162,
  "LY": 8069,
  "Ú": 155,
  "vers": 1153,
  "Ġcompens": 7733,
  "ability": 2784,
  "ĠThose": 5330,
  "Ġones": 2645,
  "Ġsm": 965,
  "eak": 326,
  "ĠMurderer": 5520,
  "Ġhy": 8094,
  "Ġtar": 4269,
  "ĠName": 7605,
  "Ġoutstanding": 7991,
  "Ġactivities": 3152,
  "Ġexport": 6402,
  "Ġdrugs": 7439,
  "Ġrepeat": 7403,
  "Nothing": 3954,
  "Ġpart": 898,
  "Ġlease": 6239,
  "Ġout": 644,
  "Ġeffect": 1849,
  "go": 3344,
  "Ġbody": 2638,
  "Ġseven": 2583,
  "Ġshop": 2582,
  "Ġqual": 1728,
  ",": 16,
  "ald": 5668,
  "Ġappliances": 6266,
  "ĠHope": 6545,
  "ĠCenter": 6894,
  "ĠIntern": 2848,
  "Ġleads": 6736,
  "Ġmodels": 4398,
  "Ġcal": 805,
  "PU": 3931,
  "ilos": 6168,
  "ĠĠĠĠ": 262,
  "Ġtoast": 5609,
  "erves": 5667,
  "ien": 5186,
  "yself": 5061,
  "Ġlook": 692,
  "Ġemphas": 5950,
  "ights": 4824,
  "ogram": 5837,
  "Ġbell": 5115,
  "ORIZ": 6651,
  "Ġby": 676,
  "Ġtemper": 2423,
  "Ġflour": 7294,
  "CLIFFORD": 7660,
  "Ġstreet": 2719,
  "Ġsolve": 4213,
  "Ġtas": 1513,
  "Ġriver": 4951,
  "Ġsentences": 3853,
  "Ġmiddle": 3969,
  "Ġcrisis": 8170,
  "Ġshops": 7776,
  "Ġla": 958,
  "Ġpaying": 4282,
  "itizens": 4536,
  "anta": 7591,
  "cy": 1109,
  "read": 1144,
  "77": 1454,
  "LEO": 3693,
  "AS": 6294,
  "days": 6877,
  "Ġprompt": 8021,
  "Ġenter": 2438,
  "Ġfine": 1325,
  "Ġscholar": 7214,
  "iolent": 8176,
  "âĢ¢": 5741,
  "ESCALUS": 4878,
  "5": 25,
  "Ġhung": 4022,
  "rition": 7952,
  "rew": 3134,
  "Ġadver": 2628,
  "Ġmakes": 1932,
  "Ġinconven": 7934,
  "cad": 6953,
  "urse": 2859,
  "Ġunits": 5800,
  "----": 3511,
  "asing": 7970,
  "Ġalright": 4521,
  "onna": 3680,
  "Ġhire": 4886,
  "Fr": 6155,
  "Ġhospital": 3499,
  "ct": 309,
  "ĠGl": 4759,
  "ĠBank": 4237,
  "Ġall": 581,
  "Ġreg": 1380,
  "ĠBir": 7490,
  "erk": 5712,
  "Ġbet": 785,
  "Ġtypical": 5932,
  "Ġbug": 7747,
  "ings": 831,
  "Mine": 8072,
  "ĠMex": 5121,
  "bul": 5894,
  "Of": 1203,
  "face": 3648,
  "Ġpool": 5062,
  "Ġfruits": 5374,
  "Ġfinal": 3424,
  "ĠEmory": 8015,
  "Four": 7558,
  "Ġcopy": 3506,
  "Ġchanging": 4767,
  "ceive": 5777,
  "Ġsport": 4614,
  "Turn": 7246,
  "Ġpatient": 4136,
  "44": 1735,
  "ind": 591,
  "ribly": 5940,
  "Ġreason": 2115,
  "ense": 5284,
  "Ġchampagne": 7133,
  "Ġ23": 4891,
  "ount": 766,
  "ience": 3155,
  "atically": 5113,
  "Summar": 3991,
  "Name": 2672,
  "Ġheadache": 5356,
  "Ġround": 3546,
  "Ġdecisions": 3881,
  "now": 505,
  "Ġom": 7459,
  "Ġmarks": 7406,
  "Ġattention": 3180,
  "ning": 699,
  "Ġcoll": 2936,
  "Ġdownload": 6563,
  "Ġright": 656,
  "ru": 4039,
  "Ġtag": 5412,
  "Many": 6019,
  "PO": 5660,
  "Ġalive": 5847,
  "Ġofficer": 5698,
  "Ġthunder": 6957,
  "Ġsocial": 2667,
  "Ġyield": 6311,
  "Ġafter": 893,
  "Ġfox": 7604,
  "HORTENSIO": 5223,
  "Ġleading": 4158,
  "ush": 1790,
  "Ġfunny": 4133,
  "Ġassoci": 4548,
  "turn": 449,
  "Ġeggs": 3961,
  "Fin": 1613,
  "Ġtrees": 3560,
  "Ġclassified": 8157,
  "teria": 4923,
  "Ġincreasingly": 6361,
  "Ġfigure": 3472,
  "Ġrefresh": 6657,
  "Ġrude": 6538,
  "Ġsuggestions": 5094,
  "vere": 3919,
  "ll": 468,
  "AU": 2447,
  "Ġbehav": 4092,
  "Pl": 4998,
  "tch": 5001,
  "uted": 4642,
  "Ġsuper": 3405,
  "ĠHereford": 7882,
  "Ġstar": 1741,
  "Ġaisle": 6454,
  "Ġlocal": 2544,
  "Ġintent": 5666,
  "67": 2763,
  "41": 3387,
  "Ġpic": 5116,
  "Ġspending": 5212,
  "ĠJim": 3756,
  "Ġhotel": 2096,
  "Ġcreating": 3361,
  "345": 8017,
  "land": 2571,
  "ĠThey": 1013,
  "Ġoffices": 6332,
  "Ġlibrary": 3397,
  "oint": 1961,
  "Ġsh": 489,
  "def": 4846,
  "Ġotherwise": 5858,
  "Ġfurn": 3262,
  "Ġaway": 1409,
  "Ġpath": 4747,
  "Ġshar": 4414,
  "28": 2345,
  "oriz": 5965,
  "The": 625,
  "stit": 5237,
  "etic": 4383,
  "Ha": 4056,
  "illing": 6318,
  "OR": 1398,
  "ĠRobert": 5593,
  "Ġprice": 1191,
  "Ġart": 1194,
  "Ġgrad": 2382,
  "ars": 1001,
  "Ġeaten": 6926,
  "ĠFrance": 3469,
  "Ġoptim": 3915,
  "Ġlau": 3939,
  "Ġreli": 4274,
  "Ġwithin": 2617,
  "Ġfiles": 5210,
  "Ġit": 411,
  "Ġlistening": 4809,
  "Ġworked": 2607,
  "ĠPersonal": 8058,
  "Ġto": 367,
  "Ġsummary": 7522,
  "ĠFirst": 3267,
  "rest": 5280,
  "Ġgap": 7581,
  "ĠLet": 1161,
  "Ġcra": 2330,
  "40": 1815,
  "ities": 1252,
  "Ġcertain": 2735,
  "Every": 3916,
  "Ġiss": 2365,
  "rah": 6985,
  "Ġsymptoms": 7650,
  "E": 41,
  "Ġlim": 2654,
  "Ġcredit": 2055,
  "Ġpunch": 7368,
  "resident": 5488,
  "Ġforest": 4518,
  "ĠTo": 2479,
  "Ġtr": 698,
  "Ġease": 7049,
  "aked": 6491,
  "ĠInte": 5200,
  "Ġquickly": 2314,
  "airs": 4160,
  "inct": 5507,
  "Ġs": 347,
  "Ġmain": 1619,
  "cker": 5617,
  "Ġemotional": 7823,
  "Ġ60": 6621,
  "Ġeveryday": 4684,
  "Ġpower": 1836,
  "Ġemph": 5863,
  "unte": 6628,
  "HORTENS": 5181,
  "ĠJen": 8004,
  "Ġacting": 6408,
  "Ġcustomer": 1713,
  "Ġdear": 2463,
  "garet": 6523,
  "Ġcrowded": 5650,
  "ĠGener": 7185,
  "256": 7941,
  "ĠX": 3732,
  "Ġfeed": 3738,
  "Ġwhen": 788,
  "ging": 3380,
  "Ġmenu": 3956,
  "Ġcart": 7607,
  "Ġord": 3700,
  "Last": 6947,
  "Ġsolar": 5687,
  "ĠNorfolk": 7646,
  "Ġloans": 7597,
  "Ġsecon": 6804,
  "Ġcity": 1541,
  "Ġresolution": 7228,
  "Ġinstr": 5613,
  "Ġsorry": 1012,
  "Ġocean": 4888,
  "Ġumbrella": 7666,
  "Ġfinally": 3537,
  "Ġwon": 922,
  "ĠNice": 4864,
  "Change": 6919,
  "Ġmultiple": 5022,
  "Ġlist": 1413,
  "Ġprogress": 4624,
  "urt": 5720,
  "Ġfab": 6174,
  "Ġbox": 2594,
  "gment": 7148,
  "anc": 3815,
  "Ġeconomy": 3989,
  "ose": 844,
  "Ġvideo": 4266,
  "Ġdidn": 1056,
  "Ġmod": 1993,
  "Ġbad": 1269,
  "Ġdecide": 3383,
  "Ġsumm": 1791,
  "ĠTy": 5245,
  "ĠMark": 3596,
  "Ġsuff": 7073,
  "R": 54,
  "gu": 7812,
  "Ġselection": 5093,
  "equ": 8079,
  "Ġwash": 3316,
  "Ġmissed": 4870,
  "pet": 4641,
  "ę": 218,
  "ners": 4600,
  "Pray": 7347,
  "Ġcool": 2782,
  "Ġafraid": 1353,
  "Ġthen": 802,
  "eater": 3654,
  "swer": 2286,
  "Ġthee": 1304,
  "Ġ+": 3541,
  "man": 1767,
  "ised": 2183,
  "Ġforced": 7709,
  "Ġsome": 612,
  "Ġfold": 7091,
  "Ġhu": 3084,
  "Ġcomputer": 1509,
  "Ġsummer": 2144,
  "Ġg": 388,
  "ages": 1600,
  "RY": 2655,
  "Ġemployee": 5392,
  "dition": 1142,
  "Ġnewspaper": 3942,
  "Ġstretch": 6134,
  "Ġthousand": 2389,
  "Calculate": 5885,
  "Ġreduction": 7100,
  "Ġlargest": 6415,
  "Ġguide": 4531,
  "Ġimportant": 1307,
  "Ġelse": 1195,
  "Dad": 5141,
  "Ġblind": 6558,
  "Ġskill": 4763,
  "Ġitems": 2524,
  "ĠIsn": 5806,
  "Ġphr": 3724,
  "Ġreceip": 2947,
  "arily": 6784,
  "Ġclothing": 6137,
  "elf": 874,
  "ĠHave": 1634,
  "got": 2145,
  "Ġwarranty": 7022,
  "Ġplant": 3977,
  "ĠO": 751,
  "ord": 864,
  "ĠWith": 3439,
  "ope": 1004,
  "Ġpair": 3173,
  "Ġsort": 2943,
  "Ġcondition": 2404,
  "Ġenvironment": 1957,
  "OK": 937,
  "ô": 181,
  "band": 2158,
  "ea": 310,
  "Ġtelevision": 4947,
  "Ġexpectations": 8186,
  "lenty": 3199,
  "ne": 914,
  "Ġneural": 6619,
  "ana": 5716,
  "yp": 1248,
  "Ġoccasion": 5764,
  "Ġdecided": 2439,
  "See": 3154,
  "Ġtape": 6998,
  "Ġcareer": 4067,
  "Ġhob": 4545,
  "Ġdesert": 7192,
  "Bye": 4509,
  "ured": 2830,
  "Ġdates": 7164,
  "ank": 588,
  "Ġexercising": 7897,
  "Ġtoday": 957,
  "io": 1850,
  "Ġhead": 1644,
  "raph": 2512,
  "Ġholding": 6660,
  "©": 107,
  "imate": 2264,
  "Ġcolle": 1744,
  "ents": 899,
  "Will": 2181,
  "ucted": 7456,
  "all": 642,
  "Ġterrible": 2787,
  "¹": 122,
  "Write": 2360,
  "Ġselling": 5170,
  "Ġwhatever": 4849,
  "Ġextra": 2727,
  "Ġexact": 6185,
  "Ġfoot": 2377,
  "Ġhiking": 7329,
  "ication": 2375,
  "CLAUD": 7665,
  "coh": 5503,
  "acted": 6731,
  "Ġbid": 3323,
  "INCENTIO": 2691,
  "edge": 5286,
  "Ġanyone": 2996,
  "ONIO": 7320,
  "Ġnine": 3594,
  "Ġapologize": 4994,
  "Ġintelligence": 3572,
  "Ġremove": 5996,
  "Ġcheer": 4832,
  "Ó": 148,
  "Ġspir": 3701,
  "OL": 2248,
  "Ġcalling": 2220,
  "O": 51,
  "back": 3525,
  "Ġfew": 1140,
  "Ġmember": 4884,
  "HER": 6089,
  "ilosoph": 6854,
  "gr": 2088,
  "Ġguests": 4686,
  "Ġdel": 1373,
  "ped": 6601,
  "Ġwait": 1583,
  "iddle": 3557,
  "Ġsituation": 3555,
  "Ġadvertisement": 6352,
  "Ġque": 2534,
  "Ġfest": 6047,
  "ver": 444,
  "ĠDo": 913,
  "Being": 7206,
  "Ġfinancial": 3392,
  "Ġproductive": 8161,
  "emon": 6956,
  "Ġbirds": 4691,
  "ĠHappy": 7857,
  "Please": 1985,
  "ance": 323,
  "ĠTr": 2988,
  "Ġparents": 2223,
  "Ġvegetable": 6493,
  "Ġwh": 459,
  "acy": 3141,
  "ills": 1924,
  "Ġtrial": 7302,
  "Ġvalue": 3121,
  "Ġwaves": 6406,
  "ograph": 3291,
  "Ġregard": 4764,
  "Ġclassic": 7099,
  "Ġwhole": 2458,
  "Does": 2773,
  "Ġest": 3026,
  "Ġshot": 5918,
  "PETRUCHIO": 3243,
  "Ġdeserve": 5862,
  "uture": 2298,
  "Ġtill": 3111,
  "Ġsub": 1646,
  "thank": 5008,
  "Ġscared": 5305,
  "Ġhungry": 4354,
  "Br": 4703,
  "Ġobe": 6170,
  "Ġbars": 7963,
  "Ġrid": 4412,
  "Ġlevels": 3624,
  "ake": 534,
  "Ġswitch": 5476,
  "erial": 7746,
  "Ġmedicine": 3409,
  "Ġrelax": 2662,
  "Ġincredi": 4987,
  "ĠTaiwan": 4352,
  "Ġwann": 6421,
  "lligent": 6578,
  "ě": 220,
  "agraph": 5075,
  "Ġjoy": 3115,
  "Ġcorrect": 2446,
  "ĠHotel": 4070,
  "edu": 1682,
  "Ġsign": 1476,
  "ĠDe": 2792,
  "Ġinterp": 7602,
  "Ġmother": 1987,
  "Ġdistr": 7169,
  "ateful": 7076,
  "enty": 2426,
  "cially": 2457,
  "ash": 1734,
  "Ġculture": 4783,
  "Ġhuh": 5939,
  "ready": 1508,
  "Ġmedium": 4500,
  "Ġfall": 2252,
  "Ġdegrees": 5221,
  "Ġarray": 4532,
  "ystem": 369,
  "Marry": 6859,
  "anced": 3542,
  "Ġsen": 947,
  "Ġmerry": 7425,
  "ĠThe": 619,
  "Ġforeign": 2681,
  "û": 188,
  "Ġreasons": 4970,
  "Ġneeded": 3551,
  "Ġfeature": 6006,
  "ĠEducation": 4837,
  "Ġsightseeing": 7224,
  "Ġreduce": 1956,
  "imize": 7843,
  "Ġtraitor": 5804,
  "pted": 4095,
  "Ġassociated": 4954,
  "Then": 1552,
  "È": 137,
  "ĠActually": 4000,
  "Ġdesp": 4206,
  "Ġhop": 3301,
  "Design": 5534,
  "Ġstrengths": 7644,
  "Ġhotels": 8183,
  "Ġtoil": 5970,
  "Ġeach": 1249,
  "ĠWilliam": 6834,
  "TRANIO": 4477,
  "Ġvehicle": 5823,
  "Ġsauce": 4310,
  "Ġcharges": 5742,
  "onder": 4780,
  "Do": 812,
  "gg": 2261,
  "Ġindustry": 3428,
  "Ġpractice": 2851,
  "Ġprovided": 5088,
  "Ġcenter": 4054,
  "Ġframe": 6042,
  "ĠSen": 5851,
  "Ġsomewhere": 4044,
  "Ġethical": 6432,
  "Ġproof": 6109,
  "ĠFl": 4652,
  "With": 2002,
  "Ġabsolutely": 3897,
  "---": 6643,
  "atives": 4396,
  "Ė": 215,
  "Ġbeing": 1404,
  "rat": 3514,
  "um": 610,
  "Ġvisiting": 5081,
  "Ġhttps": 7827,
  "ĠPlease": 1706,
  "ĠSam": 5789,
  "She": 1606,
  "Unfortunately": 7426,
  "sur": 800,
  "Ġgreenhouse": 6273,
  "Ġbright": 3466,
  "Ġeight": 3011,
  "Ġchess": 6112,
  "IO": 991,
  "97": 3051,
  "Ġyes": 1306,
  "Ġmay": 903,
  "Ġfoundation": 7580,
  "Ġwent": 1733,
  "Ý": 158,
  "NOR": 5410,
  "Politics": 3610,
  "Ġknow": 584,
  "Ġsources": 3346,
  "DUKE": 2277,
  "Ġathle": 7801,
  "Ġsevere": 8120,
  "Ġorange": 5334,
  "Ġwrap": 6452,
  "ĵ": 246,
  "Ġbeer": 3735,
  "Ġthence": 8144,
  "Ġseconds": 6855,
  "Ġfoe": 7745,
  "sh": 555,
  "Ġsuppose": 2914,
  "Ġdetail": 4242,
  "cript": 6331,
  "Ġand": 395,
  "Ġcommand": 4497,
  "Ġmiss": 1731,
  "Ġdeal": 2059,
  "dailydialog": 404,
  "ĠOk": 3754,
  "ĠRed": 6622,
  "Ġcontin": 2705,
  "Ġgown": 7705,
  "Ġengine": 2903,
  "Ġfas": 5910,
  "ensive": 6053,
  "Ġocc": 4078,
  "After": 4564,
  "Ġchea": 2417,
  "ĠEvery": 2485,
  "Pe": 4667,
  "Ġcontact": 3183,
  "Sometimes": 5452,
  "Ġpepper": 4719,
  "orts": 2047,
  "Ġoxygen": 7578,
  "Ġfavori": 2378,
  "ĠAlso": 5259,
  "Ġcategories": 6292,
  "Ġima": 4085,
  "ď": 208,
  "Ġformer": 7303,
  "Ġphoto": 6072,
  "å": 166,
  "ince": 1301,
  "ser": 7352,
  ",'": 5182,
  "Ġoperating": 7111,
  "eline": 6380,
  "ĠOffice": 5856,
  "Rome": 7675,
  "Ħ": 231,
  "on": 274,
  "Ġshows": 3924,
  "Ġamong": 3836,
  "pons": 7045,
  "idd": 2653,
  "Ġegg": 3012,
  "Ġclock": 5247,
  "ale": 2316,
  "Ġyoga": 8055,
  "Ġkeeping": 4530,
  "Ġopp": 1997,
  "Ġachie": 4375,
  "Ġokay": 3138,
  "Ġsupplies": 6128,
  "Ġtomatoes": 7301,
  "ĠRome": 2536,
  "twas": 7787,
  "Ġdie": 2987,
  "initely": 2853,
  "reat": 722,
  "Ġidentity": 7125,
  "Ġcannot": 1992,
  "People": 7332,
  "val": 679,
  "uments": 6547,
  "ĠMadam": 4768,
  "oice": 1607,
  "Your": 1666,
  "Ġclick": 7291,
  "Ok": 1084,
  "Æ": 135,
  "Ġrecover": 7103,
  "Ġmany": 918,
  "Ġsleep": 1824,
  "Ě": 219,
  "fessor": 6291,
  "aughter": 8025,
  "ort": 666,
  "ĠDep": 3752,
  "Ġinteresting": 1890,
  "/": 19,
  "pe": 2182,
  "Ġlack": 4485,
  "ationship": 611,
  "Ġliving": 2114,
  "Ġmarried": 2213,
  "ĠBesides": 3518,
  "Ġblack": 2538,
  "your": 7569,
  "ĠThat": 974,
  "jing": 2289,
  "Ġmoved": 3619,
  "Ġmountain": 3960,
  "ĠRevolution": 8126,
  "Ġinternational": 3704,
  "\":": 265,
  "ĠTom": 2504,
  "Ġwarming": 4313,
  "Ġagreed": 6144,
  "Ġwith": 486,
  "sing": 2344,
  "Ġreports": 6905,
  "Ġheld": 4131,
  "Ġcontrib": 4622,
  "Bl": 6593,
  "iao": 8166,
  "ĠPerhaps": 4757,
  "Ġbenefic": 6138,
  "Ġchildren": 1965,
  "actory": 7691,
  "Ġbiggest": 4800,
  "¥": 103,
  "ged": 2928,
  "ð": 177,
  "Ġent": 2172,
  "Ġprofession": 8038,
  "ĠDec": 6627,
  "Ġ26": 7972,
  "ĠRemember": 5464,
  "Uh": 5502,
  "Ġexercise": 2354,
  "MENENIUS": 3201,
  "Third": 5241,
  "Ġnervous": 3930,
  "ried": 1482,
  "Ġsword": 4833,
  "Ġrequires": 4913,
  "Ġwatching": 3048,
  "Ġhast": 3247,
  "Class": 3828,
  "Ġreception": 6485,
  "Ġstars": 4436,
  "Ġholy": 5473,
  "Ġtorn": 6608,
  "Ġtoward": 6702,
  "edule": 2981,
  "ĠB": 565,
  "Ġdriving": 3239,
  "Ġbeh": 2614,
  "ires": 6561,
  "ĉ": 202,
  "Ġreturned": 8172,
  "Ġgrand": 3269,
  "ha": 437,
  "Ġaltern": 5329,
  "SICINIUS": 3859,
  "Ġsusp": 6036,
  "Ġbasketball": 5404,
  "Ġst": 492,
  "of": 3508,
  "Ġdry": 3517,
  "Perfect": 7027,
  "Ġdataset": 6644,
  "Ġflo": 6473,
  "entify": 2113,
  "eaking": 4742,
  "ĠThrough": 6387,
  "Ġemail": 3702,
  "Des": 1940,
  "Ġsmile": 5861,
  "il": 374,
  "li": 1057,
  "Ġmeet": 983,
  "½": 126,
  "ĠAvenue": 7480,
  "32": 1338,
  "M": 49,
  "Ġlimited": 5937,
  "ĠCompany": 3746,
  "Everything": 6359,
  "Ġspo": 4391,
  "HA": 5598,
  "LA": 2224,
  "Ġuncle": 4105,
  "Ø": 153,
  "arewell": 6258,
  "elve": 5154,
  "ĠCindy": 7981,
  "Ġnoisy": 7086,
  "Trans": 6583,
  "lit": 451,
  "Ġcollected": 8027,
  "Ġflower": 5076,
  "Even": 4319,
  "Ġheadline": 7205,
  "Ġfearful": 6837,
  "For": 1303,
  "Ġconference": 4828,
  "Ġmort": 5795,
  "oved": 5057,
  "obile": 7869,
  "Ġjoin": 2552,
  "ph": 1218,
  "Could": 1806,
  "Ġhusband": 2233,
  "ntrod": 7961,
  "Ġlosing": 6254,
  "NIA": 5767,
  "Ġneighbour": 7536,
  "ox": 4357,
  "Ġmount": 3010,
  "riend": 895,
  "Ġinf": 2371,
  "Ġattr": 3448,
  "Â°": 5902,
  "law": 5662,
  "Ġden": 4459,
  "Ġfinish": 1801,
  "ax": 2050,
  "ins": 2110,
  "uck": 1312,
  "oot": 6697,
  "ipe": 2977,
  "Ġass": 1599,
  "Ġfinance": 7098,
  "Ġleis": 6652,
  "Ġscientists": 7785,
  "Ġfr": 600,
  "¡": 99,
  "Since": 4879,
  "ironment": 1892,
  "Ġglory": 8156,
  "Ī": 235,
  "ANTONIO": 7336,
  "Ġapplying": 6005,
  "Ġclos": 3667,
  "Ġpoints": 3393,
  "itchen": 2972,
  "Ġthr": 1172,
  "Ġbehold": 7014,
  "ĠAdditionally": 2452,
  "Ġneither": 5849,
  "Ġesca": 8044,
  "Ġtype": 2035,
  "eat": 799,
  "Ġincl": 1300,
  "ĠMichael": 6289,
  "Ġaff": 2743,
  "Ġfur": 7579,
  "k": 79,
  "eable": 5557,
  "Ġpurse": 7411,
  "ries": 1789,
  "Ġhardware": 7752,
  "Ġapples": 5166,
  "Ġposs": 1496,
  "ĠHow": 820,
  "Ġchose": 7853,
  "idge": 4144,
  "Ġaid": 6165,
  "Ġears": 4463,
  "Ġmaterial": 2875,
  "Ġobjects": 6277,
  "Ġread": 994,
  "Ġsustainable": 7130,
  "Ġlater": 1671,
  "Ġreserved": 7190,
  "Ġdiagno": 7030,
  "power": 7454,
  "ada": 3053,
  "ĠAir": 7071,
  "Ġwanted": 2205,
  "Ġsold": 4415,
  "May": 1246,
  "Ġbread": 3863,
  "chool": 975,
  "Ġimm": 4578,
  "pen": 4999,
  "Ġsin": 4968,
  "Ġhes": 8095,
  "Ġunto": 4049,
  "ĠFr": 1458,
  "Ġstruct": 3639,
  "Ġinstruct": 7837,
  "Ġfix": 2797,
  "ouse": 1060,
  "ery": 1609,
  "eath": 1178,
  "shine": 6808,
  "Ġsix": 2317,
  "Con": 2629,
  "ens": 1108,
  "Ġcleaning": 5047,
  "Ġadm": 2999,
  "Ġenvy": 7208,
  "í": 174,
  "ĠAll": 2324,
  "Ġwhom": 3998,
  "ester": 3847,
  "AN": 1422,
  "Ġhelped": 5161,
  "Ġlend": 5366,
  "utting": 4293,
  "Ġjobs": 3601,
  "Ġveh": 4088,
  "Call": 6771,
  "Ġplaces": 3106,
  "ful": 833,
  "Ġlunch": 2323,
  "Ġenthusi": 7667,
  "Ġgotta": 7871,
  "Ġstorage": 6068,
  "fer": 1155,
  "Ġinterest": 1418,
  "ĠLucy": 6672,
  "Though": 5240,
  "ross": 2138,
  "Pardon": 6690,
  "Ġlanguage": 2023,
  "Wonderful": 7039,
  "Ġmult": 3355,
  "ism": 979,
  "DW": 3020,
  "Ġcour": 889,
  "ĠYuan": 4581,
  "Ġmum": 7825,
  "Ġappropriate": 4538,
  "ingbroke": 6312,
  "Ġfeels": 5428,
  "Ġentertain": 4400,
  "ĠSw": 7482,
  "Ġsandwich": 4949,
  "Ġfilms": 4806,
  "ctors": 7055,
  "Ġsuddenly": 5541,
  "ī": 236,
  "ĠCon": 3447,
  "Ġdarling": 6288,
  "astic": 2503,
  "Ġlower": 3464,
  "Ġreturns": 5916,
  "Ġrobots": 6276,
  "ics": 1243,
  "Ġwide": 3995,
  "Ġinstance": 7221,
  "Ġdays": 1148,
  "Ġgrandmother": 7424,
  "Ġincent": 7836,
  "Ġhearts": 6058,
  "case": 4962,
  "Ġresponsible": 3708,
  "ight": 502,
  "Ġbother": 4076,
  "ĠSet": 6037,
  "81": 3153,
  "Ġthough": 1843,
  "Ġlaw": 2284,
  "alys": 4453,
  "Ġthick": 5840,
  "ram": 1434,
  "ĠSun": 2994,
  "'d": 651,
  "Ģ": 227,
  "Ġtrains": 6413,
  "Ġleisure": 6943,
  "Ġtack": 7052,
  "Ġmer": 3278,
  "Ġlucky": 3226,
  "Ġsays": 2322,
  "Ġnurse": 4889,
  "Ġere": 4513,
  "ym": 2337,
  "to": 879,
  "Ġelection": 5751,
  "Ġguar": 4499,
  "ording": 2649,
  "Ġworkers": 5987,
  "Ġvis": 1374,
  "Create": 2036,
  "Ġach": 2930,
  "irt": 2112,
  "Ġregret": 7614,
  "KATHARINA": 4772,
  "imp": 6386,
  "ATH": 4599,
  "ugust": 6654,
  "Ġcritic": 6934,
  "surance": 2406,
  "Ġhurts": 5484,
  "Ġduty": 3936,
  "Ġje": 6115,
  "Ġofficial": 7020,
  "Ġedge": 6783,
  "Ġforward": 2366,
  "ĠP": 674,
  "Ġleast": 2203,
  "Ġfoods": 4370,
  "obe": 5799,
  "Ġemissions": 4799,
  "Ġrequ": 2013,
  "Ġabsent": 7852,
  "ccer": 8031,
  "Ġpound": 5719,
  "¯": 112,
  "oves": 7044,
  "ĠTwo": 6012,
  "comfort": 7271,
  "PROS": 5494,
  "Ġleave": 1354,
  "Ġdeparture": 7434,
  "IOLAN": 3335,
  "Analyze": 5869,
  "Ġaut": 1722,
  "ply": 4406,
  "Ġgets": 3079,
  "ms": 1333,
  "Ġthinking": 1887,
  "C": 39,
  "alysis": 4729,
  "OS": 4775,
  "ions": 1010,
  "ilton": 8036,
  "Ġlearning": 1707,
  "ĠNorth": 5442,
  "Ġfetch": 7064,
  "ifford": 6317,
  "Ġstrict": 5126,
  "oo": 430,
  "Ġowner": 7509,
  "Believe": 7446,
  "Ġchamber": 7938,
  "Ġstarted": 2214,
  "ott": 6699,
  "|": 96,
  "Ġkno": 5196,
  "ith": 472,
  "Ġplate": 6323,
  "ĠU": 1219,
  "Ġaverage": 3817,
  "Ġpowder": 6676,
  "fall": 6092,
  "Ġtwelve": 5469,
  "Ġimpacts": 7749,
  "Ġvoice": 2935,
  "Def": 6154,
  "Ġminute": 1114,
  "race": 5570,
  "ma": 4119,
  "Ġasleep": 5332,
  "Ġbaby": 3341,
  "Ġfond": 5843,
  "Ġadvanced": 6131,
  "ss": 569,
  "Ġtopic": 4016,
  "Ġbuses": 5472,
  "Ġreb": 6460,
  "Ġ\"": 263,
  "Ġintroduction": 8042,
  "istic": 4438,
  "Ġtwenty": 2593,
  "issive": 498,
  "Ġshalt": 5422,
  "Ġavail": 1977,
  "me": 1270,
  "Ġreliable": 5496,
  "oop": 4852,
  "Ġhands": 2487,
  "Ġcon": 598,
  "Ġcovered": 5133,
  "Ġeco": 7067,
  "Ġhonest": 2605,
  "ustain": 4335,
  "ĠAn": 2185,
  "Ġprincip": 6290,
  "LAR": 4539,
  "Ġtips": 5413,
  "ists": 3036,
  "Er": 8068,
  "Ġfeeling": 2221,
  "4": 24,
  "duct": 7949,
  "G": 43,
  "Ġtw": 758,
  "Ġindeed": 3810,
  "Ġsteps": 3725,
  "aging": 3305,
  "iles": 4782,
  "ese": 1028,
  "Ġ12": 876,
  "ugg": 5685,
  "Ġther": 7257,
  "Ġplanet": 4582,
  "ĠGr": 3407,
  "ques": 3717,
  "Ġview": 2708,
  "ĠOver": 5572,
  "Ġtech": 1507,
  "Ġbaw": 7964,
  "Ġrepresentative": 7921,
  "ccas": 4958,
  "AUFID": 6666,
  "ul": 550,
  "Ġpm": 5238,
  "ses": 1793,
  "Ġwe": 488,
  "Ġoptions": 4663,
  "Ġcarefully": 4985,
  "eased": 5011,
  "OM": 1975,
  "Ġshipment": 4823,
  "Ġcolour": 6999,
  "Ġcoun": 2356,
  "ĠNational": 6198,
  "Ġedit": 6797,
  "Ġappre": 2275,
  "ley": 3417,
  "600": 7142,
  "Ġbeha": 3698,
  "Ġexpens": 1766,
  "Ġpatterns": 4636,
  "Ġvari": 5214,
  "Ġmodel": 2776,
  "Ġinterested": 1878,
  "Ġresponse": 5562,
  "Most": 4427,
  "Ġintegr": 5262,
  "ĠDavid": 4505,
  "XENES": 5769,
  "ĠHere": 1344,
  "ients": 4037,
  "ĠMaybe": 2161,
  "Ġrule": 5095,
  "enger": 4645,
  "Ġconsumption": 7789,
  "ement": 1174,
  "Ġcooking": 3675,
  "PAULINA": 5705,
  "Ġtrade": 3666,
  "ZABETH": 4093,
  "Ġ=": 1947,
  "ĠLucentio": 8046,
  "imin": 5034,
  "arent": 6302,
  "ĝ": 222,
  "alyze": 5438,
  "alia": 4408,
  "Ġconseque": 5450,
  "ĠJan": 5165,
  "ades": 6895,
  "Ġselect": 3576,
  "Ĺ": 250,
  "Ġmail": 3060,
  "Ġfollowed": 7191,
  "Peace": 7946,
  "rd": 608,
  "Ġmemory": 5171,
  "Ġmeeting": 1729,
  "earch": 6190,
  "Ġadventure": 6081,
  "Ġhurry": 3706,
  "Ġloss": 3599,
  "Ġwrite": 2250,
  "Ġwebsite": 2256,
  "Ġgrou": 3061,
  "Ġcitizens": 5281,
  "Ġnu": 6316,
  "Ġproviding": 3856,
  "Ġrather": 2029,
  "ĠMum": 7725,
  "Ġpresents": 7308,
  "Ġeffort": 5700,
  "ĠĠĠĠĠ": 269,
  "þ": 191,
  "reet": 3279,
  "ops": 4825,
  "Ġcir": 3435,
  "Ġleaving": 3126,
  "Ġinstruction": 4363,
  "Ġfarewell": 5755,
  "Ġwars": 6700,
  "upid": 5129,
  "Ġremind": 3759,
  "Ö": 151,
  "ĺ": 251,
  "Ġannoun": 5881,
  "Ġthing": 1295,
  "Ġvitam": 6989,
  "Ġnorth": 6002,
  "TH": 3066,
  "eace": 2442,
  "Ġwhich": 961,
  "ISABELLA": 3626,
  "idden": 5218,
  "Ġstudy": 1753,
  "uth": 2338,
  "kin": 6695,
  "Ġaddress": 2587,
  "Ġsunny": 6571,
  "Ġindependent": 5315,
  "Mr": 2855,
  "Ġproductivity": 7001,
  "SEBASTIAN": 6945,
  "Ġthink": 580,
  "ĠSusan": 4753,
  "Ġtaken": 2580,
  "Ġsever": 1925,
  "Ġprize": 6709,
  "Ġprob": 1881,
  "nic": 4196,
  "ible": 1224,
  "erved": 4171,
  "Ġrecently": 2832,
  "Ġpresident": 5347,
  "Ġmang": 7996,
  "Ġsmell": 4210,
  "Ġlangu": 1770,
  "re": 360,
  "Alright": 3340,
  "Ġchart": 7077,
  "fficient": 6065,
  "Second": 3287,
  "Ġweekend": 1829,
  "gust": 1960,
  "Ġneighbor": 4814,
  "µ": 118,
  "chan": 5515,
  "55": 1701,
  "Ġeth": 4922,
  "see": 5514,
  "Ġcast": 4788,
  "Ġdestination": 7335,
  "Ġlady": 3261,
  "Ġpromote": 5389,
  "Ġsl": 1356,
  "Ġthou": 769,
  "Ġstone": 6889,
  "Wait": 4227,
  "Ġdifferent": 1320,
  "erious": 2125,
  "Ġemerg": 4655,
  "ength": 3875,
  "ĠGPT": 6897,
  "Ġanx": 7163,
  "urry": 6240,
  "Ġprogram": 1747,
  "Ġmiserable": 7779,
  "uct": 546,
  "Ġorganism": 8032,
  "Ġoven": 7834,
  "Ġyog": 5114,
  "ate": 530,
  "Ġsharing": 7276,
  "Ġdigital": 3429,
  "Ġdisapp": 4797,
  "Ġthem": 714,
  "angh": 4198,
  "Ġstudied": 5638,
  "º": 123,
  "Ġmuch": 685,
  "Ġnap": 7708,
  "Ġwatch": 1369,
  "Ġprim": 4489,
  "Ġchallenging": 6285,
  "iron": 1746,
  "Ġannual": 6146,
  "Ġallowed": 4089,
  "Ġreque": 4462,
  "Ġprove": 4002,
  "Ġfollow": 997,
  "ĠFurthermore": 5828,
  "Ġeverything": 1547,
  "good": 6158,
  "Ġconsent": 7384,
  "ĠGermany": 6752,
  "Ġproper": 3049,
  "yond": 5961,
  "Ġkick": 6032,
  "ĠDa": 3636,
  "Ġinv": 1465,
  "ords": 7505,
  "Ġspe": 1112,
  "Ġtables": 7053,
  "Ġhero": 7741,
  "Ġoperations": 7639,
  "_": 67,
  "Ġfailed": 6844,
  "Ġsilent": 7775,
  "anghai": 4223,
  "ust": 515,
  "Ì¦Ì¦Ì¦Ì¦Ì¦Ì¦Ì¦Ì¦Ì¦Ì¦Ì¦Ì¦Ì¦Ì¦Ì¦Ì¦Ì¦Ì¦Ì¦Ì¦Ì¦Ì¦Ì¦Ì¦Ì¦Ì¦Ì¦Ì¦Ì¦Ì¦Ì¦Ì¦": 7436,
  "Ġflexible": 6935,
  "Ġhistory": 2852,
  "Ġpreferences": 8026,
  "ĠImp": 7160,
  "Ġengaging": 6077,
  "Ġcontract": 2718,
  "ound": 664,
  "Ġcrow": 4125,
  "giving": 7678,
  "isis": 8096,
  "Ġrefund": 5435,
  "ctor": 1803,
  "Ġrights": 4978,
  "Ġboyfriend": 5584,
  "Ġgroceries": 8049,
  "Ġfactor": 8174,
  "AB": 2393,
  "mail": 3460,
  "ĠMexico": 6512,
  "Ġwalked": 6737,
  "Ġhigher": 2912,
  "Ġprecious": 6811,
  "abl": 3531,
  "ĠâĢĶ": 5082,
  "13": 1811,
  "ISTA": 5260,
  "Ġmountains": 5938,
  "ICH": 2247,
  "Ġresearch": 2945,
  "Ġfelt": 3490,
  "Ġinno": 3819,
  "âĢĻ": 2259,
  "Ġimmigr": 7654,
  "GLOUCES": 2598,
  "Ġincludes": 4261,
  "commerce": 8114,
  "Ġfare": 3593,
  "I": 45,
  "nce": 2189,
  "ion": 281,
  "Ġdoing": 1272,
  "Ġrange": 3281,
  "Ġstomach": 4563,
  "Ġseem": 1235,
  "Ġpleasant": 4214,
  "itions": 6025,
  "Ġare": 480,
  "Ġpersonnel": 8159,
  "Ġengaged": 6498,
  "Ġdegree": 3959,
  "Ġman": 688,
  "cri": 1187,
  "uries": 6881,
  "Pre": 5027,
  "Ġextension": 7135,
  "ane": 2433,
  "Ġevidence": 5563,
  "Ð": 145,
  "Ġbuy": 1021,
  "berry": 6405,
  "Ġlect": 6612,
  "Ġstudents": 2704,
  "Ġequal": 4808,
  "cated": 2603,
  "Ġmist": 2435,
  "urs": 2779,
  "time": 2017,
  "âĢ": 1098,
  "Ġconcentr": 6436,
  "W": 59,
  "Ġcooked": 5343,
  "ous": 695,
  "ENTIO": 2342,
  "ĠMay": 1274,
  "Ġnoun": 7267,
  "Ġjustice": 5073,
  "Oh": 712,
  "ounter": 5130,
  "Ġhappy": 1587,
  "Ġlikes": 3866,
  "ighted": 7606,
  "Ġbun": 7365,
  "Ġspeech": 3797,
  "itt": 7573,
  "Ġcrimin": 7204,
  "ering": 3004,
  "istry": 6355,
  "Ġpaperwork": 7007,
  "Ġbooked": 4241,
  "umes": 6546,
  "akes": 3965,
  "body": 2288,
  "Ġfat": 3509,
  "Ġlooked": 4065,
  "Ġbrea": 2147,
  "Ġverb": 6009,
  "Ã©": 8083,
  "ele": 7707,
  "ising": 3631,
  "My": 1022,
  "Ġearth": 2822,
  "up": 1271,
  "ĠInternet": 3488,
  "Ġpun": 4850,
  "Ġchoices": 5437,
  "turns": 457,
  "zz": 4777,
  "Ġpolic": 5433,
  "Ġsem": 3578,
  "erate": 6606,
  "o": 83,
  "Ġanaly": 3446,
  "Ġbasket": 4802,
  "Pretty": 6511,
  "ngth": 3171,
  "Ġprofessor": 7417,
  "nis": 4430,
  "pr": 719,
  "ĠWho": 3105,
  "Ġtone": 5715,
  "ey": 5831,
  "ret": 2108,
  "Whatever": 6691,
  "Ġconfident": 5434,
  "Ġarch": 7585,
  "Ġkeen": 7608,
  "ĠCalifornia": 6222,
  "ĠTry": 6896,
  "imately": 5917,
  "oth": 962,
  "Ġinformation": 1504,
  "Ġnote": 3665,
  ".\"": 4732,
  "Char": 7319,
  "Looks": 8035,
  "Ġpatter": 3750,
  "ealous": 6925,
  "iger": 7863,
  "Ġdishes": 3805,
  "ulate": 4611,
  "inform": 375,
  "Ġindepend": 4836,
  "111": 7619,
  "Ġhous": 4409,
  "Ġbeach": 3259,
  "ĠAnother": 7629,
  "ĠOut": 5923,
  "39": 1350,
  "Ġcross": 3792,
  "ume": 2405,
  "Ġforever": 6458,
  "act": 322,
  "Ġcertainly": 2771,
  "Or": 2643,
  "Ġeither": 2202,
  "Ġhist": 2431,
  "anish": 2826,
  "oundation": 7199,
  "ogle": 6450,
  "Ġinviting": 5388,
  "ĠBOL": 4466,
  "There": 1322,
  "Ġmaybe": 2265,
  "ĠĠĠĠĠĠĠĠĠĠĠ": 290,
  "resent": 3681,
  "ull": 1455,
  "going": 6143,
  "Ġmeas": 2963,
  "Ġ3": 455,
  "cel": 1602,
  "Ġthings": 1087,
  "Ġorganiz": 5689,
  "35": 2070,
  "Ġcharged": 6642,
  "CORIOLANUS": 3343,
  "Ġits": 1383,
  "eather": 1837,
  "Ġ<": 3679,
  "Ġdirect": 2028,
  "her": 560,
  "Ġcm": 4124,
  "Ġleaves": 3983,
  "ely": 1636,
  "Ġexpecting": 4660,
  "ĠOutput": 7552,
  "PERO": 5497,
  "ĠEar": 3440,
  "ĠHelen": 7441,
  "Ġgrief": 4608,
  "ulty": 6392,
  "Ġworld": 1201,
  "itch": 1999,
  "Ġchop": 8122,
  "Ġconc": 3205,
  "Ġmarketing": 2970,
  "ongratulations": 4140,
  "Ġse": 522,
  "itude": 1234,
  "Ġmiles": 3988,
  "Ġabs": 2846,
  "ĠMARGAR": 4597,
  "Ġhardly": 5382,
  "reh": 6377,
  "gers": 5898,
  "Are": 1133,
  "Ġcourage": 4901,
  "long": 7566,
  "Ġcalled": 2041,
  "Ġdial": 6110,
  "eal": 3590,
  "CLIFF": 6086,
  "ures": 1417,
  "Ġown": 1317,
  "Ġhandle": 3091,
  "Ġenab": 6119,
  "che": 3248,
  "Ġfairly": 6344,
  "Ġe": 440,
  "Ġsmooth": 4727,
  "reds": 7469,
  "Ġhere": 671,
  "Ġbreak": 1523,
  "ĠHowever": 3913,
  "Ġbooks": 2267,
  "ĠGer": 4006,
  "agne": 6632,
  "urity": 3214,
  "Ġamazing": 3386,
  "Ġarm": 2932,
  "Ġproduction": 4046,
  "ag": 713,
  "Ġappear": 3504,
  "Poor": 6521,
  "ify": 1477,
  "Ġdoesn": 1478,
  "Ġserve": 3826,
  "Ġrunning": 3019,
  "Ġfe": 725,
  "Ġwild": 4075,
  "Ġdad": 5190,
  "Ġwire": 7468,
  "antic": 4854,
  "Ġtrans": 1798,
  "Ġind": 2099,
  "Ġcivil": 5972,
  "Ġpersu": 6083,
  "ock": 1154,
  "list": 7151,
  "ke": 423,
  "Ġtraditional": 3372,
  "Ġmy": 495,
  "ĠGR": 8141,
  "ue": 304,
  "Ġwhy": 1165,
  "Ġint": 5419,
  "Ġaddi": 7392,
  "Ġfax": 4902,
  "cut": 7450,
  "Ġorder": 1117,
  "Ġallow": 1617,
  "Ĵ": 245,
  "Ġcor": 1421,
  "Ġeating": 3270,
  "Ġdepart": 4685,
  "Ġworthy": 6272,
  "Ġwarrant": 4109,
  "Ġtent": 6228,
  "ā": 194,
  "Ġnecessary": 2940,
  "Ġtit": 3312,
  "Ġindivid": 3186,
  "Ġpity": 3400,
  "Ġet": 4778,
  "Ġang": 3402,
  "Ġprepare": 3609,
  "Construct": 4810,
  "cover": 6226,
  "Ġde": 585,
  "ut": 283,
  "Ġsuppli": 7878,
  "ĠDepartment": 5820,
  "ĠAm": 1488,
  "Ġcompan": 2723,
  "Ġdeposit": 2702,
  "Þ": 159,
  "Ġcommunication": 3328,
  "yeah": 5324,
  "Ġadvertisements": 7420,
  "Bring": 8067,
  "ollow": 6864,
  "ĠThursday": 4387,
  "Ġkinds": 2979,
  "ike": 1661,
  "Ġcreative": 3894,
  "Ġwitness": 7923,
  "icious": 2805,
  "ĠCor": 4856,
  "Ġhot": 1841,
  "Ġ%.\",": 7656,
  "Ġrecords": 5397,
  "Ġsent": 2493,
  "rib": 3482,
  "Ġfaster": 3544,
  "lla": 6182,
  "Ġvol": 3663,
  "Ġeverybody": 4939,
  "Peter": 7331,
  "obal": 2878,
  "Ġpicked": 8179,
  "Ġreasonable": 4348,
  "Ġcandidate": 6677,
  "Ġplace": 1106,
  "Put": 7346,
  "ĠAmericans": 6207,
  "Ġedu": 2346,
  "Ġsorrow": 4294,
  "Ġshould": 687,
  "Ġcuisine": 7555,
  "Ġcheek": 6259,
  "ĠPeter": 4694,
  "ĠNo": 1717,
  "ĠHer": 4932,
  "ven": 791,
  "IN": 954,
  "antastic": 3976,
  "Ġasked": 2621,
  "sts": 3074,
  "vious": 3790,
  "Ġdeny": 7792,
  "Ġdisease": 6478,
  "Ġsouls": 7223,
  "Ġtasks": 2823,
  "ining": 4328,
  "arr": 4603,
  "rown": 2210,
  "Ġfle": 6613,
  "Ġspend": 1895,
  "Ġpopulation": 5636,
  "indy": 6395,
  "Ġrot": 6385,
  "ĠSand": 5981,
  "Ġpretty": 1623,
  "Ġdebt": 7986,
  "Um": 5104,
  "ware": 1980,
  "Ġobject": 2793,
  "TIO": 2043,
  "Ġrooms": 3450,
  "Ġsalad": 4032,
  "ALO": 6439,
  "raid": 1345,
  "nown": 4930,
  "Ġitem": 2154,
  "ĠIm": 5669,
  "Ġgreater": 4112,
  "Ġparcel": 7756,
  "ĠC": 536,
  "-": 17,
  "Ġcommer": 5683,
  "Ġdiag": 6034,
  "Ġfrom": 635,
  "ural": 3562,
  "Ġsecurity": 3538,
  "Ġmembers": 4534,
  "ield": 2188,
  "Ġdisag": 7095,
  "Ġtarget": 5178,
  "Ġold": 1241,
  "came": 5455,
  "GON": 5830,
  "Ġscal": 4200,
  "¤": 102,
  "Ġcasual": 6588,
  "Ġtip": 6448,
  "Ġorganizations": 6939,
  "OHN": 7935,
  "spon": 578,
  "Ġsimilar": 4422,
  "PAU": 5661,
  "Relationship": 620,
  "inite": 2612,
  "Her": 4639,
  "Is": 969,
  "eel": 6692,
  "Ġsymbol": 5824,
  "õ": 182,
  "Ġlef": 1561,
  "Ġsomeone": 1805,
  "Ġaffect": 3879,
  "ased": 3045,
  "Ġcolors": 3778,
  "³": 116,
  "Yet": 4323,
  "Ġnegoti": 4929,
  "ST": 3843,
  "ledge": 2948,
  "Ġreview": 3886,
  "Ġagainst": 2285,
  "ux": 5775,
  "Ġprime": 7478,
  "Ġdr": 933,
  "Ġhall": 5608,
  "ilies": 5780,
  "Ġtask": 3802,
  "ĠBut": 806,
  "Ğ": 223,
  "Ġcritical": 7925,
  "ORD": 4621,
  "Ġsay": 881,
  "[SEP]": 3,
  "ertifi": 4106,
  "oys": 6951,
  "Ġwel": 7962,
  "input": 6098,
  "Ġco": 740,
  "ı": 242,
  "Ġnet": 2535,
  "ers": 621,
  "Ġbreathing": 6832,
  "Ġreflect": 6420,
  "Ġmarriage": 3964,
  "atory": 6233,
  "Ġnext": 1007,
  "Ġadult": 6815,
  "Ġskiing": 7798,
  "Ġawhile": 7572,
  "Ġinclude": 2027,
  "wards": 3017,
  "less": 1853,
  "Ġmouth": 4123,
  "conom": 2128,
  "Ġ],": 318,
  "sually": 6603,
  "Ġcomm": 1094,
  "Ġgoes": 2668,
  "INCE": 6271,
  "Ġfit": 2186,
  "Ġtrem": 7183,
  "Ġrent": 2402,
  "Ġcampaigns": 7330,
  "LIET": 3705,
  "oman": 4199,
  "own": 857,
  "Ġquar": 3421,
  "Ġpresent": 1839,
  "Ġaccountant": 6568,
  "Ġproud": 3974,
  "Ġentertainment": 5944,
  "Ġpreparing": 7527,
  "Ġspring": 4003,
  "Their": 7386,
  "mer": 2132,
  "cester": 6483,
  "ĠGu": 5524,
  "Ġsec": 1690,
  "ball": 2336,
  "Ġfries": 6795,
  "Ġson": 1918,
  "ĠOnce": 5012,
  "Ġa": 350,
  "alf": 1799,
  "im": 445,
  "Ġdem": 2829,
  "ĠFin": 3306,
  "elt": 3135,
  "ĠAfter": 2575,
  "ĠLu": 3909,
  "Ġreduced": 7413,
  "ĠEmotion": 1357,
  "Ġdriver": 3707,
  "ĠI": 364,
  "ĠThis": 1025,
  "wh": 1290,
  "did": 6022,
  "ĠCom": 4178,
  "Ġfaith": 4439,
  "ainted": 8088,
  "Ġball": 2795,
  "estival": 7293,
  "Ġhighness": 7194,
  "Ġdiscussion": 7637,
  "Ġcharacteristics": 6353,
  "Ġadvantages": 4445,
  "yer": 7255,
  "ĠThanks": 1867,
  "dialogue": 316,
  "Keep": 7345,
  "GLO": 2588,
  "water": 7458,
  "Ġsick": 2631,
  "aunt": 7518,
  "Ġgrow": 1942,
  "ath": 1049,
  "ither": 1520,
  "{": 95,
  "Ġcategori": 5711,
  "Ġteachers": 7412,
  "Ġcities": 4821,
  "Ġeager": 8045,
  "Ġgame": 2067,
  "Ġquiet": 3218,
  "Â": 131,
  "Ġtraveling": 4945,
  "Ġpro": 570,
  "ES": 1431,
  "zy": 2448,
  "On": 2812,
  "Ġcollabor": 6212,
  "ometimes": 3089,
  "ic": 487,
  "Like": 4166,
  "ĠSmith": 2176,
  "Ġproperty": 6356,
  "we": 1002,
  "É": 138,
  "Ġput": 1163,
  "Ġ\"\"": 338,
  "ied": 2384,
  "pha": 7453,
  "men": 4057,
  "Ġjo": 4754,
  "Ġpartic": 2333,
  "Ġhours": 1647,
  "RANDA": 7786,
  "Ġroot": 6720,
  "Ġcareful": 3375,
  "Ġforth": 3971,
  "uts": 5713,
  "Ġplum": 6973,
  "Ġdollar": 4687,
  "utterance": 340,
  "Ġpositive": 3384,
  "BRUTUS": 4449,
  "Ġaccepted": 5378,
  "Ġunderstanding": 3137,
  "Ġbrush": 7501,
  "gage": 2394,
  "Ġstrateg": 3196,
  "ĠMAR": 4522,
  "Ġchannels": 7438,
  "Ġdivorce": 6760,
  "FID": 6596,
  "Ġ28": 6882,
  "LI": 1894,
  "ĠUnited": 2961,
  "Ġpop": 1768,
  "anation": 7821,
  "Ġmar": 1316,
  "ily": 399,
  "ors": 1120,
  "ĠAirl": 7586,
  "Ġsection": 4177,
  "ĠFair": 8002,
  "Ġtechnologies": 6217,
  "Ġconfused": 7891,
  "ters": 1134,
  "Ġstock": 2746,
  "Ġrelaxing": 6744,
  "Ġaccom": 4938,
  "âĢĿ": 4343,
  "Ġnovel": 3850,
  "Ġcate": 7355,
  "Ġwilling": 3617,
  "aylor": 6706,
  "rote": 5924,
  "resh": 5236,
  "Ġbottom": 4595,
  "Ġprop": 1967,
  "Ġintr": 2573,
  "Ġlearned": 3454,
  "ky": 5107,
  "istent": 7157,
  "rief": 3014,
  "Ġclassical": 6410,
  "Ġtyp": 1348,
  "54": 1321,
  "Ġleg": 2663,
  "Ġfaced": 7893,
  "Ġappeal": 6816,
  "Ġpayment": 3268,
  "Ġdo": 464,
  "ka": 7951,
  "way": 964,
  "alse": 3559,
  "Ġr": 442,
  "Ġworst": 5333,
  "Ġsoft": 2142,
  "Ġcur": 1447,
  "ĠĠ": 261,
  "Ġsolving": 8168,
  "Ġended": 5430,
  "ib": 1439,
  "ĠAng": 3404,
  "Ġvow": 7495,
  "Ġactions": 6330,
  "Ġcame": 2039,
  "ĠGloucester": 7231,
  "Ġconsult": 6262,
  "Ġlately": 4011,
  "Ġfalling": 6066,
  "ups": 7953,
  "Ġte": 575,
  "Ġmix": 4232,
  "Ġend": 1371,
  "Ġ9": 609,
  "ĠPal": 7738,
  "ĠDespite": 8039,
  "Cate": 6856,
  "Ġcorre": 7758,
  "Ġfamilies": 6480,
  "Ġenjoyed": 3521,
  "irement": 6618,
  "Ġcamer": 3403,
  "stances": 7697,
  "Ġspect": 7994,
  "domains": 462,
  "ases": 4969,
  "ipment": 3327,
  "Ġsister": 2734,
  "Ġgetting": 1563,
  "[UNK]": 0,
  "Ġpoem": 3638,
  "ucation": 4511,
  "qu": 655,
  "Ġins": 1573,
  "UMNIA": 5814,
  "ertainly": 1581,
  "ves": 1169,
  "Ġbackground": 4831,
  "Ġadd": 1660,
  "MAR": 5359,
  "ches": 4332,
  "BENVOLIO": 5451,
  "Ġmut": 6788,
  "Ġends": 5577,
  "P": 52,
  "Ġfoc": 2989,
  "pper": 3264,
  "So": 1046,
  "ition": 1297,
  "ny": 1198,
  ".'": 5271,
  "Ġfigures": 6210,
  "Res": 7809,
  "...": 1030,
  "ĠExam": 7901,
  "And": 752,
  "Ġut": 4059,
  "Ġstep": 3151,
  "oted": 4737,
  "Ġpoll": 2749,
  "Ġcook": 1807,
  "Ġlicense": 4464,
  "Ġ)\",": 7795,
  "Ġvirtual": 5880,
  "system": 371,
  "Ġ8": 574,
  "Ġlay": 3157,
  "Ġbenef": 2032,
  "Ġhello": 6789,
  "ay": 432,
  "roll": 6556,
  "Ġel": 892,
  "Ġavailable": 2080,
  "sw": 1944,
  "Ġnone": 3780,
  "Ġitself": 4331,
  "Ġknown": 3216,
  "Ġsur": 1550,
  "Ġscheduled": 7235,
  "Ġappointment": 2515,
  "Ġcell": 3339,
  "Ġtime": 638,
  "ĠUniversity": 3957,
  "cense": 4245,
  "ĠAss": 6462,
  "57": 1311,
  "ittle": 1009,
  "Ġbrow": 8136,
  "ĠAnna": 7630,
  "cement": 7563,
  "Ġcomfort": 2567,
  "istration": 4813,
  "Ġappreciate": 2565,
  "niversary": 6655,
  "Ġrock": 4468,
  "Ġtransaction": 6828,
  "Ġcancel": 4435,
  "yle": 5058,
  "Ġplaced": 8012,
  "Ġcompar": 6044,
  "Ġ!": 5059,
  "Ġconvers": 3751,
  "Ġsnacks": 7655,
  "ĠGe": 4132,
  "Ġeat": 1331,
  "Ġwhose": 3908,
  "75": 2471,
  "Ġbe": 417,
  "Ġtrip": 2054,
  "ĠGree": 6048,
  "À": 129,
  "Ġfitting": 7769,
  "die": 7462,
  "Ġwear": 2003,
  "Ġcompany": 959,
  "Ġwriting": 2913,
  "Ġcountry": 1631,
  "g": 75,
  "Ġtrea": 4197,
  "Ġaw": 2871,
  "Ġplatform": 4246,
  "Ġresist": 6562,
  "Tell": 3040,
  "CA": 2296,
  "Ġintern": 1873,
  "ĠLaw": 7279,
  "Shall": 3071,
  "Ġstrike": 5575,
  "Ġstones": 8115,
  "Ġmagical": 7109,
  "rees": 2540,
  "Ġcoin": 7600,
  "Ġhyp": 6870,
  "Ġpressure": 3808,
  "Ġcomputers": 3453,
  "Ġprefer": 1743,
  "ĠMs": 3616,
  "ft": 1572,
  "Ġoff": 735,
  "Ġregistered": 5941,
  "Ġnerv": 3907,
  "Ġliqu": 5722,
  "Ġvie": 2696,
  "Ġgrea": 3006,
  "Ġau": 2908,
  "Ġhonour": 2728,
  "comm": 490,
  "Ġgoodbye": 5920,
  "LAND": 5646,
  "Ġoutside": 2661,
  "ĠEd": 2397,
  "Ġmagazine": 5176,
  "iel": 1702,
  "ë": 172,
  "usi": 7360,
  "vid": 1273,
  "ĠAnn": 5583,
  "cks": 3303,
  "draw": 3929,
  "ished": 3170,
  "ĸ": 249,
  "Ġsentence": 1104,
  "DUCH": 4957,
  "Ġstud": 1185,
  "Ġamb": 7735,
  "appy": 4373,
  "rod": 7391,
  "Ġmon": 1017,
  "anch": 3345,
  "Just": 1804,
  "Ġquite": 1351,
  "Ġoverseas": 6218,
  "ter": 314,
  "are": 907,
  "ianca": 7515,
  "Ġwashed": 7115,
  "Ġjoking": 7544,
  "Ġhaven": 1519,
  "Ġcollection": 7107,
  "Ġdefinitely": 3378,
  "Ġ==": 6782,
  "Ġ[": 275,
  "Tw": 2741,
  "ĠThree": 7719,
  "ites": 4086,
  "Ġnotice": 2755,
  "Ġsenior": 7750,
  "aid": 7247,
  "ancing": 3462,
  "dr": 7248,
  "ignior": 6327,
  "Ġpackage": 3874,
  "ory": 1043,
  "uation": 2630,
  "Ġprep": 2156,
  "lies": 5552,
  "Ġloyal": 4793,
  "Ġbar": 2126,
  "Ġeye": 2626,
  "cell": 5905,
  "ĠAf": 5197,
  "os": 851,
  "Ġpage": 3697,
  "Ġour": 649,
  "oy": 835,
  "Ġimproved": 4402,
  "ĠJane": 4281,
  "49": 1917,
  "Ġrules": 4099,
  "Ġcompu": 1343,
  "Ġshut": 7846,
  "nces": 5664,
  "epend": 4151,
  "Ġshoe": 7760,
  "Ġinspect": 4851,
  "Ġasking": 3595,
  "Ġneck": 4302,
  "Ġsearch": 2874,
  "CAMILLO": 5100,
  "par": 4074,
  "Ġmathem": 5592,
  "Ġopinion": 3644,
  "Ġwounds": 7694,
  "Ć": 199,
  "S": 55,
  "Ġhousehold": 6822,
  "Ġoffers": 4239,
  "elling": 7379,
  "Ġinternal": 7210,
  "Ġcrack": 6665,
  "Ġmotiv": 5135,
  "ĠEx": 2563,
  "Ġbus": 818,
  "Ġuniverse": 7520,
  "Ġmaid": 4467,
  "orter": 5028,
  "ĠEm": 1199,
  "kes": 1078,
  "Ġimmedi": 3837,
  "Ġpat": 2590,
  "Ġwalking": 4040,
  "Ġknowledge": 3078,
  "fore": 888,
  "wick": 3501,
  "folk": 7041,
  "ines": 1673,
  "olute": 2592,
  "erob": 7461,
  "Ġflowers": 3457,
  "Ġgent": 2102,
  "Ġfar": 1456,
  "Ġhoney": 3714,
  "ile": 906,
  "Bob": 6770,
  "These": 4025,
  "agement": 4575,
  "93": 3474,
  "Ġcan": 479,
  "J": 46,
  "Ġtransp": 7418,
  "Ġfixed": 5219,
  "F": 42,
  "Summarize": 4055,
  "Ġnor": 2092,
  "Ġfrozen": 8062,
  "Anything": 4219,
  "ĠAny": 2347,
  "lent": 1645,
  "Ġcharacters": 4218,
  "ico": 5421,
  "Hmm": 3841,
  "Ġmas": 4743,
  "ĠCitizen": 4303,
  "Ġcompletely": 3877,
  "Ġonion": 8110,
  "Ġboard": 3000,
  "otion": 297,
  "Ġbreeze": 6871,
  "Determine": 7920,
  "ĠMus": 6390,
  "Messenger": 7808,
  "STINGS": 5882,
  "ĠMart": 6977,
  "Ġforms": 4620,
  "stion": 393,
  "Ġpost": 2398,
  "Ġshake": 6909,
  "Ġcomponents": 4953,
  "ble": 795,
  "usband": 2217,
  "ason": 6176,
  "Should": 4159,
  "AM": 3203,
  "orth": 5508,
  "Ġtu": 7051,
  "CT": 7671,
  "Ġwritten": 3899,
  "Ġslow": 3174,
  "smoking": 5833,
  "Ġlaid": 6125,
  "pping": 1640,
  "Ġshirt": 3999,
  "ination": 2802,
  "cast": 4740,
  "Ġglasses": 6670,
  "ople": 790,
  "Ġtran": 2756,
  "ĠIndia": 5942,
  "Thy": 4148,
  "Ġhidden": 7363,
  "Ġbreathe": 6345,
  "Actually": 2788,
  "ould": 473,
  "ids": 5556,
  "Ġmel": 5457,
  "ility": 1468,
  "Ġ16": 1721,
  "Ġsince": 1921,
  "Ġshout": 7847,
  "Ġbadly": 7196,
  "ĠBet": 6466,
  "ĠLike": 7589,
  "Ġspare": 4392,
  "nical": 6160,
  "Į": 239,
  "erable": 7155,
  "Ġbea": 1308,
  "Ġexhibition": 6757,
  "work": 1649,
  "Ġhang": 3302,
  "Ġbattery": 7237,
  "Ġever": 1436,
  "ians": 4452,
  "Ì¦Ì¦": 1390,
  "Ġgrateful": 7751,
  "Ġimpressive": 6074,
  "ĠGet": 3951,
  "ESCA": 4867,
  "Ġbot": 2560,
  "Ġneg": 4234,
  "Was": 4377,
  "Ġdirector": 6204,
  "ĠLin": 3549,
  "icro": 7275,
  "ve": 352,
  "Ġant": 3632,
  "cause": 1071,
  "Ġban": 4172,
  "Ġwor": 547,
  "Ġchecks": 7096,
  "urch": 4204,
  "Ġbu": 847,
  "Morning": 8073,
  "ĠMaster": 6114,
  "cycle": 7876,
  "Ġjest": 7726,
  "[PAD]": 1,
  "Ġcomple": 1718,
  "Ġsmoking": 3573,
  "Ġpolice": 3571,
  "Ġfishing": 7532,
  "ĠCol": 5036,
  "Sug": 4290,
  "isten": 5235,
  "Ġkid": 1872,
  "Ġdam": 2796,
  "Ġapplied": 6265,
  "Ġsignificant": 5269,
  "Ġdepends": 3443,
  "rench": 2685,
  "Only": 5398,
  "ple": 1123,
  "rency": 4834,
  "Ġstol": 6031,
  "ixty": 6586,
  "Perhaps": 4736,
  "aiter": 7896,
  "very": 559,
  "Ġcam": 7584,
  "ĠCA": 5678,
  "Ġsat": 2508,
  "Ġfire": 2804,
  "Ġterr": 4658,
  "Ġcharac": 2293,
  "ING": 1355,
  "ĠLord": 3124,
  "Ġcrime": 6000,
  "ffice": 4755,
  "Ġfavorite": 2441,
  "Ġradio": 5258,
  "ğ": 224,
  "Ġpercent": 3505,
  "Õ": 150,
  ";": 31,
  "Ġmine": 1794,
  "Ġcanst": 6800,
  "cen": 3083,
  "Ġcups": 6929,
  "ĠIts": 6983,
  "Ġinstructions": 5354,
  "John": 3321,
  "ff": 640,
  "Ġth": 319,
  "Ġwet": 5456,
  "ĠPol": 7995,
  "Ġlie": 3076,
  "č": 206,
  "Ġpump": 6703,
  "ĠAB": 6388,
  "Ġwearing": 5021,
  "Ġalgorith": 2562,
  "Ġsigns": 6484,
  "gent": 3788,
  "Ġproposal": 6831,
  "utt": 330,
  "Ġteam": 1864,
  "Ġcoffee": 1911,
  "ok": 4038,
  "Ġsharp": 6080,
  "Ġretirement": 6842,
  "Ġlowest": 7531,
  "Ġlon": 4299,
  "az": 1708,
  "elcome": 1392,
  "Ġea": 3612,
  "Ġsupervisor": 8057,
  "Ġthirst": 7690,
  "Ġdar": 4607,
  "ent": 477,
  "Ġ(": 1382,
  "bec": 5859,
  "Ġexamples": 6412,
  "ees": 2731,
  "Ġchocolate": 4163,
  "ĠLinda": 7539,
  "Ġfloor": 2683,
  "ĠOlymp": 4367,
  "ĠUse": 5745,
  "ĠAcc": 3820,
  "Ġemp": 4903,
  "Ġroads": 8041,
  "Ġrisk": 3876,
  "84": 1515,
  "ur": 405,
  "Ġrequir": 4502,
  "Ġchoice": 2348,
  "inate": 7955,
  "Ġexpensive": 1959,
  "Ġcri": 5909,
  "Ġmathematics": 7931,
  "pes": 5322,
  "94": 2383,
  "ach": 1050,
  "vest": 2361,
  "Ġask": 1082,
  "Ġhabits": 6178,
  "Ġrele": 5420,
  "erve": 2566,
  "79": 1598,
  "ĠDan": 5010,
  "Ġreal": 1603,
  "Ġmean": 1040,
  "Ġalgorithm": 3487,
  "Ġstuck": 5848,
  "ced": 2299,
  "Ġgold": 3775,
  "ĠâĢĺ": 5479,
  "Ġspeed": 2839,
  "Ġfriar": 6587,
  "cra": 5896,
  "ĠEnjoy": 6145,
  "Ġsilver": 6004,
  "eech": 2821,
  "Ġusual": 4976,
  "ĠMake": 3821,
  "ĠMargaret": 7318,
  "FLORIZ": 6679,
  "Ġarrive": 2738,
  "Ġblockchain": 7423,
  "Ġas": 523,
  "Ġwho": 935,
  "Ġincluding": 2885,
  "Ġclubs": 8140,
  "Ġisn": 1471,
  "Ġcauses": 5975,
  "Ġunus": 6723,
  "Ġpe": 777,
  "xy": 5960,
  "What": 512,
  "Ġgirls": 3838,
  "ĠDoctor": 7093,
  "erv": 878,
  "a": 69,
  "Ġconnect": 2818,
  "ĠA": 506,
  "Ġfill": 1693,
  "uring": 1852,
  "Ġmeters": 5117,
  "Ġphys": 2968,
  "ody": 1562,
  "Ġlaunch": 5928,
  "Mom": 4705,
  "Ġhandsome": 7317,
  "Ġmp": 7695,
  "most": 1834,
  "1": 21,
  "Ġsovere": 5118,
  "Ġfriend": 967,
  "erica": 1584,
  "Ġunder": 1045,
  "cle": 2020,
  "ino": 6161,
  "Ġcomfortable": 3456,
  "Ġcustoms": 8016,
  "Ġkeeps": 4529,
  "Ġdis": 981,
  "isor": 6701,
  "Ġregulations": 6055,
  "Ġassist": 2686,
  "Ì¦Ì¦Ì¦Ì¦Ì¦Ì¦Ì¦Ì¦": 3185,
  "Ġchange": 1288,
  "Ġpaint": 4090,
  "ifications": 5752,
  "Ġbrain": 6046,
  "Ġclients": 4863,
  "Ġnow": 721,
  "Ġ\"\",": 337,
  "Ġhearing": 6129,
  "mark": 4378,
  "Ġsun": 1751,
  "ESS": 4421,
  "Ġdarkness": 7780,
  "ĠMin": 7855,
  "Ġfruit": 3370,
  "Ġpin": 5512,
  "ĠMom": 4858,
  "Ġsixty": 7465,
  "ences": 6257,
  "erem": 5554,
  "ĠQ": 3515,
  "forts": 6308,
  "may": 7349,
  "Ġsurely": 5628,
  "<": 32,
  "123": 7613,
  "70": 1576,
  "ĠCar": 4001,
  "Ġover": 797,
  "QUE": 2673,
  "terial": 2835,
  "Ġthoughts": 4801,
  "Ġdance": 2516,
  "igr": 5621,
  "Ġcute": 6169,
  "fear": 3021,
  "LE": 5599,
  "}": 97,
  "45": 2652,
  "Ġconvenience": 7220,
  "\\": 64,
  "Ġloud": 4675,
  "actly": 2123,
  "Ġfind": 908,
  "Ġpollution": 3507,
  "UT": 4194,
  "86": 1498,
  "ĠJoe": 5573,
  "ch": 420,
  "air": 2131,
  "Ġreading": 2831,
  "mission": 6526,
  "ĠCo": 5519,
  "Ġrecommen": 5812,
  "Ġnearby": 4805,
  "Ġ300": 6798,
  "Sir": 3052,
  "Ġrain": 2272,
  "Ġsmo": 2432,
  "ol": 604,
  "Ġgrowth": 4262,
  "Ġscener": 7122,
  "easons": 4208,
  "ĠGentleman": 7390,
  "ĠWhy": 1638,
  "Ġchem": 4254,
  "Ġroom": 941,
  "ĠAN": 5723,
  "Ġidi": 7305,
  "ufidius": 7940,
  "llig": 2517,
  "83": 3039,
  "Ġtopics": 6342,
  "Ġsee": 636,
  "Ġthat": 435,
  "Ġadapt": 8061,
  "Ġcollege": 2664,
  "ec": 1538,
  "Ġnum": 1044,
  "Ġpract": 2197,
  "Ġspace": 2765,
  "Ġju": 3550,
  "ĠAr": 3087,
  "rough": 4882,
  "Ġcards": 3854,
  "Ġroll": 3891,
  "Ġurgent": 4771,
  "05": 4702,
  "cal": 286,
  "ocol": 3471,
  "Ġhither": 4745,
  "Ġbehind": 3309,
  "ld": 434,
  "spite": 6786,
  "Ġenerget": 8130,
  "Ġpowerful": 4217,
  "Ġsoon": 1342,
  "Ġpurpose": 3411,
  "ral": 3650,
  "uilding": 7800,
  "Ġliterature": 5883,
  "Ń": 260,
  "»": 124,
  "ĠOctober": 5733,
  "Ġestabl": 4989,
  "Ġdispl": 4264,
  "ource": 7844,
  "ĠCalifor": 6079,
  "Ġemploy": 1840,
  "Ġbi": 3846,
  "Ġbuilding": 2917,
  "64": 1658,
  "ler": 6093,
  "Ġexperiment": 6591,
  "ori": 284,
  "Ġminimum": 5206,
  "Ġgenerate": 4272,
  "Ġline": 1953,
  "bro": 5601,
  "Ġconsidered": 5301,
  "ission": 3357,
  "Ġbut": 583,
  "Ġenvironmental": 4725,
  "ford": 2416,
  "ierce": 7624,
  "Ġexc": 2956,
  "Ġgorge": 7472,
  "Ġdeli": 1904,
  "pon": 3993,
  "happy": 7268,
  "Ġar": 443,
  "Ġdidst": 7387,
  "Ġbreath": 3395,
  "ĠMike": 4649,
  "hold": 4073,
  "rea": 551,
  "ĠBol": 5985,
  "Tourism": 1068,
  "Ġcy": 4330,
  "Ġ": 225,
  "riter": 7481,
  "free": 6775,
  "Ġmention": 3329,
  "ling": 2170,
  "FL": 5597,
  "Ġscr": 6487,
  "Ġbes": 4360,
  "ĠShanghai": 4476,
  "dies": 2694,
  "ffect": 6548,
  "Ġextr": 1876,
  "Ġestim": 7113,
  "Ġwhite": 2627,
  "ĠIntelligence": 5827,
  "Ġsudden": 4141,
  "Ġfocus": 3728,
  "Ġcustomers": 2407,
  "Ġstarts": 5017,
  "MON": 7143,
  "Ġfeatures": 3385,
  "Ġcough": 6611,
  "Ġtypically": 3985,
  "Ľ": 254,
  "Ġshall": 1118,
  "Ġbeauty": 3198,
  "Ġstop": 1703,
  "Ġdir": 7072,
  "Ġbab": 2857,
  "Ġcarbon": 4654,
  "ĠThings": 7070,
  "21": 2624,
  "Servant": 7810,
  "iency": 4429,
  "Ġquestion": 1489,
  "ting": 1000,
  "Ġpa": 1200,
  "Ġsale": 2703,
  "Ġfif": 2657,
  "Ġbottle": 4243,
  "hing": 775,
  "under": 4921,
  "Ġmal": 5415,
  "ow": 418,
  "Madam": 6516,
  "ĠNew": 2064,
  "Ġnecklace": 7328,
  "izza": 4562,
  "ĠSan": 7170,
  "Ġtechnol": 1891,
  "ual": 1486,
  "Ġpromise": 3095,
  "Ġgraph": 7306,
  "1000": 8133,
  "idi": 5361,
  "Ġdost": 4971,
  "FF": 5890,
  "Ord": 652,
  "Ġevents": 3744,
  "ĠUni": 2204,
  "Ġmechan": 6707,
  "Ġneed": 663,
  "Ġcomplex": 3338,
  "ĠWould": 1628,
  "Ġapplications": 3926,
  "Ġdivor": 4875,
  "Ġdiffer": 2258,
  ".": 18,
  "ruption": 7440,
  "ĠDuke": 4934,
  "700": 8066,
  "ĠCons": 7483,
  "word": 3628,
  "Ġours": 7181,
  "ara": 7463,
  "shop": 6393,
  "Ġconfirm": 4187,
  "Ġavoid": 4134,
  "Ġpromoted": 8022,
  "Ġsilk": 6349,
  "Ġcoming": 1635,
  "ĠWest": 6813,
  "Ġstrong": 2380,
  "Ġappetite": 7546,
  "GR": 3311,
  "Ġhear": 1229,
  "Ġquick": 1772,
  "iful": 1596,
  "æ": 167,
  "Ġdistrib": 5348,
  "ĠH": 545,
  "Ġtrib": 6564,
  "ĠHigh": 7486,
  "spir": 3885,
  "12": 1284,
  "mo": 2253,
  "ans": 885,
  "ron": 3388,
  "Ġinsights": 6486,
  "Ġestablished": 7796,
  "Ġstate": 2976,
  "b": 70,
  "ille": 6534,
  "Ġquit": 3755,
  "Ġhomes": 7651,
  "mate": 6525,
  "Congratulations": 5706,
  "aving": 7449,
  "Ġche": 930,
  "Ġbicy": 6610,
  "tention": 3067,
  "isted": 7261,
  "gest": 1555,
  "ÿ": 192,
  "coming": 3232,
  "Ġon": 431,
  "llow": 968,
  "'.": 4731,
  "Ġra": 1979,
  "ats": 2733,
  "Ġfresh": 2523,
  "abor": 4613,
  "Ġwondering": 3377,
  "Ġexci": 2995,
  "Ġ90": 5521,
  "ĠJust": 1935,
  "icles": 3973,
  "speaker": 333,
  "Ġcup": 2541,
  "Ġinstead": 2991,
  "Qu": 5891,
  "Ġz": 3289,
  "Ġcorpor": 5531,
  "Ġunknown": 7394,
  "Ġpartner": 6560,
  "Ġprince": 3438,
  "56": 1275,
  "ĠSeptember": 6433,
  "Ġinst": 2744,
  "9": 29,
  "Ġcopies": 6580,
  "nal": 7253,
  "Ġsce": 4201,
  "iment": 3215,
  "Ġtotally": 4910,
  "ednes": 4786,
  "ĠEDWARD": 3419,
  "port": 3081,
  "vince": 6781,
  "Ġdragon": 6741,
  "80": 1540,
  "pre": 4640,
  "Ġjudge": 6933,
  "SIC": 3785,
  "CLARENCE": 5358,
  "ren": 1261,
  "Ġecosystem": 7936,
  "spect": 1963,
  "aign": 4355,
  "how": 3142,
  "ĠOf": 4615,
  "Ġcooperation": 6851,
  "Ġpurch": 2959,
  "hib": 4168,
  "oriol": 6230,
  "Ġparticular": 2886,
  "erry": 5109,
  "Ġunt": 1444,
  "rist": 2477,
  "Ġourselves": 4756,
  "Ġsel": 2895,
  "GREMIO": 5762,
  "Ġ13": 1029,
  "Ġsaving": 3799,
  "Ġser": 1885,
  "ċ": 204,
  "ĠĠĠ": 266,
  "Ġthinks": 6041,
  "Ġcom": 556,
  "Ġbatter": 5908,
  "--------": 7116,
  "Ġaction": 3468,
  "Ġva": 2242,
  "cuse": 1368,
  "Ġparagraph": 5297,
  "ĠClifford": 6576,
  "Ġworth": 2444,
  "ĠSally": 7723,
  "Culture": 5656,
  "19": 1210,
  "Exactly": 4944,
  "Ġstudying": 3295,
  "====": 344,
  "eave": 6866,
  "Ġmen": 1847,
  "Ġmatter": 1795,
  "char": 5845,
  "Ġfish": 2736,
  "//": 6366,
  "ĠKing": 3374,
  "'ll": 573,
  "Ġdancing": 4460,
  "Ġconsum": 3892,
  "Ġprec": 7502,
  "m": 81,
  "Ġproperly": 5877,
  "sential": 4312,
  "vity": 7818,
  "put": 1858,
  "Ġoperate": 7419,
  ",--": 3038,
  "Ġneighbors": 7912,
  "Cl": 2498,
  "ĠPerson": 5728,
  "haps": 2468,
  "Ġunl": 6472,
  "anus": 7054,
  "Ġplants": 4026,
  "Ġcontent": 2591,
  "Ġreality": 6340,
  "\"": 6,
  "Ġlam": 4174,
  "400": 6518,
  "tt": 4818,
  "Ġfort": 3416,
  "Ġproceed": 7730,
  "Ġchanged": 3427,
  "surprise": 845,
  "Ġpacked": 6739,
  "ĠSe": 6806,
  "Ġbro": 2578,
  "Ġunexpected": 7033,
  "ĠPre": 8132,
  "Ġbutton": 5825,
  "ĠPut": 7499,
  "Ġuniversity": 2679,
  "Ġdepartment": 2209,
  "Ġne": 494,
  "Ġkeep": 1113,
  "Ġconsidering": 7414,
  "over": 2231,
  "Ġoriginal": 4433,
  "Ġnearest": 7106,
  "ilar": 3864,
  "ce": 312,
  "Ġdream": 3113,
  "95": 3379,
  "Ġruns": 6826,
  "His": 3208,
  "iday": 1786,
  "Ġinvol": 2476,
  "ually": 943,
  "Ġmanaged": 7003,
  "ĠSorry": 5157,
  "Ġstudent": 2785,
  "olk": 4977,
  "Ġunusual": 7239,
  "Ġrecomm": 2037,
  "lf": 7043,
  "Ġcurrent": 2483,
  "Ġplayed": 4798,
  "Ġsavings": 4876,
  "Ġtrying": 2318,
  "d": 72,
  "Ġ100": 2866,
  "Ġliber": 5850,
  "Ġsalt": 5381,
  "Ġwhile": 1225,
  "id": 306,
  "ĠFred": 8138,
  "Ġprofess": 2751,
  "hi": 7452,
  "Ġback": 866,
  "Ġerrors": 7233,
  "Ġdiv": 3465,
  "Ġmusic": 1818,
  "00": 815,
  "Ġchoose": 2349,
  "Ġeast": 7784,
  "Ġapprox": 8037,
  "Ġregular": 2750,
  "Ġmetaph": 5432,
  "Ġwaiting": 2586,
  "z": 94,
  "ase": 1866,
  "Ġshadow": 7229,
  "Ġresults": 3240,
  "Ġadvent": 4580,
  "ĠSarah": 6148,
  "ĠRomeo": 3878,
  "ĠNext": 6050,
  "Ġrelevant": 5654,
  "Ġmanual": 8134,
  "Ġgroups": 6213,
  "j": 78,
  "Ġgross": 7065,
  "ĠCap": 6038,
  "Ġev": 4750,
  "Never": 4735,
  "aker": 5813,
  "Da": 7556,
  "NORTHUMBER": 6084,
  "Ġvehicles": 6674,
  "tail": 7047,
  "ĠM": 539,
  "oston": 7000,
  "lligence": 2887,
  "aret": 3770,
  "Ġwebsites": 6067,
  "Ġrequire": 2938,
  "ned": 2834,
  "Ġhate": 2372,
  "ected": 2175,
  "Ġspa": 7289,
  "RENCE": 5892,
  "eless": 5285,
  "Ġhand": 1090,
  "Ġnuts": 7648,
  "ĠMonica": 5641,
  "stood": 7575,
  "ĠTell": 4830,
  "Ġought": 8086,
  "Ġpromotion": 3873,
  "reen": 1739,
  "ashed": 6734,
  "BR": 2739,
  "Before": 6135,
  "Ġdouble": 3086,
  "lest": 4890,
  "Ġlines": 5239,
  "ĠDes": 6252,
  "Ġvoting": 7496,
  "fortunately": 4665,
  "Ġlift": 6105,
  "Ġstandard": 3872,
  "ó": 180,
  "ĠAre": 1592,
  "osit": 2412,
  "ĠStreet": 4345,
  "dis": 1854,
  "Ġanalyze": 5819,
  "termine": 7899,
  "Ġsp": 668,
  "Ġtie": 4965,
  "03": 5272,
  "ee": 986,
  "Ġvillain": 5756,
  "Ġdata": 1395,
  "ĠItalian": 5373,
  "Ġh": 357,
  "dentify": 3009,
  "Ġhea": 1524,
  "Ġdoctor": 2136,
  "Thanks": 1268,
  "ua": 5231,
  "Ġgrocery": 8048,
  "sca": 4541,
  "ications": 6347,
  "Ġpredictions": 6747,
  "Ġagre": 3350,
  "Ġrace": 5674,
  "sol": 7683,
  "ilities": 2803,
  "Ġbecoming": 4411,
  "Ġtry": 976,
  "Ġharm": 3845,
  "Ġextremely": 6585,
  "Ġweek": 880,
  "ote": 2520,
  "Ġheight": 5468,
  "ĠHi": 6624,
  "Ġadmin": 6841,
  "eral": 5964,
  "Ġscience": 3745,
  "Ġdirectly": 4946,
  "ev": 3364,
  "Bet": 6594,
  "ancial": 3178,
  "Ġda": 3592,
  "Ġsecretary": 5051,
  "Ġuse": 934,
  "Ġbrother": 1828,
  "Three": 4080,
  "Ġhas": 763,
  "tw": 3769,
  "Ġpass": 1363,
  "ado": 6116,
  "Î": 143,
  "ri": 526,
  "Ġpap": 5252,
  "LAN": 2709,
  "Ġorganized": 6577,
  "31": 2388,
  "Ġtastes": 6132,
  "'t": 469,
  "Gr": 6689,
  "Ġagreement": 4770,
  "Ġcause": 2462,
  "Ġjud": 4574,
  "Ġatmosphere": 3690,
  "ato": 5029,
  "Ġtale": 6449,
  "Ġreward": 6384,
  "Ġstations": 7377,
  "Ġelectric": 3857,
  "ker": 5145,
  "Ġstorms": 7632,
  "Ġunemployment": 5339,
  "ĠHast": 6980,
  "Ġride": 3581,
  "Ġuni": 1781,
  "Ġnetwork": 2951,
  "Ġp": 377,
  "Ġallows": 3763,
  "Ġunderstand": 1379,
  "Ġtheme": 4979,
  "Ġbasis": 6338,
  "vel": 929,
  "Sh": 1812,
  "cas": 3613,
  "Ġwildlife": 7919,
  "ĠMont": 5198,
  "day": 696,
  "Ġusing": 1586,
  "Ġexpl": 1825,
  "Ġchall": 2966,
  "Ġgiven": 1327,
  "cent": 1085,
  "ĠSometimes": 4205,
  "ĠCAPULET": 6682,
  "\".": 2642,
  "Our": 2465,
  "Ġcons": 1227,
  "Ġnative": 7840,
  "Ġoutput": 4829,
  "Ġtall": 3814,
  "Ġgames": 3056,
  "atures": 5414,
  "Ġsmaller": 4585,
  "iss": 481,
  "Ġplays": 6543,
  "Ġrelated": 3741,
  "cc": 2019,
  "Ġalready": 1512,
  "Ġtrends": 5826,
  "fast": 3041,
  "Ġmeasure": 4812,
  "Ġmax": 4066,
  "ĠAfrica": 6514,
  "Get": 5549,
  "Ġyour": 475,
  "Ġur": 3431,
  "á": 162,
  "angzhou": 7866,
  "Ġoper": 2790,
  "Ġo": 380,
  "Ġassess": 7202,
  "PETRUCH": 3242,
  "asted": 6967,
  "Ġtablespoons": 8028,
  "gin": 448,
  "Ġdoor": 2715,
  "Ł": 258,
  "Ġsubject": 2960,
  "ĠAdd": 5579,
  "US": 1027,
  "ography": 4991,
  "Ġactually": 2118,
  "15": 1802,
  "ĠOkay": 6078,
  "uty": 3413,
  "Ġkept": 3669,
  "Ġseas": 8090,
  "Ġplain": 5035,
  "ĠMARGARET": 4598,
  "Ġbears": 8109,
  "mond": 6600,
  "Ġkidding": 3351,
  "59": 1372,
  "ĠMarcius": 5050,
  "Ġtesting": 5811,
  "Ġexperi": 1388,
  "Ġolder": 5384,
  "Ġafternoon": 1453,
  "ĠSichuan": 7976,
  "ĠBaker": 8125,
  "Ġprobably": 2087,
  "Ġyellow": 5149,
  "Ġbecome": 2255,
  "Ġarr": 1629,
  "Ġsnack": 4593,
  "Ġhired": 7574,
  "riving": 5465,
  "Ġ15": 1264,
  "Ġdeclare": 6750,
  "Here": 1259,
  "27": 2328,
  "School": 1642,
  "Ġliter": 4386,
  "ments": 2143,
  "Ġdesigns": 7524,
  "t": 88,
  "Ġcele": 3570,
  "Ġver": 3653,
  "Ġstyle": 2982,
  "Ġcop": 2613,
  "Ġlies": 4547,
  "ohn": 1534,
  "Ġbag": 1945,
  "Ġnoon": 5730,
  "Ġhealthier": 8165,
  "ĠOxford": 7743,
  "Ġforgotten": 7218,
  "vis": 7568,
  "87": 2215,
  "Ġdeb": 6394,
  "ENES": 5379,
  "Ġli": 496,
  "Ġpiece": 2971,
  "Ġfilm": 3285,
  "Ġafford": 3668,
  "Ġj": 541,
  "UCH": 2569,
  "FRI": 5185,
  "10": 684,
  "Ġhook": 7826,
  "ER": 1366,
  "Ġcousin": 3920,
  "Ġsupposed": 2634,
  "Ġhe": 542,
  "Ġcomplain": 4695,
  "Ġgam": 5844,
  "Ġshy": 6540,
  "ET": 1423,
  "Maybe": 2042,
  "Ġbeg": 4925,
  "Ġancient": 4382,
  "Ġchecking": 4156,
  "ZAB": 4072,
  "Ġprescription": 4693,
  "Ġv": 648,
  "Ġham": 6536,
  "Ġcents": 4316,
  "Ġefficiently": 8043,
  "ough": 828,
  "Ġgran": 8152,
  "Ġsheet": 7090,
  "Ġyuan": 2207,
  "ditional": 2650,
  "categorical": 292,
  "ĠMusic": 7662,
  "Ġvaluable": 6085,
  "PRINCE": 6283,
  "Ġburn": 3772,
  "ĠMonday": 3128,
  "Ġinde": 3479,
  "Ġmagn": 7774,
  "IUS": 1691,
  "Ġparty": 1681,
  "Ġsuggest": 2597,
  "Ġdaily": 4114,
  "Ġsym": 4202,
  "aturday": 2759,
  "Ġprom": 1543,
  "Ġdinner": 1626,
  "Ġchron": 8123,
  "ght": 476,
  "Ġident": 4472,
  "Ġshare": 3358,
  "Ġfrag": 7179,
  "Ġteams": 5580,
  "ĠS": 527,
  "Ġbathroom": 4696,
  "Besides": 7035,
  "Ġrob": 2745,
  "cribe": 1665,
  "valuate": 6852,
  "68": 2777,
  "Ġbanking": 7309,
  "als": 1255,
  "Ġchang": 1929,
  "she": 6625,
  "Ġovertime": 4104,
  "ris": 5773,
  "Ġdiss": 6892,
  "CAMI": 5089,
  "Ġnav": 7166,
  "test": 690,
  "Ġexcuse": 4859,
  "dd": 2843,
  "Ġwilt": 5030,
  "have": 5287,
  "David": 8063,
  "Ġjoining": 8191,
  "hatever": 3458,
  "Ġslave": 6648,
  "even": 5320,
  "Ġseveral": 1970,
  "Ġwra": 7467,
  "Ġwarm": 2937,
  "Ġcommun": 2097,
  "Ġterribly": 6056,
  "ĠLear": 6244,
  "olar": 4791,
  "Ġgo": 513,
  "Ġvery": 660,
  "ended": 6397,
  "Edit": 5548,
  "Ġenh": 7864,
  "ĠY": 1065,
  "÷": 184,
  "string": 7491,
  "eries": 6372,
  "Ġsatisfied": 4769,
  "unch": 1715,
  "olutely": 2833,
  "Ġfriendship": 5527,
  "th": 501,
  "Ġlittle": 1020,
  "Ġfacts": 7835,
  "Ġmoist": 7992,
  "Ġcommission": 5041,
  "Ġhappiness": 6028,
  "Ġ.": 2572,
  "BAST": 6921,
  "ĠHe": 931,
  "am": 518,
  "Ġhorror": 6424,
  "Out": 4845,
  "Ġmeetings": 6126,
  "Ġlion": 8103,
  "Ġsafety": 4637,
  "Ġoperation": 7907,
  "ik": 4169,
  "ificial": 2841,
  "Ġnoticed": 4633,
  "hand": 5899,
  "As": 1530,
  "Ġprovid": 2121,
  "ond": 1674,
  "ĠAM": 7720,
  "Ġdistance": 5303,
  "Ġmis": 2828,
  "AR": 1026,
  "Ġputting": 5781,
  "Ġunique": 4051,
  "Ġcompliment": 7640,
  "Ġtransfer": 2925,
  "90": 2001,
  "Ġloan": 3849,
  "AUTOLYCUS": 5318,
  "Romeo": 8064,
  "04": 5319,
  "uits": 4961,
  "Ġtra": 1015,
  "ĠHealth": 7094,
  "ude": 988,
  "Ġdrop": 3519,
  "Ġaside": 7280,
  "LINA": 5658,
  "..": 718,
  "Ġsing": 1712,
  "ipping": 5056,
  "ish": 743,
  "Ġdioxide": 5979,
  "ĠELIZABETH": 4094,
  "Ġturning": 6411,
  "Ġlanguages": 4628,
  "tion": 703,
  "Ġgym": 4147,
  "ĠAngel": 3540,
  "Ġaddition": 4980,
  "Ġbanish": 4673,
  "Ġmost": 960,
  "47": 2842,
  "Ġre": 436,
  "Ġopen": 1479,
  "Ġduke": 3935,
  "Ġinsurance": 2574,
  "Ġcats": 5516,
  "Ġtried": 2678,
  "Ġtakes": 2579,
  "intent": 334,
  "ree": 746,
  "Health": 2311,
  "Ġprimary": 5313,
  "ĠAs": 2104,
  "¿": 128,
  "Ġwind": 1750,
  "Ġregister": 4048,
  "room": 1897,
  "known": 5362,
  "Ġfacial": 5803,
  "Ġmeth": 2867,
  "ĠCertificate": 7980,
  "Ġbreaks": 5431,
  "Ġbeautiful": 1654,
  "ork": 724,
  "ext": 3167,
  "ological": 7324,
  "Ġhur": 2045,
  "ANT": 5808,
  "Ġbloody": 5213,
  "Ġwea": 7466,
  "Ġeve": 1337,
  "Attitude": 1362,
  "WIC": 4226,
  "uit": 2480,
  "Ġcharity": 6821,
  "ython": 5099,
  "Ġlab": 3055,
  "Ġ-": 1400,
  "au": 1688,
  "ild": 995,
  "ds": 1069,
  "ĠEarth": 3880,
  "Ġpol": 1764,
  "ĠE": 632,
  "Ġactive": 4554,
  "Ġgun": 6796,
  "ef": 923,
  "mas": 3073,
  "Ġworry": 1668,
  "Ü": 157,
  "Ġcentral": 6836,
  "ĠT": 708,
  "ĠWarwick": 3709,
  "65": 3064,
  "Ġjealous": 6979,
  "Ġblood": 1954,
  "Ġholiday": 3296,
  "Ġpainting": 4475,
  "onom": 7460,
  "ĠHa": 4715,
  "Ġfamiliar": 4498,
  "ex": 2369,
  "Ġdust": 6104,
  "zhou": 6680,
  "Ġchild": 1462,
  "Ġexperiences": 5043,
  "Ġchance": 2164,
  "Ġyou": 362,
  "Ġresign": 8149,
  "ĠTra": 5162,
  "Ġnamed": 5615,
  "Ġtired": 2507,
  "be": 850,
  "Ġdiet": 2933,
  "Ġconfess": 6060,
  "Ġpu": 1931,
  "ķ": 248,
  "Ġkitchen": 3013,
  "sm": 6602,
  "Ġlists": 7883,
  "onest": 2350,
  "Ġextrem": 3727,
  "Ġna": 8108,
  "ĠPl": 3104,
  "Ġtypes": 3742,
  "Ġstarving": 7889,
  "Ġgather": 5282,
  "Ġlimit": 4591,
  "Ġav": 1632,
  "Ġtransferred": 7535,
  "origin": 453,
  "ĠAh": 7479,
  "Five": 6595,
  "dern": 3534,
  "Ġappropri": 4309,
  "Ġfashion": 3315,
  "ĠDr": 3979,
  "Ġdig": 3058,
  "LEONTES": 3712,
  "DU": 2269,
  "Ġknew": 3046,
  "Ġkeys": 5738,
  "Ġgrew": 7471,
  "ifi": 1604,
  "Ġsweet": 2196,
  "DEL": 6773,
  "Ġefficiency": 4872,
  "ones": 2710,
  "iple": 4063,
  "Ġbeaut": 1407,
  "et": 382,
  "ump": 2449,
  "#": 7,
  "dit": 3332,
  "Ġsizes": 7359,
  "Ġtwice": 3923,
  "medi": 3554,
  "ID": 5142,
  "ade": 942,
  "Ġpres": 2078,
  "Ġwithal": 7476,
  "Ġkne": 4491,
  "ĠInter": 7728,
  "ted": 629,
  "Ġtal": 4964,
  "Ġjew": 7079,
  "11": 1597,
  "Ġsynt": 7914,
  "Now": 1879,
  "Go": 2539,
  "Ġthanks": 1756,
  "Ġanim": 2400,
  "Ġ2": 439,
  "Ġanyway": 3015,
  "Ġacc": 996,
  "culate": 3806,
  "Ġclouds": 5377,
  "Ġwin": 1822,
  "uc": 4920,
  "Ġhobby": 6848,
  "echnol": 5314,
  "Ġanswer": 2443,
  "Ġseafood": 6743,
  "Ġthrow": 3656,
  "ivity": 4157,
  "Good": 950,
  "ium": 4291,
  "Ġchicken": 2811,
  "ity": 669,
  "Ġdeg": 2911,
  "advant": 7488,
  "Ġro": 778,
  "Ġtaxi": 3623,
  "ĠAmerican": 2200,
  "iv": 1139,
  "Ġri": 3136,
  "st": 361,
  "Ġun": 824,
  "dif": 7688,
  "Ġtem": 1874,
  "Person": 6598,
  "ĠCl": 2075,
  "Ġtook": 2198,
  "],": 285,
  "Ġoil": 3145,
  "¢": 100,
  "ican": 7902,
  "X": 60,
  "Ġcalculate": 6122,
  "ĠGive": 4760,
  "Ġpie": 1941,
  "ĠV": 1193,
  "cum": 2159,
  "Ġglad": 1830,
  "roach": 6993,
  "Ġluck": 1972,
  "Ġgrab": 6726,
  "ĠBra": 7175,
  "Ġgr": 987,
  "Ġmajesty": 5886,
  "Ġmeat": 3245,
  "Ġment": 2646,
  "Ą": 197,
  "ĠJune": 5734,
  "ista": 7599,
  "Ġwedding": 3297,
  "Ġwindow": 3098,
  "ctob": 5510,
  "ment": 701,
  "ydr": 6502,
  "63": 3202,
  "Ġpig": 7831,
  "Ġfancy": 6874,
  "iff": 3972,
  "ĠWang": 4028,
  "Ġlis": 2238,
  "Ġtools": 5139,
  "Ġcall": 841,
  "Ġgra": 1648,
  "ý": 190,
  "True": 5696,
  "velop": 1567,
  "happiness": 466,
  "\"\"": 6437,
  "Ġenjoy": 1411,
  "Ġarriving": 7712,
  "LARENCE": 5355,
  "ĠJason": 8005,
  "========================================": 597,
  "Come": 1687,
  "Ġif": 680,
  "Ġshoulder": 7500,
  "rian": 7850,
  "Ġvide": 3720,
  "Ġplus": 6542,
  "Ġcounter": 3227,
  "ulous": 7081,
  "Miss": 8071,
  "Has": 6441,
  "ROM": 2869,
  "Ġstrange": 3535,
  "108": 3949,
  "cius": 4683,
  "used": 2656,
  "Ġachieve": 5264,
  "Ġlazy": 6477,
  "Ġprojects": 5691,
  "ai": 1990,
  "Ġexplanation": 8173,
  "achel": 5805,
  "Ġlabor": 6280,
  "LET": 4321,
  "ĠGreek": 7659,
  "cept": 1615,
  "Ġceremony": 7031,
  "Ġblock": 3149,
  "Ġkey": 2266,
  "Ġthus": 3005,
  "v": 90,
  "Ġrising": 6209,
  "Ġhund": 2467,
  "CU": 4704,
  "109": 3181,
  "izer": 6814,
  "Ġroute": 6763,
  "First": 1974,
  "Ġfool": 3633,
  "Ġdetailed": 6753,
  "Make": 3842,
  "ye": 1310,
  "Ġdifficult": 2139,
  "ertain": 1286,
  "ĠFrank": 6908,
  "Generate": 1711,
  "ius": 3729,
  "Ġnowadays": 5921,
  "emotion": 299,
  "ĠPan": 8131,
  "Ġaccept": 2529,
  "Ġpoor": 2689,
  "Ġmil": 2329,
  "Ġborrow": 4173,
  "Ġsup": 4100,
  "sy": 5147,
  "Ġcompetitive": 6008,
  "Ġflat": 4900,
  "Ġtradition": 8153,
  "ĠSaint": 8121,
  "Ġsens": 4866,
  "ĠDay": 4337,
  "Ġmam": 7259,
  "Ġexceed": 7858,
  "Ġam": 650,
  "ts": 1485,
  "Ġbrief": 4605,
  "Ġresponsibility": 6071,
  "Ġsupper": 7507,
  "Ġgl": 1136,
  "Ġ17": 2082,
  "Ġstreets": 6910,
  "Ġalcohol": 5977,
  "Ġvent": 6416,
  "ĠCity": 4974,
  "Ġsupply": 5167,
  "Ġsatisfaction": 5091,
  "check": 7913,
  "ñ": 178,
  "Ġbrave": 4561,
  "ĠWelcome": 5289,
  "ĠCur": 5466,
  "reate": 1339,
  "ĠEur": 3441,
  "ology": 4523,
  "style": 5560,
  "Ġmistress": 5936,
  "COM": 5273,
  "Ġindividual": 4318,
  "Ġfav": 1752,
  "un": 634,
  "Ġlock": 6550,
  "ĠDecember": 7804,
  "Ġinterface": 7292,
  "ented": 3634,
  "Ġtechnical": 6569,
  "Ġrich": 3510,
  "bedroom": 7645,
  "Ġjourney": 3586,
  "Ġcorrectly": 6918,
  "Ġauth": 3097,
  "ob": 750,
  "Ġharder": 5294,
  "Ġcampaign": 4401,
  "Ġlights": 4626,
  "Ġelement": 5737,
  "ĠEast": 7494,
  "Who": 1908,
  "ĠEngl": 1238,
  "Ġsurprise": 4869,
  "Ġwindows": 5934,
  "ĠTybalt": 6853,
  "Ġactivity": 5090,
  "Re": 1177,
  "ize": 1110,
  "ANGE": 4688,
  "vie": 1095,
  "vell": 4455,
  "Ġgotten": 6123,
  "Ġdy": 6314,
  "irs": 4176,
  "Ġmad": 3968,
  "Take": 2927,
  "Ġtalking": 2321,
  "Ġbasic": 4659,
  "ĩ": 234,
  "ĠOther": 5246,
  "search": 2920,
  "ching": 6704,
  "ink": 549,
  "Ġpieces": 3895,
  "ĠJack": 3117,
  "Ġreport": 2459,
  "Ġpluck": 6247,
  "ĠThese": 3481,
  "apers": 7616,
  "Ġbored": 7829,
  "Ġshadows": 7543,
  "Ġch": 535,
  "pt": 910,
  "Ġhappening": 7887,
  "EO": 2098,
  "Ġgoing": 729,
  "Ġ40": 4061,
  "erving": 4671,
  "ĠOK": 1748,
  "Ġfeedback": 4815,
  "Ġpolicies": 6151,
  "ĠJuliet": 5265,
  "Ġcertificate": 5064,
  "Ġsemester": 4952,
  "pped": 2254,
  "Ġdistributed": 7928,
  "Ġyourself": 1667,
  "Ġfulf": 7918,
  "Ġfoss": 6049,
  "ĠSecond": 5790,
  "GRUMIO": 5490,
  "Ġpicking": 8178,
  "Ġfriends": 1394,
  "Ġexpert": 5203,
  "Ġwake": 4483,
  "redi": 1412,
  "Ġhealthcare": 4556,
  "enny": 4785,
  "Ġfeelings": 5927,
  "Ġfinding": 4393,
  "Ġcurse": 7514,
  "Ġseriously": 6140,
  "urderer": 5491,
  "centio": 5930,
  "Ġgar": 2901,
  "Ġrub": 7375,
  "RAN": 3647,
  "Ġvegetables": 3063,
  "Ġdamaged": 7908,
  "Ġpict": 2549,
  "ĠTw": 4278,
  "ĠBoston": 7176,
  "bers": 2194,
  "ditionally": 2422,
  "Ġdeca": 7284,
  "ĠEveryone": 4911,
  "Ġmeal": 3548,
  "ĠBuck": 6249,
  "?": 35,
  "Ġprofessional": 4019,
  "Ġpan": 3415,
  "Ġentreat": 6742,
  "Ġwonder": 1396,
  "OH": 6948,
  "ĠNot": 3568,
  "Ġapple": 5204,
  "for": 351,
  "mp": 1639,
  "Ġincrease": 2513,
  "Ġcustom": 1247,
  "Ġbucks": 7092,
  "Ġflexibility": 7794,
  "ashing": 7971,
  "Ġbath": 3191,
  "Ġsame": 1346,
  "App": 6686,
  "Ġgifts": 5974,
  "Ġsilly": 5585,
  "K": 47,
  "Ġ``": 4819,
  "ian": 1470,
  "ĠInd": 7061,
  "together": 6095,
  "Ġinj": 5670,
  "Ġbrand": 3282,
  "Ġchosen": 7078,
  "any": 859,
  "Ġear": 1244,
  "Away": 7034,
  "w": 91,
  "Ġ#": 2558,
  "Ġscientific": 6284,
  "Ġqualities": 6733,
  "ù": 186,
  "isters": 8097,
  "':": 7669,
  "Ġmyself": 1608,
  "ĠZhang": 6589,
  "Ġdesigned": 5046,
  "±": 114,
  "Ġencour": 3575,
  "iving": 2666,
  "Ġretr": 7373,
  "volution": 3809,
  "Ġinvest": 2561,
  "Ġdestr": 6187,
  "Ġok": 2140,
  "ú": 187,
  "Ġnight": 1031,
  "Ġwaiter": 7398,
  "Ġinside": 3569,
  "é": 170,
  "Ġcow": 6313,
  "Ġconsequences": 6513,
  "Ġsli": 6451,
  "Ġcl": 753,
  "Ġstaying": 4212,
  "Ġlips": 6801,
  "Ġsurv": 5209,
  "Ġbesides": 6103,
  "Ġexperience": 1408,
  "ĠFrom": 5630,
  "ceed": 3655,
  "ĠOur": 2957,
  "question": 394,
  "Ġtow": 4546,
  "Ġrea": 4927,
  "asy": 7706,
  "ĠAustr": 4276,
  "Ġalone": 3326,
  "weet": 2006,
  "Ġalong": 2173,
  "Ġgiving": 3658,
  "orning": 5903,
  "85": 2519,
  "Ġrail": 6616,
  "sc": 7152,
  "urther": 2484,
  "Ġsecret": 3062,
  "Ġlisted": 8033,
  "ĠDad": 4933,
  "like": 4009,
  "QUEEN": 2693,
  "Ġphysical": 3829,
  "Ġnetworks": 5875,
  "Ġsour": 3816,
  "ug": 1495,
  "Ġdrink": 1393,
  "Ġpeace": 2688,
  "ĠChar": 6052,
  "set": 3903,
  "Ġcommon": 2353,
  "Ġrecognition": 5648,
  "Ġinnovative": 8053,
  "Ġforgot": 2658,
  "iant": 4776,
  "ence": 754,
  "Ġal": 483,
  "ĠSp": 2550,
  "Ġrelatives": 7877,
  "Ġstress": 3057,
  "dam": 1923,
  "ears": 7988,
  "PR": 3588,
  "Ġwalls": 5487,
  "Ġrice": 4520,
  "ĠUS": 2527,
  "Ġstring": 5292,
  "ergy": 1686,
  "ix": 1352,
  "les": 1107,
  "elect": 6968,
  "Ġgramm": 7653,
  "Ġpl": 529,
  "--": 1168,
  "Ġpolicy": 3271,
  "oor": 2066,
  "Ġcalls": 4152,
  "tect": 4482,
  "erior": 7504,
  "ema": 5836,
  "!\",": 613,
  "Ġrealized": 7762,
  "ĠAlright": 8181,
  "Ġunable": 8145,
  "Ġgot": 816,
  "em": 293,
  "«": 109,
  "Ġstory": 2069,
  "omething": 6471,
  "leep": 1612,
  "utation": 5555,
  "Ġhosp": 3373,
  "Well": 700,
  "Ġraining": 6835,
  "nder": 955,
  "td": 6779,
  "dataset": 463,
  "Ġdocument": 4069,
  "Ġstay": 1182,
  "JU": 3692,
  "18": 1239,
  "ĠHey": 4865,
  "Ġbelie": 6641,
  "Ġthine": 4122,
  "Ġgrace": 3119,
  "Ġinnov": 4842,
  "Ġsoda": 6893,
  "ortun": 2274,
  "Ġdepressed": 7550,
  "ĠWow": 5793,
  "Ġunhappy": 7872,
  "red": 1521,
  "Ġyours": 3114,
  "ĠGerman": 6010,
  "od": 873,
  "Ġlif": 6794,
  "ogether": 1473,
  "ĠCorpor": 6675,
  "clock": 2332,
  "Ġbringing": 7408,
  "Ġwall": 2789,
  "ision": 1870,
  "Ġpen": 3144,
  "isk": 7364,
  "Ġprinter": 6839,
  "Ġreplace": 5243,
  "ĠVI": 3984,
  "Ġexperienced": 5386,
  "Ġimagine": 5266,
  "103": 4682,
  "ithee": 6883,
  "ore": 1005,
  "Ġgrowing": 5535,
  "ĠWhite": 4418,
  "Ġl": 383,
  "oan": 5603,
  "ties": 5774,
  "Ġexam": 1457,
  "Ġfields": 6026,
  "Ġseque": 7075,
  "ances": 3277,
  "ified": 3224,
  "Ġhome": 1048,
  "Ġappoint": 2352,
  "`": 68,
  "105": 4526,
  "ert": 925,
  "Ġskin": 3672,
  "Ġrose": 6555,
  "Ġrout": 5564,
  "Ġeducational": 6070,
  "Ġsum": 4253,
  "Ġexception": 7283,
  "Ġkind": 951,
  "alog": 307,
  "Ġvirus": 5622,
  "Ġpre": 716,
  "rend": 4296,
  "Ġlast": 984,
  "Ä": 133,
  "Ġsurpr": 4050,
  "Index": 7128,
  "ĠBlack": 6011,
  "72": 1930,
  "ields": 4627,
  "Ġvision": 6906,
  "Ġpotatoes": 5697,
  "verse": 3887,
  "Ġtaking": 1994,
  "Ġtender": 4680,
  "place": 3250,
  "ervations": 6818,
  "ek": 852,
  "Clown": 5439,
  "rent": 2218,
  "Ġwashing": 4896,
  "omp": 1905,
  "Ġsuc": 1814,
  "Ġstolen": 6435,
  "Ġarrange": 4586,
  "Ġmanager": 2165,
  "Ġcomp": 646,
  "Ġteaching": 6341,
  "Ġbridge": 7087,
  "ored": 3477,
  "Ġrum": 6615,
  "ĠAmerica": 1625,
  "Ġcloser": 6928,
  "Ġpet": 3834,
  "Ġbr": 691,
  "cious": 2923,
  "ether": 1237,
  "Ġappears": 7783,
  "Ġpoison": 6256,
  "Ġmemories": 7633,
  "orge": 3577,
  "Ġvisited": 6482,
  "Ġbank": 1865,
  "gal": 7251,
  "Ġpossible": 1760,
  "Ġbear": 2722,
  "Ġcontinue": 3840,
  "Ġneeds": 2094,
  "Ġair": 1403,
  "making": 7350,
  "Ġ'\",": 8013,
  "Ġfrustr": 7083,
  "oin": 1986,
  "Ġdep": 1083,
  "Ġlogo": 5590,
  "Ġlived": 4010,
  "Ġmachines": 4215,
  "pring": 6719,
  "ums": 5725,
  "cts": 6785,
  "Ġ45": 7376,
  "usan": 4041,
  "ĠEach": 5986,
  "vin": 6370,
  "adi": 5229,
  "Ġgovernment": 2794,
  "ĠFestival": 7389,
  "Ġrestaurant": 1846,
  "ijing": 2395,
  "Ġfly": 2844,
  "Ġshift": 7715,
  "Ġrequired": 5346,
  "Ġapartment": 1995,
  "oca": 5146,
  "Ġrepair": 5340,
  "eri": 846,
  "Ġval": 1787,
  "Ġmock": 7288,
  "ĠOn": 3037,
  "Ġfront": 2891,
  "Ġimplications": 7429,
  "Ġmagaz": 3574,
  "Ġhow": 762,
  "Ġmajest": 5169,
  "Ġtalked": 5809,
  "Ġhave": 441,
  "Ġpublic": 2531,
  "ĠQue": 6924,
  "Ġstre": 1652,
  "ĠFurther": 5571,
  "Ġdaughter": 2526,
  "Ç": 136,
  "Ġconclusion": 6505,
  "Ġdrea": 4674,
  "Ġstupid": 5721,
  "Ġalthough": 7273,
  "right": 2012,
  "u": 89,
  "Any": 2609,
  "Ì¦Ì¦Ì¦Ì¦Ì¦Ì¦Ì¦Ì¦Ì¦Ì¦Ì¦Ì¦Ì¦Ì¦Ì¦Ì¦": 4841,
  "Ġdoes": 902,
  "Ġbehavior": 4664,
  "ĳ": 244,
  "Ĝ": 221,
  "Ġchallenge": 5587,
  "Ġtomato": 7609,
  "Ġtoilet": 7337,
  "ric": 2301,
  "Ġnecess": 2647,
  "Ġlight": 1633,
  "Ġfed": 5911,
  "Ġrest": 1208,
  "Ġtaught": 5929,
  "Ġloose": 7062,
  "Ġlifestyle": 6820,
  "Ġsuffer": 5369,
  "Ġshowed": 6409,
  "Ġsky": 3118,
  "Ġdifficulties": 7526,
  "cul": 2368,
  "Ġdead": 2408,
  "vant": 4058,
  "Ġful": 3970,
  "other": 647,
  "BUCKINGHAM": 4450,
  "dy": 3902,
  "Ġclear": 2313,
  "ĠDon": 1943,
  "Ġsuits": 4714,
  "Ġcab": 4822,
  "Un": 3445,
  "Ġstat": 4678,
  "cer": 2282,
  "ĠAngeles": 6358,
  "Excuse": 1483,
  "Ġmonthly": 4618,
  "ĠStart": 7198,
  "ĠAlice": 5483,
  "Ġkilled": 7781,
  "isf": 2644,
  "fort": 1745,
  "sis": 7046,
  "Ġpress": 2554,
  "Ġ\"...": 7954,
  "ogging": 6023,
  "456": 8065,
  "ber": 804,
  "Ġsample": 6507,
  "Ġcampus": 5537,
  "Ġboy": 2340,
  "load": 5108,
  "line": 1531,
  "Ġchecked": 4395,
  "Ġsett": 4420,
  "Ġnearly": 5300,
  "Ġcou": 2148,
  "Ġhappened": 2119,
  "friend": 2601,
  "Ġsave": 2387,
  "Ġlisten": 2973,
  "Ġsir": 827,
  "Ġtransportation": 3914,
  "den": 6863,
  "change": 2986,
  "five": 4325,
  "s": 87,
  "ĠAngelo": 5175,
  "Ġu": 510,
  "Ġpaintings": 7649,
  "Ġup": 633,
  "Ġheavy": 2881,
  "Ġcompl": 2838,
  "Ġadvise": 7884,
  "Ġtomorrow": 1183,
  "Ġph": 1018,
  "Ġvisual": 7511,
  "Ġblue": 2724,
  "arden": 3776,
  "ipped": 7042,
  "oul": 4454,
  "Ġmarri": 3801,
  "UD": 7448,
  "Đ": 209,
  "Ġeven": 1313,
  "Ġstronger": 7634,
  "Ġim": 760,
  "HOR": 4666,
  "ĠWhat": 732,
  "Ġclasses": 3451,
  "row": 782,
  "RI": 4035,
  "Ġtense": 7201,
  "Ġmade": 1102,
  "Ġpersonality": 6139,
  "76": 1516,
  "vision": 4481,
  "Ġpleasure": 2358,
  "Ġsecure": 4110,
  "Ġwoe": 5906,
  "Ġdisp": 2659,
  "Ġsupermarket": 5887,
  "Ġteaspoon": 5395,
  "key": 5616,
  "Ġreturning": 8171,
  "ain": 302,
  "Ġradi": 5582,
  "Ġladies": 5526,
  "ĠJenny": 6899,
  "Ġthrough": 1299,
  "ĠShe": 1281,
  "is": 359,
  "Ġtemperature": 3050,
  "ady": 2606,
  "Ġaware": 5279,
  "ress": 877,
  "Ġ*": 6227,
  "Ġsouven": 6574,
  "Ġdist": 2327,
  "Ġcru": 7517,
  "der": 783,
  "Ġfl": 871,
  "OW": 6774,
  "Ġsit": 1578,
  "Ġcover": 2522,
  "Ġtele": 2780,
  "ĠTime": 6194,
  "Ġmotion": 7361,
  "ula": 7487,
  "Ġprotection": 7638,
  "Ġmanag": 1528,
  "ishing": 5990,
  "ERLE": 7304,
  "No": 672,
  "TER": 2533,
  "alth": 1058,
  "ember": 1332,
  "',": 7342,
  "Ġclearly": 6003,
  "Ġpassed": 4184,
  "Ġbusy": 1989,
  "Ġbought": 2127,
  "Ġweb": 3660,
  "Ġload": 5727,
  "Ġvalues": 5084,
  "Ġtells": 6724,
  "ĠMontague": 7025,
  "ty": 869,
  "¶": 119,
  "Ġx": 3883,
  "Ġrecord": 2800,
  "Ġseemed": 5807,
  "Convert": 5644,
  "Ġsitting": 4803,
  "Ġtor": 6607,
  "PT": 3831,
  "Ġmatch": 3043,
  "Ġvolunte": 7118,
  "Ġwithdraw": 4083,
  "Ġago": 2040,
  "Ġordered": 5429,
  "bly": 4669,
  "120": 7670,
  "ĠG": 755,
  "Ġslain": 6567,
  "Ġward": 8091,
  "Isn": 6261,
  "ĠLancaster": 7339,
  "Ġ1": 402,
  "ĠĠĊ": 6229,
  "ours": 4892,
  "Ġan": 379,
  "Ļ": 252,
  "i": 77,
  "Ġcompetition": 5818,
  "Ġnot": 538,
  "vard": 7817,
  "Ġfavor": 4186,
  "Find": 2941,
  "ĠHong": 5069,
  "Ġencounter": 6351,
  "St": 2856,
  "Ġlaund": 4942,
  "orted": 4121,
  "entleman": 6681,
  "INA": 3423,
  "Ġpriv": 2674,
  "ĠAt": 2965,
  "Ġglobal": 3206,
  "Ġissue": 2950,
  "Ġsons": 7693,
  "ĠWestern": 6981,
  "Ġbitter": 7409,
  "Ġprivacy": 6423,
  "sure": 2472,
  "eason": 1683,
  "78": 1893,
  "Ġeasily": 3425,
  "Ġsand": 3112,
  "GLOUCESTER": 2599,
  "Ġgeneral": 3470,
  "Were": 4322,
  "Ġfreque": 4807,
  "ury": 3263,
  "Ġcapital": 5351,
  "07": 5183,
  "Ġinfect": 6457,
  "Ġhappens": 3871,
  "Ġfactors": 5748,
  "Ġphotograph": 7904,
  "Ġpassion": 5080,
  "Ġma": 741,
  "Ġeleven": 7296,
  "DI": 7944,
  "uce": 1205,
  "Ġtherefore": 3796,
  "oting": 4170,
  "MEN": 3139,
  "Ġcentury": 6422,
  "oph": 4931,
  "Ġgods": 5331,
  "Ġsuitable": 4017,
  "ĠMedi": 7226,
  "ony": 3143,
  "Ġstuff": 2918,
  "Ġsk": 1220,
  "Ġhelps": 3217,
  "irst": 803,
  "itation": 4885,
  "160": 8160,
  "Ġ500": 5423,
  "Ġinterview": 1896,
  "Ġbird": 5298,
  "en": 391,
  "cate": 287,
  "ĠMe": 3736,
  "Ġdepress": 5530,
  "Ph": 7945,
  "ondon": 2840,
  "Ġfurther": 2964,
  "Ġstairs": 8177,
  "Ġum": 5786,
  "icing": 6030,
  "DA": 6688,
  "Ġoath": 5611,
  "ă": 196,
  "ĠRe": 582,
  "inary": 321,
  "].": 8077,
  "daily": 403,
  "Ġact": 1073,
  "ĠRose": 6246,
  "Ġm": 353,
  "Ġaccount": 1402,
  "ift": 2083,
  "cation": 921,
  "Ġspec": 3442,
  "Ġonce": 1889,
  "At": 1158,
  "ĠWood": 7984,
  "Ġeducation": 2525,
  "riger": 5677,
  "irts": 4972,
  "itiz": 2837,
  "Be": 1676,
  "lace": 5772,
  "Which": 1574,
  "100": 2124,
  "eting": 6172,
  "Ġfin": 1111,
  "308": 8014,
  "ĠWhich": 3080,
  "Ġconvey": 7178,
  "Cal": 4996,
  "Ġvegetarian": 6917,
  "Ġgue": 1360,
  "Ġimportance": 4283,
  "self": 1263,
  "##": 412,
  "ĠMar": 2660,
  "Ġcol": 1079,
  "oke": 1869,
  "ĠFrench": 3059,
  "Ne": 7244,
  "Ġdealing": 6205,
  "Ġdespite": 7431,
  "Ġunivers": 6913,
  "Ġrole": 4936,
  "rance": 5323,
  "Ġconf": 1797,
  "ized": 2235,
  "Ġknows": 3618,
  "Ġviol": 4550,
  "ways": 1035,
  "Ġconduct": 7230,
  "Ġmeasures": 6354,
  "Ġcameras": 7019,
  "Ġsystem": 1464,
  "!'": 6769,
  "Ġfiction": 6503,
  "pack": 7682,
  "iter": 4919,
  "Ġday": 832,
  "ated": 1231,
  "Ġabove": 4465,
  "300": 5952,
  "Ġn": 406,
  "Ġbur": 3085,
  "ĠResponse": 595,
  "Ġheavens": 6745,
  "arence": 4709,
  "Ġmys": 1480,
  "Ġgradu": 3241,
  "Ġwithout": 1916,
  "LUCENTIO": 5588,
  "Ġnose": 4030,
  "========================": 596,
  "Ġincluded": 4589,
  "ĠKath": 7610,
  "Ġtelephone": 4161,
  "Ġad": 792,
  "ĠWe": 757,
  "well": 2246,
  "ener": 1101,
  "Ġwinds": 7765,
  "Would": 1424,
  "igation": 6987,
  "acle": 7102,
  "Ġdescri": 4720,
  "ument": 4129,
  "Ġtears": 4150,
  "Ġchann": 5120,
  "Ġdiscuss": 2623,
  "gn": 7250,
  "Ġcatalog": 6343,
  "Ġeffective": 3225,
  "Ġserious": 2216,
  "LUC": 3072,
  "cond": 1467,
  "'ve": 807,
  "Ġatmo": 3565,
  "tem": 368,
  "izz": 3953,
  "Ġfirst": 909,
  "Identify": 3165,
  "That": 641,
  "ł": 259,
  "ivil": 5078,
  "epher": 5163,
  "@": 36,
  "Ġcount": 1156,
  "Ġvarious": 3606,
  "LUS": 4844,
  "Ġhousing": 7542,
  "ues": 1614,
  "ital": 1831,
  "Ġpicture": 3556,
  "Ġworker": 7736,
  "Ġfalls": 7770,
  "plain": 2509,
  "elieve": 6027,
  "91": 3587,
  "Ġjump": 3922,
  "illed": 5783,
  "Ġgrown": 5581,
  "Ġrapid": 6762,
  "store": 8100,
  "Tr": 3229,
  "Ġloyalty": 5945,
  "Ġboxes": 4632,
  "Ġdesire": 4762,
  "Ġbrows": 6121,
  "morrow": 5275,
  "Ġphrase": 4115,
  "Ġhistorical": 7338,
  "ace": 784,
  "Ġsy": 3432,
  "Ġpersonalized": 7628,
  "ĠLiu": 6923,
  "They": 1546,
  "Ġcont": 1551,
  "&": 10,
  "®": 111,
  "Farewell": 7241,
  "Ġahead": 2682,
  "stick": 8099,
  "Ġanno": 6964,
  "Ġopportunity": 3513,
  "Ġprograms": 4216,
  "FRIAR": 5224,
  "Ġwed": 2955,
  "Ġaudience": 4912,
  "Ġcold": 1901,
  "ĠSep": 5982,
  "Ġcu": 3734,
  "Ġbelong": 5576,
  "Ġtough": 4602,
  "ģ": 228,
  "atch": 1047,
  "Ġdur": 8102,
  "ding": 1855,
  "II": 6156,
  "Ġsto": 3975,
  "Ġagree": 2038,
  "Ġchips": 6974,
  "ges": 3275,
  "Ġloves": 4153,
  "Ġmaintain": 4015,
  "Ġwave": 7748,
  "ĠLAURENCE": 5951,
  "ice": 558,
  "Ġso": 511,
  "Ġshe": 801,
  "To": 1054,
  "Ġmachine": 2063,
  "fl": 4324,
  "Ġhaste": 6195,
  "Ġsuggestion": 3641,
  "Ġdrug": 5127,
  "Ġonto": 6181,
  "Work": 834,
  "Ġplay": 1064,
  "Ġfight": 3035,
  "allow": 6629,
  "the": 2219,
  "Ġspirit": 4506,
  "Ġcable": 5459,
  "orry": 887,
  "Ġref": 1871,
  "Ġadvice": 2725,
  "Ġcrazy": 3497,
  "Ġpray": 2921,
  "Ġbill": 2251,
  "]": 65,
  "que": 390,
  "Ġaccounts": 5477,
  "Ġbio": 7576,
  "Ġclimb": 6673,
  "Ġmetal": 7516,
  "Ġcontain": 4557,
  "ĠLast": 5156,
  "Ġsupport": 3018,
  "Ġready": 1536,
  "Ġensure": 3753,
  "order": 5834,
  "Ġcancell": 7272,
  "ĠABC": 6768,
  "Ġquant": 4257,
  "Ġfirm": 4384,
  "Ġorganization": 6206,
  "Z": 62,
  "mal": 3966,
  "Ġhence": 3818,
  "lation": 7150,
  "Ġnoise": 4180,
  "Ġsure": 872,
  "ero": 6162,
  "While": 7270,
  "ETH": 4087,
  "Nay": 3917,
  "ĠW": 577,
  "555": 6911,
  "Nor": 4118,
  "Ġpale": 4748,
  "Ġthese": 1008,
  "Ġmall": 5968,
  "ĠRICHARD": 2542,
  "sych": 6150,
  "ĠMen": 7282,
  "Ġstories": 4275,
  "Ġpractices": 7533,
  "Ġstructure": 4537,
  "elly": 7265,
  "ufidi": 7791,
  "ü": 189,
  "Sp": 4224,
  "Ġcabin": 6759,
  "An": 2169,
  "Ġlessons": 6915,
  "Ġscient": 3642,
  "ctober": 5547,
  "atter": 1347,
  "GE": 4165,
  "ĠHastings": 7140,
  "150": 5766,
  "Ġapart": 6339,
  "Ġwasn": 2553,
  "Ġcle": 1385,
  "ship": 603,
  "34": 1285,
  "Ġmysterious": 6936,
  "Ġstanding": 5208,
  "ife": 567,
  "Ġ...\",": 1505,
  "Ġmedi": 1474,
  "TES": 8076,
  "Ġboat": 5740,
  "Ġconnected": 5620,
  "Ġteach": 1765,
  "Ġassured": 7620,
  "Ġtid": 7959,
  "Che": 5954,
  "Ġflood": 5801,
  "Ġappli": 1737,
  "Ġbecomes": 7372,
  "uum": 7353,
  "died": 5112,
  "ately": 1958,
  "y": 93,
  "Ġrelationship": 3092,
  "Ġvacation": 2651,
  "ot": 279,
  "Ġword": 1710,
  "Ġfamily": 1558,
  "ĠArt": 4592,
  "Ġrevenge": 6504,
  "ĠPM": 6716,
  "Ġclerk": 7503,
  "Ġconstant": 6325,
  "Ġinternet": 2707,
  "Ġhurt": 3896,
  "aks": 7562,
  "Ġgrade": 6638,
  "62": 2768,
  "AUTOL": 5304,
  "20": 1209,
  "data": 460,
  "Did": 1452,
  "Ġhighest": 4982,
  "ded": 4195,
  "ĠCan": 1052,
  "Ġcafe": 4926,
  "Ġvar": 1964,
  "Ġrush": 3996,
  "Ġspecial": 1605,
  "Ġdatabase": 5763,
  "ait": 2900,
  "board": 4020,
  "Ġconfli": 7523,
  "Ġbless": 5039,
  "Ġjuice": 4053,
  "vements": 7684,
  "uan": 1716,
  "Ġcommit": 4656,
  "Ì¦": 1381,
  "Ġcorner": 3686,
  "Ġdollars": 1525,
  "Ġgod": 5368,
  "ĠGod": 2208,
  "Ġprotect": 3958,
  "Ġearly": 2168,
  "Ġcosm": 8139,
  "forestation": 7932,
  "Ġtests": 5215,
  "there": 6802,
  "Ġtrouble": 2490,
  "Ġbeat": 3527,
  "direct": 424,
  "Rel": 617,
  "Ġmat": 4711,
  "Ġcigarettes": 6937,
  "ime": 605,
  "Ġlaws": 5640,
  "Ġcommunicate": 5485,
  "Ġherself": 6515,
  "Ġmole": 5726,
  "Ġfought": 6873,
  "ĠPeople": 3839,
  "^": 66,
  "Ġchannel": 7797,
  "Ġpocket": 8000,
  "verage": 3437,
  "Ġguest": 5253,
  "Ġsupp": 1212,
  "eas": 742,
  "n": 82,
  "oid": 3367,
  "Ġterrific": 6849,
  "Ġred": 1223,
  "ffee": 1832,
  "oons": 6298,
  "Ġsquare": 4699,
  "epherd": 5405,
  "Ġspeaks": 5864,
  "Given": 3164,
  "ica": 2602,
  "mates": 5957,
  "Ġpi": 8101,
  "uke": 2764,
  "Ġtv": 7958,
  "ces": 1414,
  "Ġaf": 761,
  "Ġauthent": 7322,
  "enge": 5418,
  "Ġbook": 1124,
  "Ġstra": 2684,
  "Ġmethod": 3320,
  "Ġlongest": 7024,
  "Ġstir": 4043,
  "One": 2359,
  "Ġada": 6101,
  "Ġchar": 1159,
  "Ġpassport": 3176,
  "PROSPERO": 5501,
  "Ġhit": 3258,
  "Ĉ": 201,
  "Ġmusical": 8169,
  "Ġsha": 1650,
  "Ġhadn": 7393,
  "aim": 3352,
  "Ġfinished": 2720,
  "[MASK]": 4,
  "vement": 5959,
  "Ġstand": 1481,
  "vert": 4301,
  "Ġreach": 2714,
  "done": 7950,
  "Ġsigned": 7886,
  "Ġempty": 5702,
  "Ġvia": 8129,
  "Ġresult": 2106,
  "ancy": 3934,
  "Ġclean": 2065,
  "Ġhat": 5416,
  "let": 3365,
  "Ġaccident": 3870,
  "Ġdisplay": 5177,
  "Ġscientist": 6749,
  "Ġcontr": 1448,
  "Ġdum": 6966,
  "Ġclot": 1862,
  "icate": 4326,
  "~": 98,
  "Ġwouldn": 2474,
  "Really": 1502,
  "usiness": 5189,
  "Ġformal": 4047,
  "ĠCent": 6712,
  "ĠMost": 4789,
  "ules": 3597,
  "Ġhouses": 6013,
  "Ġsheep": 8143,
  "Great": 1950,
  "Ġemergency": 5651,
  "Ġsaid": 1349,
  "eg": 4880,
  "Ġdining": 6414,
  "ositive": 8146,
  "Ġseal": 7590,
  "367": 8162,
  "Ñ": 146,
  "Ġjam": 5199,
  "Ġlot": 886,
  "Ġdeserves": 8011,
  "Ġoppos": 5482,
  "irus": 4252,
  "Ġmanufact": 5425,
  "ĠApril": 4893,
  "Ġcamping": 7778,
  "ounds": 1037,
  "Ġrevolution": 5461,
  "Com": 4956,
  "Ġtitle": 3558,
  "Ġuniversities": 7554,
  "Ġlead": 1809,
  "op": 537,
  "Ġcode": 3162,
  "ĠIf": 1129,
  "ested": 1782,
  "Ġbaggage": 4724,
  "Hold": 4917,
  "p": 84,
  "Ġfestival": 6765,
  "Ġrates": 6617,
  "uss": 2091,
  "ĠWil": 7082,
  "ubl": 7154,
  "ched": 5915,
  "Ġwit": 4434,
  "ten": 747,
  "Ġmetaphor": 6219,
  "Ġthere": 602,
  "Ġen": 654,
  "Ġfeat": 2695,
  "ppy": 6242,
  "ednesday": 4843,
  "Ď": 207,
  "Ġoffic": 3584,
  "cepted": 5234,
  "Ġcamera": 4138,
  "ibilities": 4906,
  "Ġideal": 6293,
  "Ġincreased": 4033,
  "Ġunit": 5525,
  "Ġinterests": 6336,
  "List": 3811,
  "acing": 6645,
  "do": 2865,
  "Ġenemies": 6754,
  "Ġcomb": 3265,
  "VOLUMNIA": 5821,
  "Ġ]": 461,
  "Ġhole": 8154,
  "Ġ200": 3179,
  "[": 63,
  "Ġstyles": 6348,
  "Ġgraduated": 5092,
  "Ġnumber": 1197,
  "ĠNow": 1810,
  "ject": 1279,
  "Ġsho": 1491,
  "ĠLook": 2648,
  "Ġoccas": 5032,
  "Ġbanks": 7623,
  "Ġhair": 2331,
  "ass": 776,
  "date": 4024,
  "Ġweak": 3543,
  "Ġcontrast": 5933,
  "dable": 5513,
  "led": 1709,
  "ĠWashing": 6508,
  "Ġbranches": 7227,
  "IA": 5025,
  "Ġuses": 4102,
  "Ġsteel": 7407,
  "Ġblank": 6051,
  "eating": 6817,
  "Ġtour": 2363,
  "dation": 4410,
  "Ġexper": 5681,
  "Ġtear": 7731,
  "ween": 1503,
  "Ġsleeping": 6061,
  "Ġwom": 1971,
  "Ġgonna": 4079,
  "vidence": 5296,
  "¬": 110,
  "teen": 2929,
  "ra": 618,
  "Ġlive": 1151,
  "ang": 697,
  "original": 454,
  "Ġlearn": 1460,
  "Ġgracious": 4587,
  "$": 8,
  "Ġrap": 5191,
  "pl": 884,
  "SEBAST": 6942,
  "ub": 1996,
  "ĠSt": 1376,
  "BAPT": 5263,
  "Ġdelivery": 3539,
  "Ġsize": 2339,
  "Ġbirth": 2109,
  "Ġbend": 6790,
  "Pr": 5026,
  "Ġimpress": 2862,
  "ical": 980,
  "Ġvib": 7734,
  "Ġlarger": 4689,
  "¨": 106,
  "Ġking": 1704,
  "nd": 485,
  "Ġoccur": 6846,
  "Ġmuseum": 4820,
  "EL": 2081,
  "omet": 821,
  "oms": 4379,
  "Ġwould": 626,
  "Ġpapers": 6016,
  "spoons": 7358,
  "itive": 2155,
  "Compose": 6282,
  "Ġinflue": 4111,
  "ah": 2816,
  "Sounds": 2740,
  "Ġ5": 500,
  "osition": 6199,
  "Ġdiff": 949,
  "Ġperformance": 2608,
  "Ġgeneration": 7310,
  "Ġsong": 3132,
  "Ġinnovation": 7547,
  "ĠOlympic": 6287,
  "Ġshouldn": 3503,
  "while": 5079,
  "ĠTuesday": 3912,
  "joy": 1334,
  "Ġargument": 5649,
  "Ġunf": 4653,
  "Sorry": 2018,
  "Ġqualifications": 7105,
  "Ġseries": 5393,
  "Ġbattle": 5446,
  "Ġpersonal": 2134,
  "Ġadmit": 6279,
  "Ġbelieve": 1494,
  "olog": 3389,
  "Ġbelt": 7611,
  "phone": 3585,
  "ains": 2089,
  "Ġdest": 5619,
  "106": 3293,
  "ĠLan": 6463,
  "Ġund": 4894,
  "eag": 3944,
  "f": 74,
  "Ġapproach": 3766,
  "Ġmillions": 7428,
  "ppers": 6537,
  "Ġturn": 1441,
  "Ġsigh": 6958,
  "Ġpeak": 7701,
  "artment": 1323,
  "Ġbat": 3905,
  "Ġ'": 1180,
  "ĠAI": 1968,
  "atic": 4231,
  "Ġkingdom": 5688,
  "Ġneighb": 3146,
  "tel": 1678,
  "ĠAnt": 6033,
  "Ġsu": 520,
  "bing": 3812,
  "ĠKeep": 4984,
  "Ġdetermine": 5310,
  "Ġrou": 5462,
  "74": 1542,
  "23": 3002,
  "bits": 5106,
  "atur": 1560,
  "Ġdogs": 4590,
  "icy": 2137,
  "Ġcuis": 7021,
  "XX": 5227,
  "Ġbills": 5561,
  "Ġwhether": 2877,
  "selves": 2721,
  "Ġbusiness": 1116,
  "ĠInternational": 5815,
  "Ġme": 446,
  "aration": 6231,
  "Some": 3140,
  "Ġthan": 882,
  "Ġdirection": 4630,
  "ĠHENRY": 4255,
  "Ġhor": 2778,
  "Ġtwo": 823,
  "ich": 744,
  "ation": 467,
  "ĠYORK": 3602,
  "orious": 7820,
  "ming": 1663,
  "user": 366,
  "İ": 241,
  "Ġfactory": 4588,
  "Ġmarvel": 7404,
  "ĠZ": 3003,
  "oun": 1428,
  "cine": 3166,
  "isp": 6694,
  "Ġhistori": 6069,
  "Ġarg": 3659,
  "Ġton": 1559,
  "MARCIUS": 7134,
  "oring": 2962,
  "Lord": 4997,
  "tty": 1526,
  "Ġidentify": 3382,
  "Ġtrend": 4708,
  "Ġobvious": 7415,
  "ĠEnglish": 1359,
  "Ġfunds": 7121,
  "osal": 5682,
  "========": 376,
  "Ġsimple": 2899,
  "Ġdelay": 5257,
  "Ġadv": 1427,
  "Ġstage": 5978,
  "Ġpotential": 2532,
  "uh": 6300,
  "Ġentire": 5396,
  "Ġconsideration": 6658,
  "Ġweather": 1922,
  "Ġinvited": 5131,
  "stairs": 5779,
  "ĠTheir": 7595,
  "Ġsurface": 5478,
  "Ġ80": 5792,
  "Ġdull": 6793,
  "ĠSir": 3192,
  "per": 904,
  "ional": 3290,
  "outh": 2403,
  "Ę": 217,
  "Too": 6861,
  "Ġtalent": 8054,
  "ĠEngland": 4012,
  "erhaps": 3189,
  "Sum": 3627,
  "Ġtogether": 1569,
  "nam": 4432,
  "Ġbring": 1426,
  "Ġalways": 1063,
  "nt": 313,
  "Ġwidow": 7432,
  "in": 268,
  "uel": 3463,
  "ĠWork": 6040,
  "ertificate": 4116,
  "Ġparts": 4341,
  "ĠFrancis": 5684,
  "Ġtrained": 7002,
  "pp": 416,
  "Ġisland": 5914,
  "Ġflav": 5125,
  "ctually": 2152,
  "46": 2190,
  "Ġweep": 4647,
  "Ġfo": 829,
  "[CLS]": 2,
  "Ġreceipt": 3129,
  "Ġbeseech": 5701,
  "Ġ50": 2807,
  "ward": 1175,
  "olly": 6188,
  "Ġservice": 1207,
  "Ġrecipe": 5747,
  "Ġearl": 7880,
  "ingham": 6533,
  "Ġprivate": 3473,
  "door": 7147,
  "ĠVer": 7612,
  "ab": 607,
  "Ġstopped": 5594,
  "ĠĠĠĠĠĠĠĠĠ": 273,
  "cean": 4230,
  "Ġequation": 5536,
  "bout": 3008,
  "eds": 4081,
  "ichuan": 7868,
  "Have": 1358,
  "ails": 2491,
  "aly": 2424,
  "Ġrequest": 4915,
  "Ġtest": 2010,
  "Ġreached": 6920,
  "Ġscreen": 5635,
  "Ġpush": 4458,
  "ENRY": 2820,
  "Ġye": 7058,
  "Ġmanagement": 3455,
  "unes": 5375,
  "Ġphilosoph": 7298,
  "ĠRes": 4973,
  "Ġpresence": 5302,
  "Ġhim": 733,
  "ĠAccount": 5098,
  "Ġguilty": 7197,
  "Ġinteract": 4937,
  "=\"": 7943,
  "Ġlove": 856,
  "Ġhealthy": 2671,
  "Ġbutt": 4456,
  "Ġamaz": 2978,
  "Ġmillion": 4700,
  "Ġing": 3652,
  "POLIXENES": 5829,
  "Ġstayed": 5295,
  "Ġextreme": 5757,
  "Ġcausing": 6180,
  "Ġpurs": 5390,
  "Rep": 8074,
  "Ġaspect": 6102,
  "Ġquantity": 6431,
  "action": 2836,
  "Ġsol": 1553,
  "Ġclaim": 4576,
  "orough": 7356,
  "Ġproblems": 2053,
  "Ġteeth": 6250,
  "Ġstores": 4559,
  "Ġemotion": 346,
  "ĠUn": 4107,
  "22": 1724,
  "cend": 5839,
  "Ġsqu": 3526,
  "Ġheard": 1410,
  "twere": 7788,
  "int": 1042,
  "LO": 1659,
  "Ġpork": 6237,
  "Ġsepar": 5119,
  "range": 7351,
  "Ġothers": 2757,
  "Ġyogurt": 7657,
  "Listen": 7038,
  "utions": 3813,
  "udy": 7184,
  "low": 7680,
  "Ġcommercial": 6365,
  "ior": 2456,
  "Yeah": 1016,
  "ĠEl": 4860,
  "Ġweekends": 6572,
  "Ġtrain": 1475,
  "Ġcontext": 6468,
  "ides": 1773,
  "cil": 6020,
  "lin": 7565,
  "Ġartificial": 3760,
  "Ġsoul": 2926,
  "gar": 7451,
  "Ġwatched": 5256,
  "tr": 384,
  "dium": 6865,
  "Ġsaying": 3495,
  "CLI": 6018,
  "aged": 3600,
  "Th": 407,
  "Ġor": 572,
  "ng": 870,
  "ĠShall": 5020,
  "ved": 1256,
  "Not": 1179,
  "Ġengineer": 6582,
  "ą": 198,
  "Nurse": 4249,
  "Ġir": 6446,
  "Ġarticle": 2455,
  "ĠYork": 2212,
  "ogy": 1675,
  "Ġstarting": 4108,
  "Ġmaster": 3211,
  "ulture": 3150,
  "Ġlikely": 4424,
  "Ġexchange": 3249,
  "Ġthousands": 7012,
  "Ad": 6438,
  "weight": 7193,
  "Ġlooks": 1545,
  "Ġjoke": 7592,
  "Ġ27": 7711,
  "Comp": 3331,
  "Ġluggage": 3645,
  "arry": 3130,
  "though": 4334,
  "olit": 3156,
  "Ġbegan": 5155,
  "ò": 179,
  "utes": 6407,
  "SON": 7447,
  "actions": 6375,
  "rop": 2611,
  "Ġke": 919,
  "gan": 1730,
  "Ġconsul": 7101,
  "Ġaccurate": 5309,
  "Ġ00": 5976,
  "Ġsounds": 1435,
  "ĠCoriol": 6976,
  "ly": 429,
  "Ġstain": 6888,
  "tend": 1860,
  "ĠAutom": 7658,
  "coln": 7236,
  "Ġautom": 2863,
  "ĠCreate": 5370,
  "ĠHenry": 3719,
  "dat": 401,
  "ĠSpanish": 4423,
  "Ġlaptop": 4761,
  "Ġclassroom": 7401,
  "ĠR": 521,
  "Ġcheap": 3688,
  "Ġrecogn": 3605,
  "HASTINGS": 5948,
  "ĠAfri": 5544,
  "Ġmob": 4525,
  "Wh": 450,
  "Ġuseful": 4342,
  "Ġself": 3368,
  "Ġcrea": 4569,
  "Ġtri": 1213,
  "ĠWashington": 6683,
  "Ġpictures": 4190,
  "110": 2600,
  "Ġaim": 6307,
  "spoon": 4643,
  "Û": 156,
  "Ġoffering": 6202,
  "Ġdid": 702,
  "Ġspecies": 4619,
  "ĠEurope": 3830,
  "ttps": 6758,
  "Ġbegins": 5637,
  "Ġthroat": 5500,
  "According": 7663,
  "Certainly": 2141,
  "Ġhumans": 4286,
  "Ġland": 2309,
  "Ġguys": 3673,
  "Ex": 1088,
  "ĠAnything": 4317,
  "Ġprovides": 3827,
  "Ġinqu": 5671,
  "ARD": 1700,
  "Ġadditional": 5471,
  "ã": 164,
  "Ġpink": 6378,
  "Ġdelivered": 5220,
  "Ġpleased": 5299,
  "Ġrequirements": 5403,
  "Ġcham": 7216,
  "Ġenth": 7312,
  "versity": 1906,
  "Look": 2319,
  "ender": 6117,
  "bur": 5105,
  "iest": 4307,
  "ĠSenator": 6764,
  "Ġlandsca": 7011,
  "ffer": 3567,
  "ppiness": 465,
  "ray": 3932,
  "Ġscenery": 7240,
  "Ġheat": 3190,
  "Ġkindness": 6997,
  "Ġshape": 4285,
  "Ġimpressed": 5174,
  "Ġboring": 4484,
  "Ġfunction": 3824,
  "06": 5406,
  "Ġrel": 1138,
  "claim": 6725,
  "ator": 2206,
  "tened": 7742,
  "ive": 385,
  "Ġ20": 1610,
  "Ġcapt": 4571,
  "Ġmap": 5798,
  "Ġcould": 789,
  "ad": 554,
  "Ġtax": 2281,
  "Ġmissing": 5867,
  "KE": 2177,
  "sphere": 3516,
  "Ġwid": 4359,
  "Ġdesired": 6640,
  "ļ": 253,
  "bye": 2306,
  "Ġvast": 6988,
  "Ġbuff": 8008,
  "ĠHarry": 6713,
  "ĠServing": 5852,
  "Ġaccording": 3307,
  "Ġyoung": 1827,
  "Ġhundred": 2692,
  "Ġenergy": 1719,
  "Ġsuch": 938,
  "HAM": 4289,
  "ĠTechnology": 7388,
  "Ġhomework": 4943,
  "Ġform": 1260,
  "ange": 905,
  "à": 161,
  "ĠApple": 6216,
  "no": 343,
  "Ġdom": 5604,
  "Ġproducts": 2031,
  "Ġproduce": 3251,
  "Ġproblem": 891,
  "Ġeconom": 2469,
  "Ġbir": 1669,
  "900": 7942,
  "ashion": 2949,
  "Ġbott": 3625,
  "ĠK": 1143,
  "Ġtrue": 1451,
  "Ġscar": 5692,
  "Ġconsider": 2004,
  "ices": 3406,
  "bled": 5124,
  "ION": 6639,
  "Ġincome": 4676,
  "Ġsunshine": 7519,
  "60": 1664,
  "ouch": 2434,
  "Ġran": 3564,
  "ĠSouth": 4855,
  "ĠRick": 8118,
  "ĠJohn": 1859,
  "ĠRob": 3921,
  "Ġpos": 1510,
  "Ġreducing": 6565,
  "Ġconditions": 3687,
  "ĠWar": 2897,
  "Ġshining": 8113,
  "Ġoutcomes": 7990,
  "Ġthyself": 6374,
  "Ġchocol": 3867,
  "de": 1624,
  "Ġsim": 1808,
  "Ġheart": 1651,
  "odi": 6094,
  "Ġdeep": 2502,
  "rey": 6234,
  "Ġrocks": 6721,
  "Ġnumbers": 3029,
  "bie": 6445,
  "BY": 5889,
  "Ġnation": 7266,
  "MER": 5409,
  "Ġchances": 7311,
  "Ġsurvive": 6015,
  "Ġovers": 5338,
  "Ġinvolve": 7636,
  "Ġbud": 3433,
  "Ġbillion": 6141,
  "tee": 4407,
  "ĠLife": 627,
  "ident": 2025,
  "Ġbow": 3682,
  "Ġbutter": 4297,
  "es": 372,
  "Ġgenerally": 5436,
  "ateg": 2798,
  "Ġchallenges": 5444,
  "Ġcult": 4924,
  "Ġvers": 5506,
  "MERCUTIO": 5545,
  "ĠJapanese": 5137,
  "Ġupon": 1821,
  "house": 3678,
  "bit": 2752,
  "Ġworking": 1378,
  "Ġdessert": 4298,
  "Ġthin": 5606,
  "Ġexpenses": 5083,
  "25": 2244,
  "Ġmaximum": 5758,
  "Ġideas": 2967,
  "Show": 7209,
  "Ġincrea": 1618,
  "Ġlug": 3529,
  "Ġtold": 1758,
  "Ġdifficulty": 7627,
  "Ġsoldi": 5044,
  "road": 3552,
  "ĠTh": 497,
  "Ġeverywhere": 5249,
  "Ġpeaceful": 7015,
  "Than": 3492,
  "Ġconvenient": 3100,
  "Ġable": 1565,
  "thing": 809,
  "Ġfun": 1401,
  "Ġroad": 2924,
  "Ġallowing": 3893,
  "Ġconnection": 5308,
  "Ġabroad": 4062,
  "ary": 320,
  ".\",": 355,
  "Pro": 2466,
  "Ġsw": 1257,
  "sadness": 1024,
  "Ġboarding": 6497,
  "Ġwhat": 616,
  "Ġinsp": 8105,
  "Ġaffor": 6992,
  "Ġhorrible": 6211,
  "prise": 826,
  "ide": 773,
  "Ġelevator": 6364,
  "Ġdecrea": 5931,
  "Ġmental": 6275,
  "Ġsafe": 3722,
  "Ġexams": 6264,
  "Ġsink": 7692,
  "ague": 5626,
  "Ġthose": 1415,
  "eah": 953,
  "ĠArtificial": 6082,
  "Ġexhausted": 7937,
  "Ġgrass": 6329,
  "Ġmid": 4270,
  "Ġtechnolog": 5211,
  "Ġteen": 7860,
  "Ġ14": 1217,
  "Fine": 2245,
  "ĠThen": 1877,
  "Ġcreature": 6830,
  "ically": 2026,
  "Ġmostly": 5250,
  "Ġsouth": 5566,
  "Ġfits": 7063,
  "mother": 6367,
  "Ġdevil": 6667,
  "onderful": 6756,
  "Ġspot": 4306,
  "Gl": 6224,
  "Ġem": 1067,
  "iliar": 4265,
  "Ġmessages": 6268,
  "Ġpoint": 1785,
  "Ġparties": 5205,
  "ider": 1788,
  "Ġnothing": 1655,
  "Ġdark": 2896,
  "Ġrash": 7474,
  "Polit": 3524,
  "ï": 176,
  "Ġbowl": 5053,
  "Ġfootball": 3512,
  "Ġtea": 2046,
  "Ġdrinking": 4371,
  "dialog": 308,
  "ĠSo": 1267,
  "ring": 2370,
  "osen": 6996,
  "Ġimpl": 3869,
  "Ġc": 378,
  "ĠHum": 6248,
  "ency": 2386,
  "uch": 673,
  "Ġfully": 5023,
  "Ġjacket": 7593,
  "iled": 5004,
  "Say": 4706,
  "Ġeventually": 5873,
  "Ġproced": 5791,
  "Ġhonor": 7010,
  "imum": 3547,
  "Ġfield": 2882,
  "Ġguaran": 4730,
  "Ġsets": 5743,
  "night": 3256,
  "urp": 6969,
  "Must": 7243,
  "Ġone": 615,
  "ptoms": 7189,
  "Ġ120": 8147,
  "Ġdifferences": 5048,
  "Ġmercy": 5878,
  "Ġwants": 3027,
  "Ġvillage": 6927,
  "Mar": 6858,
  "itor": 3614,
  "ww": 4567,
  "ĠPri": 6717,
  "ots": 2478,
  "Ġrh": 7269,
  "ĠHello": 7383,
  "Ġstorm": 5871,
  "Ġdelicate": 7894,
  "ghter": 2086,
  "Ġbecame": 5673,
  "balt": 5709,
  "Ġsolution": 4346,
  "Ġhold": 2095,
  "50": 1176,
  "TEN": 5143,
  "ier": 1868,
  "3": 23,
  "Ġamounts": 6492,
  "Ġdes": 998,
  "light": 3366,
  "ħ": 232,
  "Ġmarket": 1570,
  "Ġdev": 2537,
  "mally": 7252,
  "Ġheada": 4766,
  "Ġpor": 7700,
  "Ġrandom": 6671,
  "Ġarrang": 4558,
  "ĠAUM": 7277,
  "Ġadvantage": 4840,
  "Ġtruth": 3069,
  "Ġpur": 1621,
  "inks": 4975,
  "Ġsmoke": 5016,
  "Ġbrothers": 7307,
  "Ġshipping": 6886,
  "xygen": 7028,
  "lex": 3493,
  "Ġletting": 8007,
  "ere": 428,
  "Ġtext": 2117,
  "ĠRIB": 3234,
  "thanks": 6761,
  "Ġmedical": 3604,
  "Ġlike": 519,
  "Ġregularly": 5173,
  "KATH": 4733,
  "ĠWhere": 1973,
  "ĠD": 624,
  "89": 1554,
  "God": 4773,
  "unction": 7989,
  "Ġplayer": 3800,
  "Ġbetter": 932,
  "Ġhoping": 4697,
  "ĠLisa": 8116,
  "Ġ...": 2232,
  "Ġsimply": 5085,
  "MIONE": 7652,
  "Ġpredi": 3125,
  "oose": 1991,
  "Step": 7126,
  "Ġbones": 7698,
  "father": 6297,
  "Ġpromised": 4907,
  "BAPTISTA": 5270,
  "Ġprosp": 7859,
  "PULET": 4353,
  "Ġd": 381,
  "son": 3054,
  "Ġcommunity": 5261,
  "Ġdevice": 6274,
  "Ġbeneficial": 7136,
  "Shepherd": 6914,
  "Ġeconomic": 4189,
  "Ġstaff": 3286,
  "terday": 1978,
  "Ġvac": 6630,
  "Ġimprove": 2555,
  "Ġwalk": 1880,
  "´": 117,
  "osed": 1833,
  "Ġyet": 1222,
  "Ġtechnology": 2129,
  "ĠPr": 3160,
  "Ġwings": 6530,
  "ire": 920,
  "our": 482,
  "ager": 5680,
  "Ġll": 5973,
  "if": 471,
  "Ġqueen": 2974,
  "ĠInstruction": 594,
  "ps": 1141,
  "Ġaren": 2451,
  "Ġinfluence": 5540,
  "angle": 4861,
  "ĠCa": 7978,
  "noon": 1446,
  "UCES": 2596,
  "800": 6519,
  "Ġrenewable": 4288,
  "JULIET": 3711,
  "Ġled": 5153,
  "IAN": 4320,
  "Ġwish": 1938,
  "Ġfarm": 7200,
  "ater": 3749,
  "ervant": 4470,
  "Art": 7327,
  "Ġnever": 1066,
  "Ġlands": 7900,
  "ĠToday": 7013,
  "UMBER": 6073,
  "ip": 552,
  "card": 6955,
  "Ġmus": 1557,
  "Ġbrought": 3147,
  "Ġprog": 1579,
  "xford": 7254,
  "ially": 5770,
  "Ġhon": 2237,
  "orous": 6447,
  "omen": 6373,
  "tle": 926,
  "ē": 212,
  "Ġher": 745,
  "Ġattend": 2489,
  "disgust": 2007,
  "Ġmeans": 2103,
  "unk": 3566,
  "Ġfil": 1835,
  "``": 2499,
  "ĠĠĠĠĠĠĠ": 267,
  "Ġlesson": 8175,
  ").": 4164,
  "Ġeasier": 3452,
  "Ġvitamins": 7806,
  "Ġcapabilities": 7905,
  "tens": 3371,
  "Ġtransform": 7892,
  "iam": 5710,
  "Ġdescription": 4182,
  ":": 30,
  "zh": 5665,
  "ought": 1416,
  "THUMBER": 6076,
  "ared": 2548,
  "TOL": 5274,
  "cery": 7676,
  "IB": 3177,
  "Ġdisadvant": 7874,
  "Ġground": 3283,
  "Ġcontest": 6982,
  "è": 169,
  "Ġeffects": 3726,
  "ĠCanada": 4553,
  "ander": 5794,
  "c": 71,
  "Ġbike": 4887,
  "kins": 8081,
  "isle": 5842,
  "fect": 1677,
  "Ġsettled": 5884,
  "Ġscratch": 7553,
  "Ġbuilt": 4368,
  "ure": 590,
  "lymp": 4333,
  "ĠRichard": 3444,
  "uff": 6780,
  "Ġdevelopment": 3272,
  "Ġcosts": 3070,
  "Such": 6599,
  "Ġwoo": 6609,
  "gen": 5832,
  "Read": 7947,
  "Ġgall": 5006,
  "erson": 1081,
  "adays": 5134,
  "Ġpardon": 4145,
  "ĠWatch": 7177,
  "RUCH": 3228,
  "Y": 61,
  "Ġcat": 1817,
  "Ġanywhere": 4305,
  "Ġimmediately": 4447,
  "Ġthey": 667,
  "Ġbeef": 3865,
  "eases": 5376,
  "Definitely": 7238,
  "Ġmeaning": 2892,
  "Ġpas": 2944,
  "oof": 3530,
  "entlem": 5675,
  "ĠVINCENTIO": 2879,
  "lig": 7567,
  "Ġquantum": 7123,
  "2": 22,
  "thern": 7521,
  "Ġgases": 6669,
  "ĠKong": 5997,
  "Ġcrit": 4690,
  "ĠEconom": 6810,
  "age": 756,
  "Tom": 3992,
  "Ordinary": 653,
  "Ġfollows": 5251,
  "Ġeffic": 2475,
  "illy": 6235,
  "Ġwell": 822,
  "Ġthirty": 2850,
  "Ġimplement": 6845,
  "MIO": 4376,
  "Ġagain": 977,
  "Ġarmy": 7909,
  "Compare": 5647,
  "ales": 5904,
  "Ġloved": 4527,
  "Ġdetect": 5071,
  "Ġflavor": 7548,
  "Ġtravell": 5528,
  "Ġwan": 1948,
  "Ġpassing": 6649,
  "71": 3222,
  "Ġge": 5612,
  "Ġtree": 3713,
  "exp": 5690,
  "Ġelectron": 5639,
  "iety": 3108,
  "tense": 8003,
  "Ġhelpful": 4340,
  "don": 8078,
  "į": 240,
  "ĠĊ": 825,
  "at": 345,
  "Ġhol": 2604,
  "idation": 710,
  "Ġdiscover": 4765,
  "Ġdread": 6171,
  "dle": 7249,
  "lines": 6777,
  "Ġcha": 2511,
  "Ġknees": 8051,
  "Ġraise": 4315,
  "Ġgraduate": 5052,
  "Ġattractive": 5448,
  "aset": 458,
  "Ġexactly": 2543,
  "Ġjournal": 7911,
  "Once": 4817,
  "Where": 1326,
  "ĠZh": 5489,
  "Ġopening": 5207,
  "Ġfuture": 2409,
  "Ġdesign": 1976,
  "Ġfood": 1100,
  "Ġaccompl": 6510,
  "Ġdin": 1500,
  "cess": 917,
  "umph": 7732,
  "Ġlonger": 2946,
  "Ġenables": 6990,
  "Ġcarpet": 5994,
  "tempt": 6872,
  "cules": 7773,
  "mon": 4959,
  "==": 295,
  "Ġrem": 1103,
  "asty": 5123,
  "ĠIndi": 4128,
  "ĠSh": 1988,
  "ello": 1086,
  "Ġsa": 811,
  "Ġmentioned": 7538,
  "binary": 336,
  "Ġdiscount": 3030,
  "§": 105,
  "ĠHel": 5618,
  "Ē": 211,
  "econd": 2732,
  "Ġbreast": 7009,
  "really": 7158,
  "x": 92,
  "Ġoutdoor": 7862,
  "ĠPh": 4339,
  "·": 120,
  "Ġres": 944,
  "its": 1202,
  "Ġtur": 4848,
  "Ġlength": 4250,
  "Ġlo": 665,
  "ĠChicago": 7188,
  "Ġyears": 1171,
  "Ġknock": 5704,
  "DUCHESS": 4995,
  "Ġsovereign": 5595,
  "Ġpays": 7162,
  "ĠTV": 2427,
  "Ġanimals": 3273,
  "Ġac": 794,
  "uary": 6527,
  "og": 305,
  "adness": 1014,
  "NT": 3122,
  "Ġsooner": 8019,
  "Ġflu": 5926,
  "GRE": 4698,
  "Ġus": 571,
  "Ġpandemic": 7139,
  "domain": 317,
  "Why": 1019,
  "Ġgives": 3952,
  "Ġplan": 1137,
  "Ï": 144,
  "ĠMore": 6544,
  "Ġpra": 6887,
  "Ġtheir": 819,
  "Ġadvance": 5018,
  "Those": 6177,
  "orrow": 1003,
  "Upon": 5144,
  "Ġentrance": 6662,
  "Ġfault": 3294,
  "tead": 2825,
  "Ġcollecting": 7916,
  "Ġmoment": 1694,
  "Ġheaven": 2726,
  "Ġfro": 7492,
  "Ġwas": 561,
  "Ġster": 7258,
  "Ġthrone": 8158,
  "ĠEven": 5290,
  "Ġname": 1011,
  "ĠBl": 4064,
  "Ġsweat": 7881,
  "BEN": 5408,
  "ocate": 7814,
  "ĠAl": 1998,
  "Ġbasically": 7513,
  "Ġincon": 6879,
  "Ġath": 6391,
  "Hel": 7037,
  "ĠChin": 1096,
  "Ġtyping": 7510,
  "Ġorganic": 7108,
  "ards": 6191,
  "cket": 6321,
  "Ġsouvenirs": 7933,
  "amed": 3947,
  "Ch": 2665,
  "emic": 4963,
  "Ġgoodness": 6986,
  "categori": 289,
  "Ġmove": 2060,
  "Ġfunctions": 7615,
  "Ġinvitation": 6653,
  "Ġmemo": 8189,
  "Ġdepos": 7299,
  "Ġminutes": 1406,
  "one": 630,
  "vable": 6528,
  "Ġsinger": 6912,
  "Ġginger": 7967,
  "Ġwher": 7475,
  "ĠJava": 7870,
  "92": 2888,
  "Ġdecl": 3685,
  "Ġtake": 694,
  "Ġcomputing": 5522,
  "une": 2618,
  "Ġresume": 3723,
  "Ġpractical": 6833,
  "term": 2294,
  "Ġsinging": 6001,
  "ĠSteven": 4594,
  "Hey": 1903,
  "ourism": 1061,
  "idays": 5966,
  "Ġerror": 7225,
  "Ġfortune": 4351,
  "gori": 288,
  "Ġat": 540,
  "ĠOne": 3360,
  "Man": 8070,
  "Categori": 6944,
  "Ġperspect": 7399,
  "ĠWh": 838,
  "Ġcap": 2712,
  "ousand": 2351,
  "ipes": 6465,
  "ilt": 2376,
  "Ġsaw": 2000,
  "ĠGrand": 6214,
  "umin": 5797,
  "Ġid": 963,
  "Ġlaundry": 5055,
  "Ġice": 3082,
  "î": 175,
  "Ġtom": 1115,
  "ult": 940,
  "ims": 7842,
  "ying": 3299,
  "Ġrecent": 2263,
  "Ġessential": 4504,
  "ifts": 4751,
  "ill": 478,
  "oli": 8127,
  "Ġimpression": 5441,
  "azz": 7763,
  "view": 1539,
  "Ġyounger": 5344,
  "so": 813,
  "â": 163,
  "Ġheads": 6057,
  "ĠPython": 5623,
  "Ġlooking": 1302,
  "Ġsplit": 6097,
  "berries": 8006,
  "ĠAnyway": 4399,
  "Ġbig": 1250,
  "Ġanytime": 7286,
  "Í": 142,
  "Ġsense": 2615,
  "38": 1315,
  "Ġdefend": 7211,
  "CIUS": 6857,
  "gorith": 2453,
  "Ġcheaper": 3940,
  "ON": 2824,
  "Ġmilk": 3927,
  "itors": 6310,
  "Ġhope": 1181,
  "'s": 410,
  "Ġservices": 2677,
  "keep": 6459,
  "Ġlip": 6184,
  "Ġsuperv": 5447,
  "ute": 915,
  "Ġspeak": 1128,
  "Ġmathemat": 5947,
  "Ġintelligent": 7315,
  "ni": 1611,
  "Ġdied": 5565,
  "Ġweren": 6453,
  "ĠChrist": 2669,
  "Ġper": 897,
  "Ġsummar": 6735,
  "ep": 748,
  "Ġbuildings": 7525,
  "Ġcountries": 2464,
  "ORIOLAN": 3337,
  "INGS": 5866,
  "ĠSunday": 3784,
  "Ġseller": 7528,
  "Ġmot": 3133,
  "CE": 3646,
  "Ġleft": 1590,
  "16": 1265,
  "Ġperfume": 7803,
  "east": 5838,
  "ibility": 3308,
  "aur": 1697,
  "Ġbonus": 5699,
  "Ġeyes": 2052,
  "Ġmonths": 2228,
  "elsius": 7213,
  "Ġcontrary": 8167,
  "wise": 3862,
  "spe": 2559,
  "ngl": 1211,
  "Ġassistant": 3941,
  "cohol": 5546,
  "ubs": 7816,
  "Give": 1955,
  "Ġchef": 7382,
  "us": 349,
  "issions": 4364,
  "Ġb": 363,
  "aint": 3414,
  "l": 80,
  "ĠEuropean": 6501,
  "ĠMc": 7281,
  "Ġcloth": 7005,
  "isy": 5511,
  "Ġprod": 1059,
  "Ġworship": 7727,
  "Ġgro": 4251,
  "Ġpicnic": 5357,
  "Ġdreams": 5267,
  "ĠSay": 6322,
  "Categorize": 7032,
  "+": 15,
  "Ġremain": 4344,
  "ness": 840,
  "Ġqu": 770,
  "Ġfifty": 4535,
  "Ġclimbing": 8047,
  "ĠAugust": 7278,
  "inger": 4457,
  "Ġnames": 5672,
  "Ġwallet": 6425,
  "KING": 1585,
  "Ġrare": 6107,
  "eve": 7677,
  "Ġrate": 2367,
  "eated": 7570,
  "Ġheav": 2545,
  "Ġ24": 4082,
  "LORD": 7674,
  "Ġthoughtful": 7753,
  "ĠSome": 3349,
  "Ġlink": 6315,
  "Ġhapp": 999,
  "Classify": 3943,
  "Ġserver": 7626,
  "life": 5900,
  "Ġtheory": 7260,
  "Ġcarr": 6637,
  "Ġelectricity": 5445,
  "idence": 4710,
  "struction": 587,
  "INGBR": 4473,
  "Ĕ": 213,
  "fully": 2620,
  "DY": 3748,
  "ead": 720,
  "ĠATM": 6891,
  "ĠQu": 6748,
  "Ġship": 5367,
  "oses": 7396,
  "Ġaltogether": 7274,
  "Ġmode": 7993,
  "Ay": 3101,
  "Ġstor": 2291,
  "Ġhouse": 1215,
  "Ġgorgeous": 7939,
  "ĠLondon": 2873,
  "Ġprepared": 4263,
  "!": 5,
  "Ġhelp": 707,
  "cription": 2564,
  "Ġprocesses": 5480,
  "Ġmagazines": 5539,
  "ì": 173,
  "Ġtraveler": 6489,
  "Ġcash": 2167,
  "ative": 1497,
  "82": 2016,
  "tics": 7815,
  "Ġris": 2436,
  "Ġtoys": 7830,
  "Ġrecommendation": 8060,
  "ĠRoom": 5788,
  "ĠHis": 4416,
  "Ġhuman": 2530,
  "Ġpopular": 2276,
  "Ġlow": 2494,
  "Ġdoubt": 3643,
  "ry": 568,
  "HENRY": 4142,
  "Thus": 7167,
  "Ġcultural": 7334,
  "Ġetc": 5498,
  "T": 56,
  "Ġsetting": 4904,
  "write": 3123,
  "ided": 2195,
  "Ġrage": 7973,
  "Either": 7557,
  "ream": 2022,
  "ĠSm": 2021,
  "Ġdate": 2241,
  "aul": 3860,
  "comes": 4572,
  "Ġmight": 1329,
  "Ġlean": 7885,
  "Ġsometime": 4154,
  "UM": 2730,
  "oration": 7956,
  "Ġcoast": 5732,
  "Am": 4508,
  "88": 1437,
  "Two": 3676,
  "Ġgentleman": 4446,
  "orm": 4670,
  "Ġunexp": 6994,
  "Ġcompanies": 2983,
  "Ġrec": 1537,
  "Ġstrategy": 4874,
  "Ġangry": 4425,
  "Ġmobile": 4638,
  "Ġsug": 1680,
  "Ġoption": 3520,
  "Ġrefer": 6106,
  "Ġpain": 1819,
  "Ġbigger": 4722,
  "Ġdownt": 4993,
  "Ġdet": 2454,
  "ĠPresident": 5729,
  "Ġsight": 3023,
  "Ġgive": 768,
  "by": 2107,
  "ĠHar": 6807,
  "ĠSte": 3348,
  "Ġfacing": 8151,
  "Ġlarge": 1826,
  "more": 2870,
  "Ġborn": 3591,
  "Ġserved": 5481,
  "Ġgas": 2910,
  "Ġsmart": 3852,
  "ĠBob": 3235,
  "ľ": 255,
  "Ġproduct": 1283,
  "Ġ4": 484,
  "Ġfell": 4362,
  "Ġfan": 6173,
  "ises": 3657,
  "Per": 5768,
  "lue": 3475,
  "Str": 6949,
  "Ġdu": 7263,
  "iver": 5551,
  "Ġessay": 6017,
  "Ġintend": 5614,
  "Ġflow": 2883,
  "ĠGood": 2391,
  "Ġappreci": 2335,
  "Ġrise": 4413,
  "Ġcatch": 2556,
  "Ġbudget": 4221,
  "Ġseats": 4692,
  "Ġperfect": 2015,
  "Ġanymore": 4029,
  "ĠTai": 3911,
  "anger": 990,
  "angu": 1696,
  "Ġmake": 736,
  "Ġfried": 5417,
  "dio": 3313,
  "Ġclim": 3982,
  "Ġtraffic": 2670,
  "Ġfore": 2234,
  "01": 5101,
  "ĠWait": 5569,
  "Ġmainly": 7203,
  "ell": 507,
  "Ġparking": 3955,
  "zing": 5002,
  "Ġbenefit": 5086,
  "Ġemails": 7097,
  "Ġsomething": 952,
  "nesses": 5992,
  "Ġsolutions": 4908,
  "Ġskirt": 6904,
  "la": 7813,
  "force": 6869,
  "Ġdou": 3212,
  "Ġbreakfast": 3207,
  "Ġgirl": 1594,
  "U": 57,
  "Ġdrunk": 5860,
  "Ġmust": 924,
  "Ġbargain": 6064,
  "ĠCongratulations": 7172,
  "Ġspots": 7498,
  "Ġother": 810,
  "Ġinvolves": 3807,
  "ĠRich": 2922,
  "Ġret": 3563,
  "Ġarms": 3997,
  "DWARD": 3033,
  "ess": 421,
  "Ġpresentation": 5045,
  "Ġadvertis": 2876,
  "GONZALO": 7444,
  "Ġneighborhood": 6147,
  "Ġvisa": 4905,
  "Ġfantastic": 4517,
  "Ġorgan": 2187,
  "ĠHon": 7983,
  "73": 2953,
  "Ġmajor": 2315,
  "unning": 7084,
  "Ġvote": 5160,
  "apan": 3127,
  "Ġmodern": 3889,
  "Ġfact": 1842,
  "INC": 2381,
  "achelor": 6940,
  "Ġvacuum": 7805,
  "Ġswear": 4657,
  "Ġdau": 2364,
  "Ġbetween": 1533,
  "Ġwret": 7057,
  "POMP": 5655,
  "ĠLi": 3077,
  "ĠPro": 3007,
  "Ġdemand": 3858,
  "Ġvict": 4792,
  "ĠDidn": 6740,
  "ption": 1838,
  "Ver": 7948,
  "Ġenjoying": 6335,
  "Ġquery": 6898,
  "iz": 780,
  "Ġworkplace": 6469,
  "valu": 5074,
  "###": 493,
  "Ġno": 689,
  "Ġpack": 2051,
  "Ġbefore": 982,
  "=": 33,
  "ĠReg": 7861,
  "Ġagen": 7186,
  "ns": 2889,
  "cies": 3161,
  "Ġsubway": 4260,
  "itizen": 4052,
  "Ġboo": 7828,
  "61": 3330,
  "Ġvoices": 6746,
  "Ġbranch": 4207,
  "Ġgirlfriend": 3743,
  "Ġbeans": 7583,
  "ear": 628,
  "Ŀ": 256,
  "Ġclass": 1145,
  "Ġshortly": 7004,
  "eng": 2153,
  "IR": 7673,
  "58": 1314,
  "Ġindustr": 2801,
  "Ġperi": 3204,
  "ARINA": 4721,
  "Ġgate": 5458,
  "ĠPIN": 7865,
  "Ġexplore": 5168,
  "ooper": 4610,
  "Ġin": 396,
  "Ġwelcome": 1738,
  "Ġeveryone": 2226,
  "oles": 5724,
  "Ġtruly": 6631,
  "Ġdat": 1221,
  "ĠYear": 5380,
  "ham": 3945,
  "Ġmadam": 2675,
  "based": 4167,
  "ally": 553,
  "Ġring": 3946,
  "Ġcourt": 4209,
  "Ġhighly": 4617,
  "Ġwere": 900,
  "le": 426,
  "MI": 3901,
  "VOLIO": 5443,
  "Ġdepend": 2622,
  "IS": 2085,
  "Ġless": 1844,
  "app": 2589,
  "Whose": 5846,
  "Ġrefrigerator": 6221,
  "Ġareas": 4042,
  "Ġdown": 993,
  "Ġcafeteria": 7129,
  "ise": 686,
  "Ġmighty": 8018,
  "etch": 5327,
  "Ì¦Ì¦Ì¦Ì¦": 2076,
  "ç": 168,
  "ama": 6035,
  "uting": 4268,
  "utch": 7050,
  "HERMIONE": 7661,
  "Ġspent": 3390,
  "53": 2762,
  "ANGELO": 4701,
  "Ķ": 247,
  "Ġtravelling": 7026,
  "Ġserving": 7766,
  "Ġste": 1364,
  "Ġresol": 4419,
  "Ġauthor": 5589,
  "26": 1450,
  "Ġmyster": 4835,
  "Ġweeks": 2227,
  "Ġstrategies": 5136,
  "ĠSc": 5980,
  "Ġpsych": 6963,
  "Ġexhib": 4790,
  "Ġtrick": 6718,
  "Ġadded": 6418,
  "ishment": 6400,
  "ĠBianca": 7729,
  "Ġapolog": 4625,
  "Ġtooth": 5610,
  "Ġexpand": 6470,
  "Nice": 4034,
  "zil": 7354,
  "Ġdemonstr": 6496,
  "LUCIO": 3962,
  "Ġwrit": 3603,
  "Ġprocess": 1637,
  "ie": 682,
  "POMPEY": 5765,
  "ction": 1517,
  "Ġauthority": 7643,
  "Ġdraft": 8185,
  "250": 7343,
  "Ġbuild": 2090,
  "Ġsca": 2510,
  "Ġaunt": 7421,
  "Ġimport": 1157,
  "struct": 3088,
  "specially": 2641,
  "Ġsports": 2861,
  "Ġcontains": 6133,
  "dates": 6878,
  "Ġtend": 4827,
  "Ġshopping": 2179,
  "BA": 2769,
  "ĠOr": 3950,
  "Ġsake": 6376,
  "ĠMount": 6039,
  "ations": 1188,
  "Ġrecy": 5517,
  "ĠServingman": 5888,
  "Ġrealize": 5632,
  "they": 7529,
  "Ġroommate": 7873,
  "Ġcompon": 4524,
  "Ĩ": 233,
  "Ġreceived": 3362,
  "Ġrelations": 7400,
  "oh": 1276,
  "moking": 4988,
  "Ġgentlemen": 6428,
  "Ā": 193,
  "ploy": 1566,
  "Ġhalf": 1919,
  "Ġacqu": 6557,
  "Against": 6687,
  "Ġlost": 2030,
  "Ġspoke": 6255,
  "Ġ|": 3651,
  "Ste": 4540,
  "Ġbalance": 4560,
  "ĠWhile": 6995,
  "Ġagency": 6633,
  "umn": 4549,
  "iner": 6952,
  "but": 6157,
  "ood": 514,
  "Ġdi": 508,
  "Ġgrades": 7313,
  "Ġyouth": 5969,
  "oll": 3768,
  "ĠMary": 2357,
  "Ġkids": 2905,
  "uses": 3209,
  "ĠBeijing": 2428,
  "Ġpolit": 4004,
  "ĠBe": 1622,
  "Ġseason": 3561,
  "Ġ199": 5913,
  "Ġcompli": 5159,
  "ĠCath": 6975,
  "ĠGeorge": 4596,
  "WAR": 4225,
  "Ġtrou": 6551,
  "Ġnotes": 5426,
  "Ġex": 564,
  "Ġmind": 1184,
  "ctions": 3257,
  "__": 2610,
  "Ġshow": 1093,
  "Ġcome": 817,
  "Ġ19": 2057,
  "Ġlik": 2806,
  "ZALO": 7348,
  "urder": 3347,
  "irm": 2528,
  "Ġoh": 6965,
  "Ġturned": 4259,
  "Al": 2130,
  "iny": 6371,
  "Ġfee": 4005,
  "°": 113,
  "Ġconversation": 5097,
  "Ġfund": 4146,
  "Ġag": 765,
  "Ġshower": 4983,
  "Ġevening": 1727,
  "Ġjob": 936,
  "oe": 3168,
  "Ġwis": 6305,
  "Ġbecause": 1230,
  "Ġparticip": 5642,
  "erget": 8087,
  "Ġstood": 6319,
  "Ġdevices": 5693,
  "Ġdeed": 6626,
  "Ġmurder": 4744,
  "Ġsomebody": 6043,
  "Ġowe": 5151,
  "Ġcrown": 3401,
  "Ġeng": 3236,
  "Ġbeen": 767,
  "Ġprogramming": 4871,
  "Ġdomestic": 7799,
  "ited": 2270,
  "Ġmessage": 3032,
  "Ġof": 398,
  "nel": 6368,
  "ĠWind": 5372,
  "Ġindi": 2495,
  "Ġexisting": 6938,
  "Ġbenefits": 2687,
  "Ġenemy": 6362,
  "ĠVal": 6481,
  "Ġopposite": 6363,
  "Ġis": 409,
  "Ġtweet": 7445,
  "Ġlar": 1518,
  "Stay": 7534,
  "Rewrite": 3376,
  "ĠWell": 2105,
  "Ġmov": 2445,
  "ror": 3461,
  "Ġgri": 5912,
  "ĠâĢ": 1589,
  "Ġleather": 6476,
  "Ġshowing": 5474,
  "ating": 1588,
  "Ġstamps": 7131,
  "Ġcourse": 985,
  "sponse": 592,
  "ć": 200,
  "Had": 6442,
  "Ġ:": 4228,
  "rom": 2625,
  "echnology": 5653,
  "ĠWhen": 1653,
  "ak": 2201,
  "ĠPe": 2419,
  "Ġcomplicated": 5703,
  "ĠBuckingham": 6767,
  "ception": 6304,
  "Ġsnow": 3478,
  "Mark": 6443,
  "Ġbrown": 4651,
  "Ġaward": 8092,
  "NORTHUMBERLAND": 6087,
  "Ġappet": 4796,
  "Ġinclud": 1936,
  "Ġdanger": 3324,
  "Absolutely": 5226,
  "Ġearn": 6200,
  "Ġrough": 5068,
  "bes": 7144,
  "Ġhigh": 1075,
  "Ġexcited": 3298,
  "istics": 4862,
  "Ġcouple": 2570,
  "²": 115,
  "Ġability": 3169,
  "Ġautumn": 7207,
  "ast": 705,
  "Ġactiv": 2450,
  "Ġregistration": 6333,
  "Ġreservations": 8150,
  "Ġhanging": 7782,
  "Ġw": 348,
  "year": 5232,
  "Ġmoves": 7497,
  "Ġcircum": 6584,
  "ket": 4356,
  "ancis": 5495,
  "Ġmovies": 2815,
  "bot": 5893,
  "Ġlose": 2585,
  "it": 356,
  "str": 566,
  "icated": 8080,
  "How": 730,
  "rup": 5363,
  "Ġshown": 7714,
  "Ġsore": 6787,
  "ĠMany": 4679,
  "Ġprinc": 4948,
  "Ġthir": 1981,
  "ELLA": 3621,
  "ĠToky": 8190,
  "Finance": 1662,
  "Ġgu": 1336,
  "Ġgoal": 4573,
  "Ġtwe": 7088,
  "Ġsc": 1757,
  "Ġsurprised": 4992,
  "TM": 4918,
  "Ġexpect": 2199,
  "Ġletters": 4240,
  "ĠThomas": 5463,
  "Ġroof": 8112,
  "Ġwise": 5558,
  "gy": 5360,
  "iet": 1714,
  "ression": 8009,
  "Ġbags": 4188,
  "Ġlet": 837,
  "Ġgone": 2280,
  "Ġbest": 1092,
  "ite": 772,
  "tence": 1080,
  "Ġprevent": 4417,
  "Ġusers": 3987,
  "Ġspread": 4494,
  "you": 2906,
  "Describe": 2229,
  "Ġencourage": 6429,
  "Ġdent": 7470,
  "Ġplat": 3910,
  "Ġtreatment": 7222,
  "Ġprint": 3418,
  "Ġresponsibilities": 6579,
  "Ġburning": 5822,
  "Ġviolence": 7127,
  "ils": 4746,
  "Ġport": 4077,
  "Ġab": 528,
  "It": 659,
  "icago": 7110,
  "ger": 1549,
  "Ġdivid": 5785,
  "Ġsurround": 6417,
  "Ġhorse": 4634,
  "non": 329,
  "Ġ0": 452,
  "Ġupset": 5201,
  "Ġsomet": 867,
  "each": 992,
  "Ġlear": 1039,
  "Ġmarry": 4013,
  "Ġfa": 966,
  "Ġcoat": 4718,
  "redients": 3674,
  "Ġdocuments": 3523,
  "Ġplanning": 2969,
  "tening": 3994,
  "cted": 2547,
  "Ġgrave": 5132,
  "Ġbound": 5325,
  "Ġsalary": 2809,
  "Because": 3120,
  "Ġcars": 3422,
  "Ġprote": 2748,
  "ks": 1732,
  "itate": 7362,
  "Let": 1135,
  "Ġpal": 4606,
  "bs": 1367,
  "Ġlives": 2758,
  "Ġbirthday": 2440,
  "Ġprison": 4752,
  "arrow": 7689,
  "Ġcancer": 6884,
  "tes": 1966,
  "Ġdamage": 4191,
  "Ġconcent": 6396,
  "abilities": 6251,
  "rant": 2919,
  "att": 6232,
  "Ġaccuracy": 5876,
  "ĠChristmas": 3396,
  "Ġhundreds": 7635,
  "Ġadject": 6722,
  "Ġrecognize": 6843,
  "Ġho": 1072,
  "Ġbra": 3025,
  "my": 3789,
  "Ġamount": 2292,
  "ĠMan": 4857,
  "Ġawful": 6075,
  "Ġ$": 1280,
  "Ġwill": 548,
  "Ġgolden": 6500,
  "09": 5024,
  "urb": 8107,
  "ael": 5550,
  "Ġ18": 2310,
  "================": 413,
  "ew": 1571,
  "rel": 3771,
  "med": 5663,
  "Ġpo": 706,
  "PET": 3065,
  "Ġdecis": 3671,
  "ellow": 2772,
  "etruchio": 7802,
  "ool": 842,
  "Ġha": 414,
  "gh": 433,
  "cellent": 2343,
  "esides": 2577,
  "vern": 2411,
  "acts": 332,
  "Ġvalid": 6827,
  "ĠTa": 5989,
  "Ġstation": 3075,
  "ibly": 6907,
  "Ġflex": 4713,
  "ĠCam": 5158,
  "Ġfig": 2639,
  "Ġrepl": 6029,
  "Ġdrivers": 8182,
  "7": 27,
  "Ġsatisf": 2781,
  "ou": 324,
  "Ġstraight": 2854,
  "Ġequ": 2111,
  "atoes": 3904,
  "Ġanything": 1033,
  "Ġrisks": 5349,
  "ouses": 7998,
  "ĠSec": 6541,
  "Ġreply": 7754,
  "Ġdeliver": 2810,
  "Ġaccommo": 7744,
  "ĠChina": 1884,
  "Ġeasy": 1656,
  "Ġevil": 6850,
  "Ġann": 3793,
  "Ġreven": 4273,
  "Ġimpact": 3640,
  "Ġchurch": 5009,
  "feit": 7772,
  "Hello": 1152,
  "Ġseparate": 7232,
  "Ġrelationships": 5352,
  "Ind": 4774,
  "Ġinter": 786,
  "wood": 7048,
  "Ġnear": 1736,
  "Ġintrod": 2952,
  "29": 1514,
  "ark": 853,
  "Ġwr": 1122,
  "Ġhis": 715,
  "Ġquestions": 2268,
  "alking": 1857,
  "Ġeff": 1399,
  "Ġbase": 4284,
  "ister": 1926,
  "Ġbon": 3733,
  "Ġconven": 2717,
  "Ġsoftware": 2880,
  "utter": 331,
  "Ġflatter": 5736,
  "he": 896,
  "Ġreference": 7374,
  "Ġnormal": 6063,
  "Ġinformed": 6647,
  "Ġgen": 3716,
  "Customer": 7807,
  "Ġleader": 4629,
  "Ġ[],": 341,
  "ĠTaylor": 7290,
  "Ġ\"(": 4779,
  "Try": 7560,
  "ĠExp": 6494,
  "uled": 5984,
  "Ġsubs": 5567,
  "Ġcontrol": 3238,
  "being": 7395,
  "Ò": 147,
  "oon": 3476,
  "ousin": 3637,
  "eth": 2290,
  "Ġconcert": 4220,
  "ĠAnd": 946,
  "WARWIC": 4247,
  "Ġreleased": 6729,
  "Ġturns": 6825,
  "elie": 7839,
  "Ġqualified": 6419,
  "Ġbo": 1051,
  "ĠEn": 3532,
  "Ġsuccessful": 3200,
  "Ġprofit": 5345,
  "Tra": 6862,
  "Ġeas": 1266,
  "gestion": 3333,
  "bage": 7145,
  "Ġwast": 7571,
  "Ġstick": 3888,
  "Ġdressed": 6659,
  "Ë": 140,
  "ĠTim": 7598,
  "Okay": 1723,
  "ving": 793,
  "Ġuser": 2271,
  "or": 276,
  "Ġlovely": 3195,
  "Ġcapable": 7219,
  "Ġ25": 3580,
  "mm": 1294,
  "Ġdue": 2783,
  "Ġpizza": 5063,
  "Yes": 563,
  "Ġwant": 661,
  "Ġsoil": 7849,
  "Ġfive": 1432,
  "Ġroses": 5470,
  "irl": 1490,
  "Ġbreaking": 7617,
  "Ġcent": 2303,
  "Ġterms": 3284,
  "Ġaccess": 2421,
  "ples": 3483,
  "ĠSue": 7722,
  "Ġdesk": 3467,
  "ogan": 7960,
  "Ġhunt": 7017,
  "ointed": 5394,
  "ĠParis": 4192,
  "orn": 1937,
  "Ġcreated": 5449,
  "Ġsociety": 5312,
  "nes": 4431,
  "aking": 3244,
  "Ġenable": 7182,
  "ĠMich": 4826,
  "bles": 5014,
  "Ġstudies": 5935,
  "ney": 2676,
  "Ġcalm": 5857,
  "ĠDeposit": 7119,
  "From": 3363,
  "Ġsuitcase": 6573,
  "Ġstranger": 8010,
  "Ġopportunities": 4135,
  "Ġbalanced": 7910,
  "Ġhandling": 8155,
  "Ġblocks": 6007,
  "est": 861,
  "Ġhard": 1132,
  "Ġimpossible": 5802,
  "Ġwrong": 1506,
  "Ġconcl": 4277,
  "500": 4426,
  "Ġconfidence": 6267,
  "Ġdecor": 5077,
  "Ġwater": 1433,
  "Ġbosom": 7366,
  "Ġripe": 8111,
  "Ġmovie": 1771,
  "esh": 6167,
  "Ġclient": 5013,
  "Ġcreat": 1934,
  "Ġprevious": 5202,
  "Ġkill": 2902,
  "Ġscore": 5019,
  "Ġcho": 7977,
  "Ġages": 5336,
  "Ġpand": 6791,
  "ĠCheck": 6755,
  "cing": 2071,
  "food": 6296,
  "Ġcut": 2308,
  "Ġpark": 2521,
  "Ġwood": 4096,
  "bsolutely": 5042,
  "ĥ": 230,
  "Ġgoals": 3848,
  "av": 2500,
  "Ġheir": 7173,
  "Ġapplication": 2166,
  "ployment": 4501,
  "chain": 6383,
  "Ġboss": 2211,
  "lier": 3758,
  "ilst": 7699,
  "Ġphotos": 4811,
  "Ġpassword": 6732,
  "Ġtrust": 3194,
  "Ġclose": 2505,
  "NE": 4566,
  "Ġadvant": 3107,
  "Ġpaid": 2884,
  "pro": 7740,
  "Ġarea": 2390,
  "Ġcombination": 7114,
  "Ġanalysis": 5005,
  "itz": 8093,
  "ick": 728,
  "Ġshort": 1845,
  "Ġsaved": 7603,
  "ĠRom": 8117,
  "ĠMo": 6324,
  "ĠTurn": 7739,
  "ĠWas": 4612,
  "iness": 447,
  "emember": 4358,
  "ĠELI": 4084,
  "ili": 3434,
  "ants": 2150,
  "Ġhealth": 1387,
  "Ġsending": 7410,
  "Ġtaste": 2980,
  "Ġlamb": 7541,
  "Ġstu": 2100,
  "Ġmeals": 4488,
  "Ġpr": 491,
  "COMINIUS": 5317,
  "24": 1445,
  "atural": 2415,
  "ables": 2151,
  "Ġkiss": 4648,
  "Ġstraw": 6124,
  "Ġsle": 4515,
  "look": 5771,
  "Ġexpress": 2904,
  "Ġinvoice": 8020,
  "lt": 6524,
  "Ġfitness": 6663,
  "useum": 4031,
  "Ġ7": 544,
  "Ġhaving": 1679,
  "Ġworse": 3661,
  "ĠChe": 4552,
  "Ġsucceed": 6488,
  "Ġmonth": 1099,
  "Ġholidays": 6495,
  "Ġwomen": 3804,
  "br": 1692,
  "Ġbicycle": 7340,
  "form": 373,
  "In": 1206,
  "Ġticket": 2048,
  "da": 392,
  "Suggest": 4403,
  "YCUS": 5316,
  "He": 883,
  "Ġperform": 2101,
  "ĠID": 3773,
  "Ġmess": 2146,
  "(": 12,
  "Ġshoes": 3094,
  "Ġonly": 945,
  "ina": 2954,
  "Ġbelow": 4555,
  "Ġpick": 1899,
  "Ì": 141,
  "ENIUS": 3197,
  "fortun": 4347,
  "Ġenv": 1780,
  "ª": 108,
  "ĠBill": 4027,
  "able": 764,
  "ĠBOLINGBROKE": 4479,
  "Ġforgive": 6382,
  "eren": 5835,
  "Ġten": 1556,
  "ton": 3430,
  "ality": 6021,
  "tain": 2302,
  "H": 44,
  "Ġthis": 509,
  "Ġopened": 5341,
  "Ġpay": 973,
  "Ġmoon": 3981,
  "Ġwest": 7477,
  "an": 298,
  "Ġmass": 4883,
  "Ġusually": 1522,
  "Ġ30": 2872,
  "ĠSu": 4365,
  "Ġoffice": 1278,
  "Ġenough": 1463,
  "Ġnut": 3774,
  "split": 456,
  "Ġemployment": 8029,
  "Ġsystems": 3182,
  "Ġhell": 5778,
  "ĠItaly": 7987,
  "ighb": 3090,
  "Think": 7066,
  "Ġgain": 3684,
  "sted": 6778,
  "Ġgram": 4394,
  "Ġexerc": 2014,
  "ORK": 2915,
  "illo": 6799,
  "tember": 6166,
  "Ġwoman": 2680,
  "not": 1643,
  "tent": 328,
  "Ġorders": 5096,
  "IC": 1595,
  "ĠPC": 6192,
  "erc": 1720,
  "ena": 6876,
  "Ġsuit": 1848,
  "Ġchair": 5874,
  "hate": 3325,
  "Ġgentle": 3254,
  "osom": 6636,
  "ĠBecause": 5633,
  "Ġcen": 3764,
  "Ġpast": 2163,
  "Ġimpr": 1755,
  "Ġemb": 3777,
  "umer": 8128,
  "Ġdedi": 6715,
  "fter": 2044,
  "oud": 2133,
  "sed": 3110,
  "£": 101,
  "Ġarticles": 6127,
  "Ġsides": 4295,
  "Ġmach": 1726,
  "Ġcock": 4935,
  "Ġconcerned": 6360,
  "Ġhabit": 4677,
  "L": 48,
  "here": 3022,
  "ĠIndian": 7023,
  "inition": 5962,
  "Ġcost": 1405,
  "Ġmet": 1527,
  "er": 282,
  "Ġefficient": 3099,
  "Ġanother": 1361,
  "Ġtail": 4543,
  "Ġbeginning": 3986,
  "vy": 7457,
  "Ġsound": 2262,
  "Ġcompet": 3292,
  "EN": 948,
  "Ġfri": 4461,
  "cial": 1055,
  "Ġplenty": 3280,
  "Ġboys": 6728,
  "Ġincredible": 6149,
  "Ġarrived": 4503,
  "Ġ{": 277,
  "Ġquarter": 5493,
  "om": 301,
  "Ġter": 1429,
  "ø": 185,
  "We": 875,
  "Ġaccurately": 5817,
  "Ġrelaxed": 6668,
  "Ġmo": 662,
  "vent": 1952,
  "Ġreserve": 5040,
  "Ġblow": 4940,
  "Ġexcept": 4437,
  "gine": 2239,
  "If": 1245,
  "forest": 6531,
  "ENCE": 3739,
  "uing": 6301,
  "alian": 4143,
  "Ġunb": 5735,
  "Ġob": 2120,
  "ial": 1053,
  "Ġflesh": 6901,
  "Ġnoble": 3028,
  "Ġglass": 3317,
  "Č": 205,
  "Ġbold": 5293,
  "Ġfired": 8104,
  "commo": 7717,
  "ease": 658,
  "Ġresources": 3223,
  "Ġnights": 4616,
  "h": 76,
  "Ġlegs": 5645,
  "ĠWater": 7594,
  "Ġpolitical": 5402,
  "Honey": 5102,
  "Ġoffer": 1511,
  "Ġknight": 7378,
  "storm": 7159,
  "Ġpian": 5971,
  "Ġmaintenance": 7104,
  "spected": 7357,
  "Ġlots": 3334,
  "Ġwine": 2827,
  "Ġcr": 1630,
  "Ġloving": 6045,
  "96": 2374,
  "Ġattract": 4222,
  "Ġfile": 4784,
  "can": 3933,
  "ĠWill": 2225,
  "ŀ": 257,
  "ĠClarence": 5087,
  "arm": 2637,
  "VOL": 3767,
  "Ġexplain": 3031,
  "ĠSaturday": 2890,
  "180": 7879,
  "Ġboth": 1384,
  "About": 3255,
  "Ġcurrency": 5387,
  "HORTEN": 5179,
  "ety": 2858,
  "101": 5122,
  "ĠSar": 4895,
  "Ġpiano": 7029,
  "Ġway": 839,
  "Ġmeaningful": 7112,
  "Ġhobbies": 6932,
  "ĠLos": 6464,
  "Ġplans": 3369,
  "17": 1251,
  "Ġmem": 2300,
  "hes": 1951,
  "ĠCome": 2754,
  "Ġefforts": 6847,
  "ze": 2171,
  "Ġperson": 1192,
  "Ġhasn": 5038,
  "Ġpatience": 5694,
  "Ġwealth": 6885,
  "ĠOtherwise": 8056,
  "Ġwonderful": 2414,
  "Ġtot": 2240,
  "Ġtrack": 3670,
  "Ġmaj": 1939,
  "tenance": 5523,
  "Ġapply": 2619,
  "Ġgarden": 4175,
  "ĠPer": 5988,
  "Ġsal": 1121,
  "Ġtop": 1769,
  "apt": 6444,
  "ĠComp": 2808,
  "Ġinstall": 4662,
  "nect": 2616,
  "what": 2697,
  "Goodbye": 6260,
  "uly": 3882,
  "Ġreceive": 2243,
  "Ġpredict": 4350,
  "Ġdra": 2149,
  "Ġmorning": 1006,
  "ė": 216,
  "ISAB": 3622,
  "Á": 130,
  "ival": 3730,
  "Ġmeant": 4928,
  "book": 3787,
  "dom": 315,
  "ost": 1190,
  "aper": 3500,
  "emn": 7686,
  "Ġautomation": 7641,
  "ĠMac": 5983,
  "Ġlonely": 8050,
  "Add": 6946,
  "ĠMy": 1258,
  "Ġsugar": 4443,
  "Ġsignifi": 4868,
  "Ġalgorithms": 4349,
  "Ġphysics": 7422,
  "Ġobs": 5152,
  "Ġdescribe": 3484,
  "aste": 8106,
  "Ġmath": 3696,
  "Ġcreate": 2283,
  "Ġgraduation": 7314,
  "ably": 1775,
  "Ġforecast": 6664,
  "Ġchamp": 5350,
  "Ġfast": 2461,
  "Ġcard": 1277,
  "Ġplatforms": 6931,
  "q": 85,
  "gon": 5230,
  "Ġprinciples": 7137,
  "Ġplastic": 4235,
  "ief": 3664,
  "umber": 4717,
  "Ġelements": 4311,
  "Ġpure": 7367,
  "Ġsam": 4604,
  "MIRANDA": 7790,
  "ossible": 5138,
  "Ġsubjects": 5816,
  "Ġstates": 5195,
  "Ĳ": 243,
  "ome": 503,
  "Ġgates": 7264,
  "Ġtaxes": 7631,
  "102": 3721,
  "reeze": 6401,
  "ĠWall": 6714,
  "Ġsynon": 6499,
  "Explain": 2595,
  "mit": 3844,
  "ilty": 6962,
  "Ġsea": 2307,
  "Ġany": 631,
  "Ġforce": 4787,
  "Ġthemselves": 4366,
  "RICHARD": 6860,
  "Ġcinema": 6678,
  "Ġsac": 6197,
  "ĠWeb": 6553,
  "ĠANNE": 6220,
  "Don": 1389,
  "versary": 6479,
  "Ġrece": 1532,
  "ci": 709,
  "Ġappro": 2700,
  "ular": 1242,
  "Ġign": 5365,
  "Ġgift": 3213,
  "ĠIs": 1173,
  "Ġrefriger": 5750,
  "Ġwinter": 2706,
  "lem": 2576,
  "ĠAd": 1779,
  "Ġshared": 7716,
  "iture": 3832,
  "Ġcelebrate": 5311,
  "Ġoffered": 6570,
  "Ġpounds": 3835,
  "ail": 912,
  "IZ": 6597,
  "ĠCh": 865,
  "rap": 4650,
  "Ġsmall": 1492,
  "Ġjeans": 6517,
  "ushing": 6164,
  "Ġnegative": 4914,
  "offer": 7681,
  "r": 86,
  "alk": 1038,
  "Ġfather": 1616,
  "arch": 1705,
  "ĠThank": 1089,
  "ĠIII": 3486,
  "Ġvirtue": 7540,
  "Ġsupermark": 5492,
  "ys": 365,
  "×": 152,
  "ta": 5000,
  "Ġmonitor": 6727,
  "V": 58,
  "Ġsentiment": 6142,
  "use": 781,
  "blem": 890,
  "Ġbunch": 7262,
  "Ġhelping": 4103,
  "al": 294,
  "Ġtool": 3615,
  "Ġbed": 1774,
  "Ġbye": 5853,
  "Ġtonight": 1641,
  "sport": 2079,
  "Ġdrove": 7926,
  "Ve": 1126,
  "ard": 637,
  "xt": 836,
  "Ġyeah": 3833,
  "ĠGoogle": 7642,
  "Ġdisc": 1391,
  "Dear": 6223,
  "cles": 4528,
  "ĠBrit": 4873,
  "ĕ": 214,
  "42": 2767,
  "Ġmin": 989,
  "eed": 5504,
  "ĠAb": 6710,
  "Ġalso": 858,
  "Ġdevelop": 1784,
  "Ġyear": 854,
  "Ġaccounting": 5385,
  "vost": 4480,
  "Ċ": 203,
  "Ġlatest": 3336,
  "wich": 4542,
  "Ġgovern": 2482,
  "ĠRuss": 6803,
  "Ġpassage": 5254,
  "Ġinvite": 4584,
  "ĠBrown": 4256,
  "Ġdialogue": 7685,
  "ther": 1783,
  "ê": 171,
  "Ġdef": 1900,
  "Ġlen": 7702,
  "Ġweigh": 6183,
  "Ġsingle": 2497,
  "Ġthree": 1077,
  "Ġsoci": 4127,
  "Ġengagement": 7323,
  "des": 5897,
  "ucing": 4327,
  "Ġumbre": 7234,
  "Ġcentre": 6346,
  "Ġperhaps": 4981,
  "Ġmoving": 4179,
  "Ġfree": 1459,
  "Ġpermit": 6475,
  "Ġle": 1449,
  "Ġexercises": 7212,
  "Ġinto": 971,
  "tern": 1685,
  "Ġbride": 5854,
  "Ar": 4071,
  "ĠYeah": 8085,
  "'": 11,
  "Ġsometimes": 2568,
  "ign": 849,
  "Ġhers": 5559,
  "Ġcolleag": 4287,
  "ĠDoes": 3391,
  "ground": 3925,
  "Ġfour": 1796,
  "ner": 1131,
  "bo": 2992,
  "Ġplaying": 2701,
  "Ġanniversary": 6792,
  "Ġindividuals": 5400,
  "PER": 4428,
  "Ġproject": 2379,
  "arian": 5148,
  "ing": 370,
  "Ġhel": 693,
  "Ġutil": 6430,
  "Ġvill": 3662,
  "Ġdow": 4570,
  "Ġwrote": 6100,
  "ient": 1430,
  "ific": 1763,
  "Ġthe": 354,
  "ification": 3163,
  "just": 3861,
  "zen": 3791,
  "bling": 4579,
  "ffic": 2174,
  "yth": 4512,
  "Ġyourselves": 7713,
  "Ġdecision": 2470,
  "Ġfifteen": 4374,
  "Ġshirts": 7069,
  "ĠLee": 5787,
  "Ġliked": 4244,
  "Ġhappen": 1575,
  "Ġslight": 6824,
  "Ġsuspect": 7721,
  "Ġ21": 3794,
  "Yep": 7561,
  "Ġelev": 5574,
  "ading": 4716,
  "Ġrow": 7841,
  "ught": 3230,
  "aren": 5509,
  "Ġprot": 6461,
  "Ġinit": 5328,
  "uesday": 3825,
  "Ġflying": 5440,
  "Ġt": 296,
  "Didn": 6263,
  "ĠOnly": 7016,
  "ources": 2116,
  "Thank": 774,
  "Ġbel": 1150,
  "Ma": 5659,
  "bl": 779,
  "Ġset": 1162,
  "Ê": 139,
  "ed": 408,
  "Ġgarlic": 4839,
  "Ġvariety": 3607,
  "Ġconcise": 7537,
  "eding": 6241,
  "ĠRest": 7985,
  "CAPULET": 6269,
  "Ġinvestment": 5643,
  "Ġthought": 1253,
  "Ġbit": 1564,
  "Ġspr": 7085,
  "Ġfry": 7704,
  "Ġexec": 4304,
  "Ġvalu": 5533,
  "Ġthird": 3608,
  "els": 2033,
  "Ġissues": 4661,
  "top": 8082,
  "Ġfalse": 4300,
  "ĠLincoln": 7427,
  "Ġ!\",": 8084,
  "ets": 1425,
  "old": 1856,
  "Ġef": 4149,
  "end": 601,
  "EY": 3900,
  "Ġstored": 7530,
  "Ġbedroom": 3703,
  "Ġcoach": 7867,
  "nected": 4941,
  "ĠOlympics": 7124,
  "Ġanimal": 4372,
  "Ġcaught": 4385,
  "Ġterm": 4068,
  "BER": 5953,
  "Ġfavour": 5532,
  "Ġtourist": 6270,
  "Ġinvolved": 4838,
  "Ġschools": 4723,
  "ĠEdward": 3319,
  "Ġsta": 1886,
  "Ġwaste": 3583,
  "Ġgood": 623,
  "Ġstom": 4490,
  "Ġdec": 1119,
  "made": 6696,
  "vol": 2942,
  "Ġvacan": 8034,
  "Ġdare": 5066,
  "bre": 6225,
  "ġ": 226,
  "oc": 2557,
  "Ġlea": 939,
  "Ġfourth": 7890,
  "Ġlog": 3260,
  "lect": 4098,
  "fess": 5505,
  "und": 1493,
  "Ġemployees": 2893,
  "Ġtight": 5277,
  "sel": 2278,
  "Tis": 3589,
  "Ġmore": 675,
  "lying": 6705,
  "Ġfor": 419,
  "ä": 165,
  "ĠFor": 2157,
  "Ġpar": 1370,
  "then": 7848,
  "36": 1293,
  "Ġpull": 4023,
  "Ġseek": 5679,
  "Ġnatural": 2737,
  "Ġtick": 1577,
  "Ġfeast": 7966,
  "goti": 4909,
  "Ġbegin": 1915,
  "Ġsend": 1582,
  "idx": 342,
  "ĠVe": 4739,
  "Ġinvent": 6175,
  "Ġcloud": 4795,
  "Ġ..": 1442,
  "ĠDis": 6189,
  "izes": 3822,
  "Ġcruel": 8024,
  "anio": 7687,
  "Ġseeing": 3449,
  "Ġoften": 1461,
  "D": 40,
  "anges": 6193,
  "na": 2297,
  "ac": 1254,
  "iol": 4036,
  "Ġcooper": 5065,
  "usion": 4568,
  "te": 270,
  "Ġfail": 3715,
  "Ġremember": 1657,
  "Ġquote": 7601,
  "Ġdistinct": 7416,
  "Ġarts": 7506,
  "ĠHouse": 7080,
  "Ġforget": 2401,
  "CATES": 8188,
  "Ġpronoun": 7442,
  "ever": 1816,
  "Ġunless": 5991,
  "Ġdecent": 7285,
  "Ġhi": 4381,
  "ava": 7215,
  "ĠGo": 3016,
  "Right": 2506,
  "igning": 6253,
  "Ġdoll": 1386,
  "Ġteacher": 2760,
  "ĠWednesday": 4897,
  "Ġoffence": 8137,
  "uals": 4707,
  "titude": 1282,
  "ERS": 6650,
  "ĠLearning": 6941,
  "Ġmanner": 5625,
  "Ġband": 4516,
  "Ġstocks": 6838,
  "66": 1913,
  "Ġmir": 5607,
  "uous": 4960,
  "ĠGoodbye": 4726,
  "Ġop": 1147,
  "Ġsustain": 5003,
  "OKE": 4471,
  "Next": 4816,
  "Ġoverall": 5291,
  "*": 14,
  "aw": 2191,
  "En": 5184,
  "wn": 1070,
  "đ": 210,
  "Ġwestern": 6306,
  "Ġprovide": 1882,
  "abel": 5796,
  "UCKINGHAM": 4448,
  "ower": 1216,
  "Ġ22": 4646,
  "200": 4193,
  "Ġdog": 2362,
  "Ġface": 1851,
  "Ġstart": 1226,
  "ĠâĢĵ": 3762,
  "Ġded": 7965,
  "Ô": 149,
  "Ġenc": 2698,
  "Ġworried": 3635,
  "Ġtickets": 3001,
  "Ġ6": 517,
  "Ġgreatest": 5399,
  "Ġ)": 4738,
  "Ġrespons": 2546,
  "Ġpets": 7577,
  "tis": 1823,
  "ervice": 1146,
  "Ġlevel": 2496,
  "reg": 7696,
  "43": 3221,
  "ĠSignior": 7974,
  "ational": 1863,
  "Ġsource": 4877,
  "Ġfees": 5335,
  "ons": 1499,
  "Ġtraveled": 8180,
  "Ġseat": 1861,
  "stor": 8098,
  "Ġweight": 2581,
  "Ġscen": 5967,
  "Ġapp": 796,
  "Ġmor": 606,
  "Ġcompared": 7596,
  "ĠMr": 1034,
  "ators": 6024,
  "print": 6812,
  "Ġreservation": 2399,
  "Ġbegg": 7371,
  "Ġlocated": 4338,
  "wan": 3967,
  "Ġcases": 5460,
  "OP": 6520,
  "bsite": 2222,
  "Ġassure": 8023,
  ")": 13,
  "Ġfull": 1888,
  "ĠMa": 2584,
  "Ġsecond": 1909,
  "and": 586,
  "Ġdrive": 2160,
  "By": 2260,
  "Ġmistake": 4018,
  "GAR": 4565,
  "Ġadvertising": 4635,
  "Ġkn": 5244,
  "Ġdetermined": 6281,
  "BION": 7036,
  "ĠBen": 5070,
  "Ġdish": 2273,
  "Ġduring": 2385,
  "Mmm": 5707,
  "ongrat": 3980,
  "oes": 2742,
  "live": 6776,
  "venue": 7089,
  "Ġcharacter": 2939,
  "Ġlife": 1149,
  "Ġraised": 7767,
  "Acc": 6440,
  "Ġheading": 7888,
  "Ġsell": 2178,
  "side": 2429,
  "Ġgreat": 868,
  "obably": 5922,
  "Ġinc": 1397,
  "ĠPar": 3533,
  "Ġfriendly": 4155,
  "Happy": 5657,
  "Ġgoods": 2819,
  "fts": 7564,
  "rect": 422,
  "ardon": 3193,
  "ĠOF": 2699,
  "Ġfair": 1982,
  "Ġthank": 1125,
  "se": 415,
  "Ġroutine": 5946,
  "),": 4267,
  "ROMEO": 3187,
  "acket": 5624,
  "pril": 4551,
  "give": 5321,
  "ĠChinese": 1472,
  "ustomer": 6054,
  "All": 1330,
  "ĠLily": 7381,
  "33": 1902,
  "usted": 6163,
  "ĠStr": 6389,
  "directive": 427,
  "%": 9,
  "Ġlong": 860,
  ">": 34,
  "Ġabout": 562,
  "Ġtemp": 7625,
  "caster": 7325,
  "ulations": 2847,
  "Ġused": 1076,
  "ĠThou": 6970,
  "Ġdepartments": 8187,
  "iece": 6120,
  "Å": 134,
  "Ġshame": 3803,
  "ĠAg": 6620,
  "bt": 3109,
  "Ġjoint": 7856,
  "Ġtown": 2711,
  "Ġhost": 5529,
  "Ġmild": 6309,
  "ouds": 5278,
  "Ġmark": 1340,
  "rical": 6805,
  "Ġcollect": 3620,
  "ĠRight": 6245,
  "Ġdatab": 4986,
  "Ġtoo": 677,
  "Ġcorn": 7757,
  "cture": 8089,
  "urn": 438,
  "Ġve": 1544,
  "eam": 6303,
  "Ġsales": 2312,
  "Ġsil": 2481,
  "Ġtalk": 1466,
  "ustr": 1875,
  "Ġpot": 3399,
  "Ġgrammar": 6506,
  "107": 4045,
  "Ġsole": 7587,
  "ropri": 4091,
  "When": 1420,
  "Ġtheater": 7056,
  "ixt": 3731,
  "Ġscale": 6286,
  "\",": 271,
  "Ġtable": 1778,
  "yd": 4021,
  "ĠTake": 3116,
  "res": 2931,
  "ook": 576,
  "Ġiron": 6529,
  "99": 1292,
  "Ġfurniture": 3990,
  "Ġtongue": 3498,
  "Ġsoup": 3410,
  "Ġnode": 7997,
  "Ġforb": 6179,
  "Ġforty": 4519,
  "Ġrelig": 5383,
  "Ġ,": 2279,
  "con": 970,
  "ufact": 5353,
  "Ġswim": 2786,
  "ĠInc": 5371,
  "Ġcurrently": 7316,
  "Ġhour": 1130,
  "Ġstatement": 3253,
  "ĠAUMERLE": 7341,
  "ĠBritish": 7437,
  "ĠIt": 599,
  "Ġequipment": 5216,
  "Ġsites": 7156,
  "Ġbroke": 3798,
  "Ġsurvey": 5686,
  "ĠDi": 7493,
  "Ġsci": 2425,
  "LADY": 3779,
  "Ġill": 2985,
  "Ġlaugh": 4507,
  "Ġ}": 278,
  "Ġsch": 2249,
  "Ġlung": 7370,
  "ows": 2135,
  "Tomorrow": 7120,
  "erg": 1443,
  "name": 5553,
  "omas": 4966,
  "inter": 6605,
  "Ġhimself": 2898,
  "izing": 2998,
  "Ġskills": 2775,
  "Ġexciting": 3220,
  "Ġsevent": 8119,
  "69": 1749,
  "with": 6096,
  "Ġschool": 1296,
  "ates": 1365,
  "onstr": 6099,
  "Ġdivided": 7443,
  "Ġtechni": 4397,
  "aster": 1759,
  "Ġknee": 7924,
  "ories": 2636,
  "):": 3677,
  "as": 397,
  "Ġstore": 1928,
  "Ġvisit": 2062,
  "ĠVin": 7402,
  "ung": 2632,
  "ĠBr": 2747,
  "Ġquality": 2325,
  "Ġconcer": 3948,
  "Ġnew": 727,
  "Ġwhere": 1023,
  "SE": 6522,
  "Ġcare": 1166,
  "Ġpers": 5150,
  "Ġes": 3276,
  "ĠCont": 7979,
  "ĠBy": 2418,
  "Ġcomes": 1813,
  "Ġsteak": 5255,
  "Ġphot": 2690,
  "Ġdrinks": 3855,
  "Ġbottles": 7326,
  "Ġnobody": 5731,
  "ĠBye": 3978,
  "Ġdro": 5033,
  "Ġearlier": 4258,
  "Ġlocation": 4898,
  "Ġengineering": 5586,
  "using": 4544,
  "Ġsudd": 4101,
  "ß": 160,
  "Ġcond": 4493,
  "ĠEverything": 5049,
  "This": 1164,
  "Ġcin": 5326,
  "Ġsurf": 7761,
  "Therefore": 6130,
  "Ġtreat": 2907,
  "Ġlords": 4314,
  "quet": 5283,
  "Ġstands": 4441,
  "ĠSum": 7851,
  "ech": 4510,
  "Ġfrank": 6984,
  "Ġdozen": 5288,
  "Ġincreases": 6203,
  "Ġprin": 2817,
  "INIUS": 2958,
  "aring": 3502,
  "Ġrep": 1262,
  "Ġgreen": 2488,
  "rite": 1291,
  "Ġwar": 1419,
  "Ġphone": 1670,
  "Ġmolecules": 7930,
  "Ġlabel": 7321,
  "ution": 1627,
  "Ġrenew": 3356,
  "Ġchat": 3718,
  "Ġsite": 6868,
  "Ġ\"$": 4601,
  "Ġinterviewer": 7006,
  "co": 3398,
  "Ġ11": 738,
  "Ġfeet": 4308,
  "Indeed": 7545,
  "Ġage": 3210,
  "enerate": 1529,
  "Ġ/": 3381,
  "ies": 734,
  "Ġclimate": 2997,
  "ieve": 1319,
  "Ġfre": 1907,
  "ORIOLANUS": 3342,
  "Ġdeterm": 3266,
  "Unless": 7915,
  "ĠFriday": 2460,
  "Ġlake": 6535,
  "Ġgave": 3231,
  "CLA": 6772,
  "____": 5306,
  "Ġcry": 3528,
  "Ġyesterday": 2084,
  "Ġways": 2814,
  "ĠSince": 6623,
  "Ġdressing": 6575,
  "Can": 1097,
  "Ġinstant": 7906,
  "ĠCelsius": 7484,
  "¾": 127,
  "://": 6592,
  "Ġhom": 4203,
  "Ġposition": 2077,
  "Ġevent": 2413,
  "ong": 639,
  "Ġinse": 7165,
  "Ġplot": 6236,
  "Ġget": 593,
  "Ġsoldiers": 7132,
  "Ġpossess": 5342,
  "min": 4881,
  "Ġlad": 7703,
  "Ġca": 425,
  "Ġthroughout": 5746,
  "Ġads": 5427,
  "Ġingredients": 4139,
  "Ġmood": 4380,
  "ro": 787,
  "ourage": 7845,
  "Ġaccur": 2990,
  "Ġfellow": 4486,
  "Ġamen": 7287,
  "Su": 7245,
  "LLO": 4734,
  "Ġcourses": 4008,
  "Ġide": 5776,
  "Ġcompe": 6398,
  "Ġexha": 7174,
  "Ġven": 6604,
  "por": 3042,
  "ĠCard": 7854,
  "Ġexpression": 6840,
  "ĠYour": 2295,
  "uchio": 7737,
  "Ġthro": 5188,
  "Ġdetails": 3522,
  "bol": 5453,
  "ays": 731,
  "CLAUDIO": 7668,
  "imes": 1204,
  "Ġerr": 5754,
  "ements": 2008,
  "anging": 6399,
  "Ġce": 1762,
  "stant": 4644,
  "ĠNet": 6635,
  "Ġtowards": 4712,
  "Ġimp": 927,
  "Hath": 4916,
  "Ġfilled": 4533,
  "Ġexpected": 4007,
  "Ġdri": 2056,
  "Ġinte": 2410,
  "14": 1298,
  "Ġcompleted": 5634,
  "Ġsoldier": 7927,
  "art": 622,
  "Ġcig": 4749,
  "ode": 6474,
  "ĠBar": 4236,
  "Ġchest": 6113,
  "Ġfewer": 6730,
  "Ġvictory": 7435,
  "Ġsteal": 5999,
  "98": 2864,
  "Ġcaused": 4487,
  "Ġtemperatures": 6208,
  "Ġgolf": 7588,
  "Ġbrings": 4758,
  "lor": 5411,
  "Ġbite": 5718,
  "Ġassign": 4804,
  "gain": 3459,
  "aph": 4668,
  "Ġrun": 1501,
  "Got": 7344,
  "Ġuns": 5627,
  "text": 5233,
  "ives": 3246,
  "Ġap": 1580,
  "di": 300,
  "achine": 5739,
  "TRAN": 4451,
  "Ġfossil": 6152,
  "Ġhuge": 4990,
  "¸": 121,
  "Ġkil": 4388,
  "51": 2894,
  "ĠL": 516,
  "essenger": 6614,
  "ĠĠĠĠĠĠĠĠ": 264,
  "Ġcigaret": 5180,
  "Ġprobation": 8030,
  "yal": 3102,
  "gainst": 5591,
  "ĠJ": 771,
  "Ġroast": 7187,
  "Quite": 7551,
  "essert": 4233,
  "uess": 7464,
  "Ġcarry": 3172,
  "Ġtraining": 2799,
  "Ġlawyer": 7898,
  "oxide": 5943,
  "Ġtong": 3300,
  "Ġfoul": 5067,
  "Ġimpro": 2916,
  "Ġnational": 4609,
  "Ġconse": 5072,
  "Ġfound": 1695,
  "Ġmethods": 4113,
  "104": 3359,
  "Ġzoo": 7018,
  "hear": 7149,
  "mar": 2975,
  "ame": 723,
  "Ġexample": 2049,
  "Ġpotent": 2420,
  "Ġ%": 4847,
  "Sm": 8075,
  "that": 2304,
  "Ġsad": 4060,
  "erous": 5110,
  "Ġrespon": 2184,
  "Ġwool": 7824,
  "ips": 2934,
  "ia": 1438,
  "estern": 4361,
  "ĠNor": 3494,
  "Ġi": 1377,
  "oad": 3694,
  "Ġcream": 3436,
  "Ġwaitress": 7618,
  "sent": 1341,
  "Ġcommitted": 7793,
  "Ġcerem": 6238,
  "Ġsignal": 7759,
  "Ġmedia": 3496,
  "Ġflies": 7295,
  "vide": 1591,
  "ĠWorld": 4336,
  "Ġcandi": 5193,
  "Ġ&": 1240,
  "Ġcelebr": 3691,
  "Ġshelf": 7168,
  "Ġstam": 5007,
  "Ġstill": 1091,
  "Ġdon": 589,
  "ference": 3408,
  "Ġdeveloping": 5391,
  "isa": 5060,
  "Ġseen": 1742,
  "Ġcake": 3545,
  "¼": 125,
  "ĠMerc": 7982,
  "Today": 5995,
  "Ã": 132,
  "ceries": 7771,
  "Ġbeyond": 6381,
  "ĠGames": 8142,
  "Ġpages": 7833,
  "cience": 6326,
  "iling": 4329,
  "sp": 311,
  "B": 38,
  "ĠBOLINGBR": 4478,
  "Ġtimes": 1914,
  "Ġcase": 2074,
  "Ġdifference": 2355,
  "ca": 272,
  "Ġimages": 6554,
  "Ġimage": 5164,
  "Ġdelicious": 3426,
  "ĠSee": 2716,
  "Ġcas": 5242,
  "ĠAustralia": 5054,
  "Ġprem": 6708,
  "Ġmaking": 1776,
  "lot": 325,
  "ustom": 1167,
  "ĠService": 5518,
  "Hi": 1309,
  "Ġrepresent": 4183,
  "iding": 5605,
  "rible": 2396,
  "Ġdeath": 1927,
  "ental": 6108,
  "Ġimagin": 7430,
  "Ġjogging": 8124,
  "Ġkilome": 7922,
  "Ġreally": 717,
  "ont": 1962,
  "Ġta": 978,
  "Ġbroken": 3765,
  "el": 400,
  "ders": 7146,
  "broke": 5949,
  "why": 5865,
  "Ġfinger": 6875,
  "Ġlord": 1487,
  "Ġpainted": 7622,
  "ken": 1620,
  "Ġbased": 2849,
  "col": 5895,
  "Ġacross": 3851,
  "Ġdepending": 7217,
  "Ġbaking": 7060,
  "Me": 2868,
  "Ġhum": 1689,
  "Ġdiscovered": 8052,
  "Ġprocessing": 4185,
  "ĠÂ": 7256,
  "Ġadjust": 5337,
  "Ġaround": 1186,
  "care": 3884,
  "Ă": 195,
  "Ġmill": 3579,
  "Ġblog": 4369,
  "uild": 5901,
  "stand": 1289,
  "Ĭ": 237,
  "De": 4117,
  "02": 5225,
  "Ġassistance": 7903,
  "Ġromantic": 6509,
  "oucester": 6867,
  "Ġchanges": 3394,
  "Ġdeveloped": 6136,
  "Very": 2635,
  "alty": 7957,
  "Ġgroup": 3747,
  "Welcome": 3274,
  "ols": 6809,
  "Ġexp": 759,
  "ö": 183,
  "ICHARD": 2334,
  "Ù": 154,
  "Ġf": 386,
  "ĠLa": 6971,
  "verb": 7068,
  "Ġcar": 916,
  "ternal": 7621,
  "ison": 2770,
  "Ġvisitors": 7768,
  "Ġopin": 3252,
  "ant": 524,
  "cant": 3695,
  "Ġthy": 1127,
  "ĠDevelop": 5695,
  "Ġbas": 1440,
  "Till": 6295,
  "CUTIO": 5543,
  "Ġcheck": 1041,
  "Ġfi": 4126,
  "Ġcolor": 2061,
  "ĠSim": 6711,
  "Ġdoth": 3034,
  "Ġwarning": 6337,
  "ptop": 4496,
  "Ġwords": 1601,
  "Ġtouch": 2813,
  "Ġalmost": 2058,
  "Ġjour": 3068,
  "Ġbuying": 3536,
  "Ġfever": 4794,
  "eep": 3611,
  "Ġvolume": 7117,
  "Ġrecommend": 2287,
  "Ġreturn": 1820,
  "ist": 739,
  "Ġschedule": 3175,
  "Ġattach": 5879,
  "Ġclosed": 5248,
  "Ġinspection": 6014,
  "Ġsworn": 7508,
  "ĠGreat": 4577,
  "Ġconsumer": 7917,
  "Ġtennis": 4623,
  "ĠMachine": 7485,
  "nia": 5602,
  "Ġlaughing": 7433,
  "Ġpacking": 5868,
  "Ġchemical": 5760,
  "cling": 5015,
  "Ġsty": 2437,
  "Ġgener": 2073,
  "Ġstruck": 8148,
  "unt": 5364,
  "Ġsn": 3131,
  "ature": 1672,
  "ann": 3630,
  "ata": 5841,
  "YORK": 5708,
  "Ġpleas": 1699,
  "off": 6369,
  "Ġjust": 657,
  "Ġmaterials": 3898,
  "?\",": 387,
  "Ġinches": 7969,
  "Ġnon": 2326,
  "cin": 7040,
  "Ġcreatures": 7895,
  "down": 6091,
  "Ġrom": 4853,
  "ouble": 1800,
  "Ġy": 358,
  "Ġpitch": 6379,
  "Ġcomplete": 2514,
  "bon": 3918,
  "Ġfifth": 7777,
  "ster": 7153,
  "Ġbal": 3024,
  "Ġhad": 798,
  "Ġconcept": 3737,
  "ĠCamillo": 7549,
  "ĭ": 238,
  "ĠDick": 7180,
  "Ġinspir": 7473,
  "Ġletter": 2392,
  "many": 6159,
  "Ġess": 5454,
  "Ġbl": 855,
  "Ġspeaking": 2633,
  "Ġtelling": 3823,
  "Ġspoken": 6215,
  "Ġtriangle": 5744,
  "Ġtrim": 6991,
  "Ġregion": 7512,
  "erce": 7819,
  "Ġanti": 5401,
  "Stop": 8040,
  "Jack": 7559,
  "ĠOh": 2024,
  "Ġquarrel": 6427
}